{
  "version": "1.0",
  "truncation": null,
  "padding": null,
  "added_tokens": [
    {
      "id": 0,
      "content": "</s>",
      "single_word": false,
      "lstrip": false,
      "rstrip": false,
      "normalized": false,
      "special": true
    },
    {
      "id": 1,
      "content": "<pad>",
      "single_word": false,
      "lstrip": false,
      "rstrip": false,
      "normalized": false,
      "special": true
    },
    {
      "id": 2,
      "content": "<unk>",
      "single_word": false,
      "lstrip": false,
      "rstrip": false,
      "normalized": false,
      "special": true
    },
    {
      "id": 3,
      "content": "<user>",
      "single_word": false,
      "lstrip": false,
      "rstrip": false,
      "normalized": false,
      "special": true
    },
    {
      "id": 4,
      "content": "<assistant>",
      "single_word": false,
      "lstrip": false,
      "rstrip": false,
      "normalized": false,
      "special": true
    },
    {
      "id": 5,
      "content": "<think>",
      "single_word": false,
      "lstrip": false,
      "rstrip": false,
      "normalized": false,
      "special": true
    },
    {
      "id": 6,
      "content": "</think>",
      "single_word": false,
      "lstrip": false,
      "rstrip": false,
      "normalized": false,
      "special": true
    },
    {
      "id": 7,
      "content": "<answer>",
      "single_word": false,
      "lstrip": false,
      "rstrip": false,
      "normalized": false,
      "special": true
    },
    {
      "id": 8,
      "content": "</answer>",
      "single_word": false,
      "lstrip": false,
      "rstrip": false,
      "normalized": false,
      "special": true
    },
    {
      "id": 9,
      "content": "<system>",
      "single_word": false,
      "lstrip": false,
      "rstrip": false,
      "normalized": false,
      "special": true
    },
    {
      "id": 10,
      "content": "<image>",
      "single_word": false,
      "lstrip": false,
      "rstrip": false,
      "normalized": false,
      "special": true
    },
    {
      "id": 11,
      "content": "<tool>",
      "single_word": false,
      "lstrip": false,
      "rstrip": false,
      "normalized": false,
      "special": true
    },
    {
      "id": 12,
      "content": "</tool>",
      "single_word": false,
      "lstrip": false,
      "rstrip": false,
      "normalized": false,
      "special": true
    }
  ],
  "normalizer": null,
  "pre_tokenizer": {
    "type": "ByteLevel",
    "add_prefix_space": false,
    "trim_offsets": true,
    "use_regex": true
  },
  "post_processor": null,
  "decoder": {
    "type": "ByteLevel",
    "add_prefix_space": true,
    "trim_offsets": true,
    "use_regex": true
  },
  "model": {
    "type": "BPE",
    "dropout": null,
    "unk_token": null,
    "continuing_subword_prefix": null,
    "end_of_word_suffix": null,
    "fuse_unk": false,
    "byte_fallback": false,
    "ignore_merges": false,
    "vocab": {
      "</s>": 0,
      "<pad>": 1,
      "<unk>": 2,
      "<user>": 3,
      "<assistant>": 4,
      "<think>": 5,
      "</think>": 6,
      "<answer>": 7,
      "</answer>": 8,
      "<system>": 9,
      "<image>": 10,
      "<tool>": 11,
      "</tool>": 12,
      "!": 13,
      "\"": 14,
      "#": 15,
      "$": 16,
      "%": 17,
      "&": 18,
      "'": 19,
      "(": 20,
      ")": 21,
      "*": 22,
      "+": 23,
      ",": 24,
      "-": 25,
      ".": 26,
      "/": 27,
      "0": 28,
      "1": 29,
      "2": 30,
      "3": 31,
      "4": 32,
      "5": 33,
      "6": 34,
      "7": 35,
      "8": 36,
      "9": 37,
      ":": 38,
      ";": 39,
      "<": 40,
      "=": 41,
      ">": 42,
      "?": 43,
      "@": 44,
      "A": 45,
      "B": 46,
      "C": 47,
      "D": 48,
      "E": 49,
      "F": 50,
      "G": 51,
      "H": 52,
      "I": 53,
      "J": 54,
      "K": 55,
      "L": 56,
      "M": 57,
      "N": 58,
      "O": 59,
      "P": 60,
      "Q": 61,
      "R": 62,
      "S": 63,
      "T": 64,
      "U": 65,
      "V": 66,
      "W": 67,
      "X": 68,
      "Y": 69,
      "Z": 70,
      "[": 71,
      "\\": 72,
      "]": 73,
      "^": 74,
      "_": 75,
      "`": 76,
      "a": 77,
      "b": 78,
      "c": 79,
      "d": 80,
      "e": 81,
      "f": 82,
      "g": 83,
      "h": 84,
      "i": 85,
      "j": 86,
      "k": 87,
      "l": 88,
      "m": 89,
      "n": 90,
      "o": 91,
      "p": 92,
      "q": 93,
      "r": 94,
      "s": 95,
      "t": 96,
      "u": 97,
      "v": 98,
      "w": 99,
      "x": 100,
      "y": 101,
      "z": 102,
      "{": 103,
      "|": 104,
      "}": 105,
      "~": 106,
      "¡": 107,
      "¢": 108,
      "£": 109,
      "¤": 110,
      "¥": 111,
      "¦": 112,
      "§": 113,
      "¨": 114,
      "©": 115,
      "ª": 116,
      "«": 117,
      "¬": 118,
      "®": 119,
      "¯": 120,
      "°": 121,
      "±": 122,
      "²": 123,
      "³": 124,
      "´": 125,
      "µ": 126,
      "¶": 127,
      "·": 128,
      "¸": 129,
      "¹": 130,
      "º": 131,
      "»": 132,
      "¼": 133,
      "½": 134,
      "¾": 135,
      "¿": 136,
      "À": 137,
      "Á": 138,
      "Â": 139,
      "Ã": 140,
      "Ä": 141,
      "Å": 142,
      "Æ": 143,
      "Ç": 144,
      "È": 145,
      "É": 146,
      "Ê": 147,
      "Ë": 148,
      "Ì": 149,
      "Í": 150,
      "Î": 151,
      "Ï": 152,
      "Ð": 153,
      "Ñ": 154,
      "Ò": 155,
      "Ó": 156,
      "Ô": 157,
      "Õ": 158,
      "Ö": 159,
      "×": 160,
      "Ø": 161,
      "Ù": 162,
      "Ú": 163,
      "Û": 164,
      "Ü": 165,
      "Ý": 166,
      "Þ": 167,
      "ß": 168,
      "à": 169,
      "á": 170,
      "â": 171,
      "ã": 172,
      "ä": 173,
      "å": 174,
      "æ": 175,
      "ç": 176,
      "è": 177,
      "é": 178,
      "ê": 179,
      "ë": 180,
      "ì": 181,
      "í": 182,
      "î": 183,
      "ï": 184,
      "ð": 185,
      "ñ": 186,
      "ò": 187,
      "ó": 188,
      "ô": 189,
      "õ": 190,
      "ö": 191,
      "÷": 192,
      "ø": 193,
      "ù": 194,
      "ú": 195,
      "û": 196,
      "ü": 197,
      "ý": 198,
      "þ": 199,
      "ÿ": 200,
      "Ā": 201,
      "ā": 202,
      "Ă": 203,
      "ă": 204,
      "Ą": 205,
      "ą": 206,
      "Ć": 207,
      "ć": 208,
      "Ĉ": 209,
      "ĉ": 210,
      "Ċ": 211,
      "ċ": 212,
      "Č": 213,
      "č": 214,
      "Ď": 215,
      "ď": 216,
      "Đ": 217,
      "đ": 218,
      "Ē": 219,
      "ē": 220,
      "Ĕ": 221,
      "ĕ": 222,
      "Ė": 223,
      "ė": 224,
      "Ę": 225,
      "ę": 226,
      "Ě": 227,
      "ě": 228,
      "Ĝ": 229,
      "ĝ": 230,
      "Ğ": 231,
      "ğ": 232,
      "Ġ": 233,
      "ġ": 234,
      "Ģ": 235,
      "ģ": 236,
      "Ĥ": 237,
      "ĥ": 238,
      "Ħ": 239,
      "ħ": 240,
      "Ĩ": 241,
      "ĩ": 242,
      "Ī": 243,
      "ī": 244,
      "Ĭ": 245,
      "ĭ": 246,
      "Į": 247,
      "į": 248,
      "İ": 249,
      "ı": 250,
      "Ĳ": 251,
      "ĳ": 252,
      "Ĵ": 253,
      "ĵ": 254,
      "Ķ": 255,
      "ķ": 256,
      "ĸ": 257,
      "Ĺ": 258,
      "ĺ": 259,
      "Ļ": 260,
      "ļ": 261,
      "Ľ": 262,
      "ľ": 263,
      "Ŀ": 264,
      "ŀ": 265,
      "Ł": 266,
      "ł": 267,
      "Ń": 268,
      "ä¸": 269,
      "ï¼": 270,
      "çļ": 271,
      "çļĦ": 272,
      "ï¼Į": 273,
      "ãĢ": 274,
      "ãĢĤ": 275,
      "äº": 276,
      "ä»": 277,
      "åı": 278,
      "æľ": 279,
      "Ġt": 280,
      "Ġa": 281,
      "è¿": 282,
      "in": 283,
      "æĪ": 284,
      "åħ": 285,
      "ä½": 286,
      "æĺ": 287,
      "å¤": 288,
      "è¯": 289,
      "ä¸Ģ": 290,
      "æĸ": 291,
      "å®": 292,
      "çĶ": 293,
      "he": 294,
      "åĪ": 295,
      "åĴ": 296,
      "åľ": 297,
      "åĴĮ": 298,
      "re": 299,
      "åĲ": 300,
      "åĬ": 301,
      "on": 302,
      "ç»": 303,
      "ä¹": 304,
      "æĺ¯": 305,
      "Ġs": 306,
      "å°": 307,
      "at": 308,
      "Ġc": 309,
      "åŃ": 310,
      "nd": 311,
      "ä¸ª": 312,
      "er": 313,
      "ä»¥": 314,
      "es": 315,
      "Ġthe": 316,
      "è®": 317,
      "en": 318,
      "ãĢģ": 319,
      "æĪĳ": 320,
      "or": 321,
      "åľ¨": 322,
      "it": 323,
      "äºº": 324,
      "ĥ½": 325,
      "ing": 326,
      "æľī": 327,
      "ou": 328,
      "ï¼ļ": 329,
      "æĹ": 330,
      "Ġp": 331,
      "Ġand": 332,
      "al": 333,
      "äºĨ": 334,
      "Ġw": 335,
      "åı¯": 336,
      "è¿Ļ": 337,
      "åĽ": 338,
      "æĿ": 339,
      "åº": 340,
      "éĩ": 341,
      "å¹": 342,
      "å¸": 343,
      "an": 344,
      "ä¸Ń": 345,
      "ä¼": 346,
      "éĢ": 347,
      "è¡": 348,
      "èĥ½": 349,
      "çļĦæ": 350,
      "åĩ": 351,
      "Ġo": 352,
      "Ġm": 353,
      "å·": 354,
      "æĸĩ": 355,
      "Ġto": 356,
      "åĮ": 357,
      "Ġf": 358,
      "è¦": 359,
      "è¦ģ": 360,
      "é¢": 361,
      "å¯": 362,
      "å¾": 363,
      "åĨ": 364,
      "Ġin": 365,
      "ä¸º": 366,
      "è§": 367,
      "is": 368,
      "å¥": 369,
      "ion": 370,
      "çī": 371,
      "ç§": 372,
      "ä»¬": 373,
      "éĹ": 374,
      "çİ": 375,
      "Ġb": 376,
      "ed": 377,
      "å¼": 378,
      "ä¸į": 379,
      "çĶ¨": 380,
      "æķ": 381,
      "èĢ": 382,
      "ic": 383,
      "å½": 384,
      "æĢ": 385,
      "æŀ": 386,
      "çĶŁ": 387,
      "çŃ": 388,
      "æı": 389,
      "æī": 390,
      "æŃ": 391,
      "åı¯ä»¥": 392,
      "Ġof": 393,
      "éĿ": 394,
      "le": 395,
      "åį": 396,
      "ä¿": 397,
      "æĬ": 398,
      "âĢ": 399,
      "æł": 400,
      "æ³": 401,
      "Ġd": 402,
      "ar": 403,
      "çĽ": 404,
      "æĿ¥": 405,
      "ro": 406,
      "èĩ": 407,
      "æĦ": 408,
      "åĵ": 409,
      "ent": 410,
      "å¦": 411,
      "ä¸ĭ": 412,
      "Ġe": 413,
      "çĲ": 414,
      "ä¸Ģä¸ª": 415,
      "æĪĲ": 416,
      "åİ": 417,
      "æĥ": 418,
      "æıĲ": 419,
      "æ°": 420,
      "åĪ°": 421,
      "ä»ĸ": 422,
      "æĽ": 423,
      "åŃ¦": 424,
      "æĻ": 425,
      "å¦Ĥ": 426,
      "ve": 427,
      "Ġh": 428,
      "è¡Į": 429,
      "åĩº": 430,
      "åĳ": 431,
      "å¿": 432,
      "ct": 433,
      "æĹ¶": 434,
      "å¯¹": 435,
      "æĭ": 436,
      "as": 437,
      "ä½ł": 438,
      "åŃĲ": 439,
      "Ġre": 440,
      "om": 441,
      "ä¾": 442,
      "äºİ": 443,
      "æİ": 444,
      "åľ°": 445,
      "Ġth": 446,
      "é¢ĺ": 447,
      "ä¸Ĭ": 448,
      "ç«": 449,
      "æĶ": 450,
      "è´": 451,
      "å°ı": 452,
      "å¥½": 453,
      "ä¼ļ": 454,
      "çŃī": 455,
      "æĸ¹": 456,
      "æľ¬": 457,
      "èĩª": 458,
      "åĪĨ": 459,
      "æĽ´": 460,
      "äºĽ": 461,
      "å¤ļ": 462,
      "us": 463,
      "æµ": 464,
      "æ¯": 465,
      "èµ": 466,
      "å¤§": 467,
      "å±": 468,
      "æį": 469,
      "ï¼Ł": 470,
      "åĬ¨": 471,
      "ä½ľ": 472,
      "å·¥": 473,
      "çī©": 474,
      "çº": 475,
      "åħ³": 476,
      "è¾": 477,
      "å¹¶": 478,
      "åıĳ": 479,
      "ç®": 480,
      "Ġy": 481,
      "æĮ": 482,
      "ç±": 483,
      "é£": 484,
      "éľ": 485,
      "æĪĳä»¬": 486,
      "éĿ¢": 487,
      "æ´": 488,
      "å®ļ": 489,
      "Ġyou": 490,
      "æľĢ": 491,
      "åħ¶": 492,
      "il": 493,
      "Ġl": 494,
      "æŀľ": 495,
      "ation": 496,
      "im": 497,
      "åŁ": 498,
      "æ¬": 499,
      "ç§į": 500,
      "çİ°": 501,
      "çļĦç": 502,
      "è¿Ľ": 503,
      "æ³ķ": 504,
      "éĻ": 505,
      "è¿ĩ": 506,
      "æĤ": 507,
      "éĹ®": 508,
      "åģ": 509,
      "æ¸": 510,
      "ä½ĵ": 511,
      "èī": 512,
      "å¤©": 513,
      "å®ĥ": 514,
      "æį®": 515,
      "ç»Ļ": 516,
      "åĬĽ": 517,
      "çĲĨ": 518,
      "æĺİ": 519,
      "éľĢ": 520,
      "æ²": 521,
      "å°Ĩ": 522,
      "åºĶ": 523,
      "ce": 524,
      "åĬł": 525,
      "ç±»": 526,
      "æĸ°": 527,
      "éģ": 528,
      "çĤ": 529,
      "åĮĸ": 530,
      "æĢ§": 531,
      "çĦ": 532,
      "é«": 533,
      "åĲĮ": 534,
      "ch": 535,
      "æĪĸ": 536,
      "ä½¿": 537,
      "åĽł": 538,
      "ä¿Ŀ": 539,
      "å¸¸": 540,
      "éĩį": 541,
      "çľ": 542,
      "é«ĺ": 543,
      "åı¥": 544,
      "id": 545,
      "è½": 546,
      "æĦŁ": 547,
      "Ġg": 548,
      "å®¶": 549,
      "ä¹Ł": 550,
      "et": 551,
      "æľº": 552,
      "è¶": 553,
      "å½±": 554,
      "æ±": 555,
      "ä¸»": 556,
      "ol": 557,
      "éĶ": 558,
      "éĺ": 559,
      "Ġpro": 560,
      "Ġthat": 561,
      "è¯Ń": 562,
      "çĦ¶": 563,
      "âĢĿ": 564,
      "ç«ł": 565,
      "el": 566,
      "ers": 567,
      "ĠI": 568,
      "å¾Ĺ": 569,
      "æķ°": 570,
      "Ġn": 571,
      "ra": 572,
      "æĸĩç«ł": 573,
      "âĢľ": 574,
      "éĢļ": 575,
      "Ġfor": 576,
      "åĵģ": 577,
      "ç³": 578,
      "éľĢè¦ģ": 579,
      "çĶµ": 580,
      "æĬĢ": 581,
      "æĻº": 582,
      "è°": 583,
      "Ġst": 584,
      "è§£": 585,
      "ĠT": 586,
      "ess": 587,
      "æĸĩæľ¬": 588,
      "ä¹ĭ": 589,
      "ä¹Ī": 590,
      "æĥħ": 591,
      "æĤ¨": 592,
      "éĹ®é¢ĺ": 593,
      "åº¦": 594,
      "ow": 595,
      "çŁ": 596,
      "èĢĮ": 597,
      "åī": 598,
      "æģ": 599,
      "Ġcan": 600,
      "è¡¨": 601,
      "ç»ı": 602,
      "æĻºèĥ½": 603,
      "Ġis": 604,
      "è¯·": 605,
      "çĿ": 606,
      "å¾Ī": 607,
      "éĹ´": 608,
      "ot": 609,
      "æŃ¤": 610,
      "èĬ": 611,
      "åĸ": 612,
      "Ġon": 613,
      "ç¾": 614,
      "Ġbe": 615,
      "ly": 616,
      "åħ¬": 617,
      "å¢": 618,
      "éĩı": 619,
      "åĽ½": 620,
      "ç©": 621,
      "Ġhe": 622,
      "çĤ¹": 623,
      "æľ¯": 624,
      "ç¤": 625,
      "ig": 626,
      "if": 627,
      "èī²": 628,
      "ir": 629,
      "èĤ": 630,
      "èĢħ": 631,
      "è¯į": 632,
      "å¹´": 633,
      "ul": 634,
      "å®ŀ": 635,
      "æ°Ķ": 636,
      "å»": 637,
      "ay": 638,
      "åĢ": 639,
      "åıĸ": 640,
      "ä¿¡": 641,
      "è¿Ļä¸ª": 642,
      "ä¹ł": 643,
      "åĲį": 644,
      "ç¨": 645,
      "å¿ĥ": 646,
      "ä½Ĩ": 647,
      "åĲĪ": 648,
      "æĦı": 649,
      "è¯¥": 650,
      "ä¸ļ": 651,
      "ä¾Ľ": 652,
      "Ġcon": 653,
      "ith": 654,
      "çĸ": 655,
      "st": 656,
      "è®¡": 657,
      "Ġex": 658,
      "åĲİ": 659,
      "ç¡": 660,
      "éĤ": 661,
      "äºĭ": 662,
      "æīĢ": 663,
      "ä»¥ä¸ĭ": 664,
      "ä»İ": 665,
      "è¿ĺ": 666,
      "å»º": 667,
      "æ®": 668,
      "çĽ¸": 669,
      "çĿĢ": 670,
      "ment": 671,
      "çĲĥ": 672,
      "iv": 673,
      "ä¸ĢäºĽ": 674,
      "éĥ½": 675,
      "åĮħ": 676,
      "æıĲä¾Ľ": 677,
      "æ´»": 678,
      "ä¸İ": 679,
      "ç¾İ": 680,
      "Ġsu": 681,
      "æł¹": 682,
      "è¿Ľè¡Į": 683,
      "æŁ": 684,
      "Ġwith": 685,
      "åı¥åŃĲ": 686,
      "ut": 687,
      "ç½": 688,
      "å¼ı": 689,
      "ive": 690,
      "é£Ł": 691,
      "åħ¥": 692,
      "å±ķ": 693,
      "åħ¨": 694,
      "éĩĮ": 695,
      "è¿°": 696,
      "äººå·¥": 697,
      "am": 698,
      "é¡": 699,
      "å¤ĸ": 700,
      "çİ¯": 701,
      "çķ": 702,
      "çī¹": 703,
      "ä½¿çĶ¨": 704,
      "æĥ³": 705,
      "ç´": 706,
      "éĿŀ": 707,
      "èĲ": 708,
      "é¦": 709,
      "äººå·¥æĻºèĥ½": 710,
      "ç¯": 711,
      "åĨħ": 712,
      "ity": 713,
      "æŃ£": 714,
      "æ¡": 715,
      "se": 716,
      "éļ": 717,
      "è¢": 718,
      "å½ĵ": 719,
      "å¼Ģ": 720,
      "åİ»": 721,
      "éķ": 722,
      "ver": 723,
      "æģ¯": 724,
      "æł¹æį®": 725,
      "æ·": 726,
      "æ°´": 727,
      "Ġcom": 728,
      "æ¯Ķ": 729,
      "åıĺ": 730,
      "åĨĻ": 731,
      "æ®µ": 732,
      "æĺ¯ä¸Ģ": 733,
      "åŀ": 734,
      "éĥ": 735,
      "ad": 736,
      "ç³»": 737,
      "è·": 738,
      "åĬ©": 739,
      "ies": 740,
      "èģ": 741,
      "è¯´": 742,
      "åŃ¦ä¹ł": 743,
      "ç¨ĭ": 744,
      "åĪ¶": 745,
      "ate": 746,
      "åħ·": 747,
      "ç¡®": 748,
      "ur": 749,
      "å¸Ĥ": 750,
      "è®©": 751,
      "ä»Ģ": 752,
      "Ġas": 753,
      "Ġan": 754,
      "un": 755,
      "éĽ": 756,
      "Ġor": 757,
      "æĮģ": 758,
      "Ġare": 759,
      "Ġim": 760,
      "Ġit": 761,
      "éģĵ": 762,
      "åĿ": 763,
      "ect": 764,
      "çľĭ": 765,
      "ç¯ĩ": 766,
      "ç¼": 767,
      "ge": 768,
      "äº§": 769,
      "Ġal": 770,
      "ort": 771,
      "Ġmo": 772,
      "èµ·": 773,
      "çĥ": 774,
      "ab": 775,
      "ç»ĵ": 776,
      "åķ": 777,
      "ä»Ģä¹Ī": 778,
      "æĬĢæľ¯": 779,
      "å¸®": 780,
      "èº": 781,
      "åıĬ": 782,
      "éĥ¨": 783,
      "è¯Ŀ": 784,
      "çĽ®": 785,
      "éĤ£": 786,
      "èĭ": 787,
      "ç¬": 788,
      "ä½ķ": 789,
      "éķ¿": 790,
      "ak": 791,
      "éĿŀå¸¸": 792,
      "ure": 793,
      "èį": 794,
      "åĬ¡": 795,
      "ĠA": 796,
      "pp": 797,
      "ç®Ĺ": 798,
      "æ¯ı": 799,
      "èº«": 800,
      "Ġyour": 801,
      "çĭ": 802,
      "è¢«": 803,
      "åģ¥": 804,
      "ç§ĳ": 805,
      "æĹ¥": 806,
      "å°ĳ": 807,
      "å·±": 808,
      "åĻ": 809,
      "åīį": 810,
      "our": 811,
      "æĭ¬": 812,
      "éħ": 813,
      "Ġimp": 814,
      "éĢĤ": 815,
      "åĸľ": 816,
      "èĩªå·±": 817,
      "ial": 818,
      "åľº": 819,
      "å®¹": 820,
      "åıĹ": 821,
      "åı¯èĥ½": 822,
      "æĹł": 823,
      "åĽŀ": 824,
      "æ¬¢": 825,
      "ä¿¡æģ¯": 826,
      "Ġwh": 827,
      "Ġen": 828,
      "éĢī": 829,
      "åĻ¨": 830,
      "ä»ĸä»¬": 831,
      "åĮ»": 832,
      "äº¤": 833,
      "out": 834,
      "her": 835,
      "å¥½çļĦ": 836,
      "ä»£": 837,
      "åŀĭ": 838,
      "ud": 839,
      "é¢Ĩ": 840,
      "åĪ«": 841,
      "èĻ": 842,
      "çł": 843,
      "å¤Ħ": 844,
      "çĶµå½±": 845,
      "oc": 846,
      "çŃĶ": 847,
      "Ġha": 848,
      "è¨": 849,
      "op": 850,
      "é¥": 851,
      "Ġde": 852,
      "éª": 853,
      "çĪ": 854,
      "th": 855,
      "æ¶": 856,
      "Ġus": 857,
      "ä½į": 858,
      "åĪ©": 859,
      "è´¨": 860,
      "æ»": 861,
      "è®®": 862,
      "é£İ": 863,
      "å¹³": 864,
      "å¢ĥ": 865,
      "ä¸¤": 866,
      "æ¡Ī": 867,
      "æīĭ": 868,
      "çĹ": 869,
      "ĠThe": 870,
      "å§": 871,
      "ä¾ĭ": 872,
      "è¿ĻäºĽ": 873,
      "Ġle": 874,
      "éĢļè¿ĩ": 875,
      "éĩįè¦ģ": 876,
      "å¦Ĥæŀľ": 877,
      "ä¸ŃçļĦ": 878,
      "éŁ": 879,
      "ä»»": 880,
      "qu": 881,
      "åĵį": 882,
      "ä»¶": 883,
      "çĶŁæĪĲ": 884,
      "åĮħæĭ¬": 885,
      "ant": 886,
      "è®º": 887,
      "åŃĹ": 888,
      "åı¸": 889,
      "åŁŁ": 890,
      "åıĳå±ķ": 891,
      "è¨Ģ": 892,
      "çĻ": 893,
      "Ġv": 894,
      "åºĶçĶ¨": 895,
      "å°ıæĺİ": 896,
      "å°±": 897,
      "æłĩ": 898,
      "Ġch": 899,
      "ç®Ģ": 900,
      "æ±Ĥ": 901,
      "æ²¡": 902,
      "åĪĽ": 903,
      "åįķ": 904,
      "Ġwor": 905,
      "ĠS": 906,
      "åĨ³": 907,
      "è§Ĥ": 908,
      "ter": 909,
      "æĶ¹": 910,
      "ld": 911,
      "æĶ¾": 912,
      "ĠC": 913,
      "æİ¨": 914,
      "æ¸¸": 915,
      "ac": 916,
      "ere": 917,
      "èĪ": 918,
      "çģ": 919,
      "åıª": 920,
      "æľª": 921,
      "è®¾": 922,
      "å½±åĵį": 923,
      "Ġne": 924,
      "çŁ¥": 925,
      "ust": 926,
      "åº·": 927,
      "ç»Ł": 928,
      "ä¸ī": 929,
      "æĹ¶éĹ´": 930,
      "ain": 931,
      "å¸®åĬ©": 932,
      "æĢ»": 933,
      "ç¥": 934,
      "Ġtheir": 935,
      "æľŁ": 936,
      "é»": 937,
      "å£": 938,
      "åĸľæ¬¢": 939,
      "æº": 940,
      "pl": 941,
      "ä¹Ĳ": 942,
      "èĬĤ": 943,
      "åħ¬åı¸": 944,
      "æıı": 945,
      "æķĪ": 946,
      "è¯Ĩ": 947,
      "åģ¥åº·": 948,
      "res": 949,
      "ill": 950,
      "æµ·": 951,
      "æ¨": 952,
      "å¼º": 953,
      "å¤Ł": 954,
      "èĥ": 955,
      "Ġte": 956,
      "ç»Ļå®ļ": 957,
      "ç¤¾": 958,
      "æĸŃ": 959,
      "åĩı": 960,
      "ome": 961,
      "äººç±»": 962,
      "Ġme": 963,
      "æĳ": 964,
      "æ³¨": 965,
      "æŀģ": 966,
      "å®ī": 967,
      "é¢ĨåŁŁ": 968,
      "çĶŁæ´»": 969,
      "æ¼": 970,
      "og": 971,
      "æľį": 972,
      "è¾¾": 973,
      "æ·±": 974,
      "çĶ±": 975,
      "æł·": 976,
      "est": 977,
      "çĸĹ": 978,
      "du": 979,
      "åĽłæŃ¤": 980,
      "çİ¯å¢ĥ": 981,
      "ä¸įåĲĮ": 982,
      "æŃ¥": 983,
      "å·¥ä½ľ": 984,
      "æĺŁ": 985,
      "è±": 986,
      "èĦ": 987,
      "é©": 988,
      "'s": 989,
      "Ġhave": 990,
      "éŁ³": 991,
      "å¤ª": 992,
      "æķ°æį®": 993,
      "æµģ": 994,
      "å½¢": 995,
      "åİŁ": 996,
      "åģļ": 997,
      "ä¸ĸ": 998,
      "Ġinc": 999,
      "å·²": 1000,
      "èİ": 1001,
      "æıĲåıĸ": 1002,
      "iz": 1003,
      "æĻ¯": 1004,
      "è½¦": 1005,
      "act": 1006,
      "åıĭ": 1007,
      "æııè¿°": 1008,
      "æ²¡æľī": 1009,
      "å¸¦": 1010,
      "ions": 1011,
      "æĪ·": 1012,
      "åĽłä¸º": 1013,
      "å¯¼": 1014,
      "od": 1015,
      "è¿Ĳ": 1016,
      "æ¬¡": 1017,
      "os": 1018,
      "ist": 1019,
      "åĳĺ": 1020,
      "çĮ": 1021,
      "ç²": 1022,
      "éĴ": 1023,
      "èı": 1024,
      "Ġad": 1025,
      "å»ºè®®": 1026,
      "æ¨¡": 1027,
      "æĸĻ": 1028,
      "ff": 1029,
      "éĶ®": 1030,
      "æıĲé«ĺ": 1031,
      "è¯ķ": 1032,
      "èĩªçĦ¶": 1033,
      "å®ĥä»¬": 1034,
      "lp": 1035,
      "åŁº": 1036,
      "æī¾": 1037,
      "ãĢĭ": 1038,
      "å¦Ĥä½ķ": 1039,
      "ãĢĬ": 1040,
      "è®¤": 1041,
      "Ġhelp": 1042,
      "åİĨ": 1043,
      "ä¹ī": 1044,
      "Ġmore": 1045,
      "æĽ´åĬł": 1046,
      "åŁİ": 1047,
      "å¥¹": 1048,
      "ide": 1049,
      "ä¼ł": 1050,
      "æºĲ": 1051,
      "igh": 1052,
      "åĲĦ": 1053,
      "ä¸»è¦ģ": 1054,
      "are": 1055,
      "åħ³éĶ®": 1056,
      "ç¤º": 1057,
      "æĬ¤": 1058,
      "æĭ©": 1059,
      "æĮĩ": 1060,
      "åºĶè¯¥": 1061,
      "åĲĳ": 1062,
      "éĢł": 1063,
      "æł¼": 1064,
      "ç»Ħ": 1065,
      "éĢīæĭ©": 1066,
      "çķĮ": 1067,
      "åħī": 1068,
      "çļĦæķ": 1069,
      "Ġsh": 1070,
      "æĸ¹å¼ı": 1071,
      "æĹħ": 1072,
      "åĲĮæĹ¶": 1073,
      "è¿ĳ": 1074,
      "nt": 1075,
      "per": 1076,
      "20": 1077,
      "èĥ½å¤Ł": 1078,
      "ri": 1079,
      "ç¯ĩæĸĩç«ł": 1080,
      "èĲ½": 1081,
      "Ġab": 1082,
      "ç©¶": 1083,
      "è£": 1084,
      "åĨħå®¹": 1085,
      "è°ĥ": 1086,
      "all": 1087,
      "äººä»¬": 1088,
      "pe": 1089,
      "åı£": 1090,
      "çĪ±": 1091,
      "ï¼Ľ": 1092,
      "è¯Ńè¨Ģ": 1093,
      "è§Ĩ": 1094,
      "ç©º": 1095,
      "åĳ³": 1096,
      "çº¢": 1097,
      "åĮº": 1098,
      "èĢĥ": 1099,
      "ä»·": 1100,
      "åĲĹ": 1101,
      "åħ³äºİ": 1102,
      "çĬ": 1103,
      "ç½ĳ": 1104,
      "èĬ±": 1105,
      "åĳĬ": 1106,
      "æĺ¯ä¸Ģä¸ª": 1107,
      "ä¾ĭå¦Ĥ": 1108,
      "æľªæĿ¥": 1109,
      "çĹħ": 1110,
      "é¤": 1111,
      "è®¡ç®Ĺ": 1112,
      "å¿«": 1113,
      "å¹¿": 1114,
      "æľºåĻ¨": 1115,
      "æĸ¹æ³ķ": 1116,
      "ç®¡": 1117,
      "æĸ¹éĿ¢": 1118,
      "able": 1119,
      "é¢Ħ": 1120,
      "å¢ŀ": 1121,
      "ï¼ī": 1122,
      "éªĮ": 1123,
      "åķĨ": 1124,
      "é¤Ĳ": 1125,
      "æĢĿ": 1126,
      "Ķç©¶": 1127,
      "ç¦": 1128,
      "ä¹¦": 1129,
      "ä¸Ķ": 1130,
      "art": 1131,
      "ations": 1132,
      "Ġr": 1133,
      "åĩĨ": 1134,
      "å®Į": 1135,
      "åĩł": 1136,
      "é¦ĸ": 1137,
      "Ġwe": 1138,
      "ould": 1139,
      "éĵ": 1140,
      "å®¢": 1141,
      "åĪ°äºĨ": 1142,
      "éĶĻ": 1143,
      "é¡¹": 1144,
      "em": 1145,
      "Ġhas": 1146,
      "åħ¶ä»ĸ": 1147,
      "ä¼ĺ": 1148,
      "ical": 1149,
      "orm": 1150,
      "è¶Ĭ": 1151,
      "ä»¥åıĬ": 1152,
      "ä¸»é¢ĺ": 1153,
      "ance": 1154,
      "rit": 1155,
      "é¸": 1156,
      "å¼ķ": 1157,
      "éĩĳ": 1158,
      "è®¸": 1159,
      "è¯Ħ": 1160,
      "age": 1161,
      "æļ": 1162,
      "ĠH": 1163,
      "æ¸ħ": 1164,
      "åħĪ": 1165,
      "cc": 1166,
      "åĬŁ": 1167,
      "ç´ł": 1168,
      "æ£": 1169,
      "Ġwork": 1170,
      "å¤ĩ": 1171,
      "è½»": 1172,
      "ence": 1173,
      "æİ¥": 1174,
      "è§ī": 1175,
      "Ġcomp": 1176,
      "ï¼Ī": 1177,
      "åĪĹ": 1178,
      "ĠW": 1179,
      "è¯»": 1180,
      "èµĦ": 1181,
      "æĪĺ": 1182,
      "rom": 1183,
      "ult": 1184,
      "èĮ": 1185,
      "rou": 1186,
      "Ġmy": 1187,
      "åĪĨç±»": 1188,
      "å§ĭ": 1189,
      "ä»Ĭ": 1190,
      "Ġprov": 1191,
      "ĠM": 1192,
      "ä¸ªäºº": 1193,
      "éĺ³": 1194,
      "çŁŃ": 1195,
      "èĩ´": 1196,
      "åŃĺ": 1197,
      "åĵª": 1198,
      "æµĭ": 1199,
      "Ġwas": 1200,
      "æķĻ": 1201,
      "pt": 1202,
      "ĠP": 1203,
      "æĢģ": 1204,
      "ĠB": 1205,
      "Ġres": 1206,
      "Ġse": 1207,
      "ç»Ń": 1208,
      "æ¸©": 1209,
      "ther": 1210,
      "åĢĻ": 1211,
      "form": 1212,
      "ï¼ģ": 1213,
      "ake": 1214,
      "æŀĲ": 1215,
      "æľĭ": 1216,
      "ç¼ĸ": 1217,
      "and": 1218,
      "ä¸ĸçķĮ": 1219,
      "åħ±": 1220,
      "ä½Ĩæĺ¯": 1221,
      "åĲ«": 1222,
      "æľĪ": 1223,
      "Ġfe": 1224,
      "ces": 1225,
      "èıľ": 1226,
      "æľĭåıĭ": 1227,
      "Ġem": 1228,
      "çº¦": 1229,
      "åħĭ": 1230,
      "reat": 1231,
      "Ġby": 1232,
      "ç«ĭ": 1233,
      "ç§¯": 1234,
      "ific": 1235,
      "çİĩ": 1236,
      "Ġu": 1237,
      "vel": 1238,
      "åĽŀçŃĶ": 1239,
      "æĸĩåĮĸ": 1240,
      "åĪĨæŀĲ": 1241,
      "å¤ĦçĲĨ": 1242,
      "åı²": 1243,
      "ç»Ĩ": 1244,
      "çļĦæĥ": 1245,
      "ĠTh": 1246,
      "Ġpl": 1247,
      "um": 1248,
      "ä¸Ģä¸ĭ": 1249,
      "so": 1250,
      "ip": 1251,
      "æĶ¯": 1252,
      "åĩıå°ĳ": 1253,
      "åŁİå¸Ĥ": 1254,
      "è±¡": 1255,
      "å±±": 1256,
      "ä¹ĭä¸Ģ": 1257,
      "ag": 1258,
      "è¶³": 1259,
      "è¿Ļç¯ĩæĸĩç«ł": 1260,
      "10": 1261,
      "ä¸ŃåĽ½": 1262,
      "æķ´": 1263,
      "åĲ¦": 1264,
      "ign": 1265,
      "å¤į": 1266,
      "ç¬¬": 1267,
      "Ġè¯·": 1268,
      "åĪĻ": 1269,
      "æ»¡": 1270,
      "åĨµ": 1271,
      "Ġint": 1272,
      "ä¿ĿæĬ¤": 1273,
      "çłĶç©¶": 1274,
      "ĺè¦ģ": 1275,
      "ke": 1276,
      "èĳ": 1277,
      "alth": 1278,
      "åħĥ": 1279,
      "è§Ĵ": 1280,
      "ç¥ŀ": 1281,
      "é¥®": 1282,
      "å·²ç»ı": 1283,
      "åĥ": 1284,
      "Ġfrom": 1285,
      "ine": 1286,
      "æľĽ": 1287,
      "è®¸å¤ļ": 1288,
      "æİ¢": 1289,
      "äºĨä¸Ģ": 1290,
      "èĩªå·±çļĦ": 1291,
      "ä¸¤ä¸ª": 1292,
      "ress": 1293,
      "gh": 1294,
      "ç³ĸ": 1295,
      "ie": 1296,
      "éĩĩ": 1297,
      "ual": 1298,
      "ç¿": 1299,
      "åıį": 1300,
      "è°¢": 1301,
      "èĢģ": 1302,
      "äº§åĵģ": 1303,
      "çº¿": 1304,
      "åĪĴ": 1305,
      "Ġalso": 1306,
      "è¾ĵ": 1307,
      "çľŁ": 1308,
      "Ġsome": 1309,
      "åĮ»çĸĹ": 1310,
      "Ġcomm": 1311,
      "æŃ¤å¤ĸ": 1312,
      "çĭĹ": 1313,
      "ç³»ç»Ł": 1314,
      "ĠE": 1315,
      "æĽ´å¤ļ": 1316,
      "è§Ħ": 1317,
      "å°½": 1318,
      "éĢŁ": 1319,
      "åĶ": 1320,
      "çħ": 1321,
      "ional": 1322,
      "è¶£": 1323,
      "è·¯": 1324,
      "éĻ©": 1325,
      "å¥³": 1326,
      "åıĤ": 1327,
      "chn": 1328,
      "ight": 1329,
      "çļĦäºº": 1330,
      "èģĶ": 1331,
      "åĲĥ": 1332,
      "ä»½": 1333,
      "ä¿ĿæĮģ": 1334,
      "Ġ\"": 1335,
      "æĸ¯": 1336,
      "è¥": 1337,
      "ind": 1338,
      "åħ¨çĲĥ": 1339,
      "æĺ¯ä¸Ģç§į": 1340,
      "æĬ¥": 1341,
      "æĺĵ": 1342,
      "çĽ´": 1343,
      "Ġcont": 1344,
      "åĬ¨çī©": 1345,
      "Â·": 1346,
      "çĻ½": 1347,
      "æľįåĬ¡": 1348,
      "åĢ¼": 1349,
      "å¤´": 1350,
      "olog": 1351,
      "è¥¿": 1352,
      "æĸ½": 1353,
      "è§£åĨ³": 1354,
      "æİĴ": 1355,
      "æĪĲä¸º": 1356,
      "ell": 1357,
      "åĨį": 1358,
      "ħäºĭ": 1359,
      "Ġj": 1360,
      "Ġat": 1361,
      "åĥı": 1362,
      "çĥŃ": 1363,
      "çİ¯ä¿Ŀ": 1364,
      "ä»ĭ": 1365,
      "åĽ¾": 1366,
      "æ´»åĬ¨": 1367,
      "å²": 1368,
      "Ġind": 1369,
      "éļ¾": 1370,
      "ä¹°": 1371,
      "ä¾¿": 1372,
      "ĠF": 1373,
      "Ġhealth": 1374,
      "ru": 1375,
      "åĳ¨": 1376,
      "Ġabout": 1377,
      "æĪĸèĢħ": 1378,
      "çļĦä¸Ģ": 1379,
      "æŁ¥": 1380,
      "èİ·": 1381,
      "è¾ĥ": 1382,
      "èĻĳ": 1383,
      "æŀĦ": 1384,
      "æĿ¡": 1385,
      "ç¤¾ä¼ļ": 1386,
      "å®īåħ¨": 1387,
      "è¿ĲåĬ¨": 1388,
      "è§ģ": 1389,
      "çīĩ": 1390,
      "pport": 1391,
      "åĲ¬": 1392,
      "èº«ä½ĵ": 1393,
      "Ġhow": 1394,
      "ç»ĻæĪĳ": 1395,
      "ĠThis": 1396,
      "è¯Ĺ": 1397,
      "åıĳçİ°": 1398,
      "èĩ³": 1399,
      "æĲ": 1400,
      "çļĦæĥħ": 1401,
      "æ¼Ķ": 1402,
      "éħį": 1403,
      "éļı": 1404,
      "Ġdis": 1405,
      "ities": 1406,
      "Ġother": 1407,
      "åıĺåĮĸ": 1408,
      "ents": 1409,
      "çİ°åľ¨": 1410,
      "ãĢĤâĢĿ": 1411,
      "æīĵ": 1412,
      "ich": 1413,
      "ç§ĳæĬĢ": 1414,
      "ç»ĥ": 1415,
      "åħ¶ä¸Ń": 1416,
      "Ġtechn": 1417,
      "åºı": 1418,
      "ard": 1419,
      "æĶ¶": 1420,
      "çĬ¶": 1421,
      "è®¤ä¸º": 1422,
      "å¼ł": 1423,
      "èĤ²": 1424,
      "ä¸½": 1425,
      "å¤©æ°Ķ": 1426,
      "ç´¢": 1427,
      "éĤ£ä¹Ī": 1428,
      "æĪĳä»¬çļĦ": 1429,
      "åĳ½": 1430,
      "ä¹ĭéĹ´": 1431,
      "äº«": 1432,
      "æĬĬ": 1433,
      "ç²¾": 1434,
      "è®°": 1435,
      "æ¶Ī": 1436,
      "¹æŀľ": 1437,
      "æħ": 1438,
      "åħħ": 1439,
      "Ġsuch": 1440,
      "èĥ½åĬĽ": 1441,
      "çĽ¸åħ³": 1442,
      "äºĮ": 1443,
      "ä½łçļĦ": 1444,
      "èĭ¹æŀľ": 1445,
      "åİĨåı²": 1446,
      "Ġeff": 1447,
      "æĶ¿": 1448,
      "åĲ¸": 1449,
      "å¾Īå¤ļ": 1450,
      "åı¤": 1451,
      "Ġincl": 1452,
      "çŃĸ": 1453,
      "Ġour": 1454,
      "å¡": 1455,
      "å¸¦æĿ¥": 1456,
      "çı": 1457,
      "æ¤": 1458,
      "ack": 1459,
      "ib": 1460,
      "æĳĺè¦ģ": 1461,
      "åĽŃ": 1462,
      "åħ·æľī": 1463,
      "è´Ń": 1464,
      "ç¢": 1465,
      "ans": 1466,
      "åħ´": 1467,
      "ful": 1468,
      "éĺŁ": 1469,
      "å¸Ī": 1470,
      "ach": 1471,
      "ä½İ": 1472,
      "å¤±": 1473,
      "Ġnot": 1474,
      "éĹ¨": 1475,
      "çĮ«": 1476,
      "ime": 1477,
      "ice": 1478,
      "Ġpers": 1479,
      "æ¬¾": 1480,
      "Ġtra": 1481,
      "ç»´": 1482,
      "ous": 1483,
      "æ²»": 1484,
      "ore": 1485,
      "åį³": 1486,
      "ç»Ļå®ļçļĦ": 1487,
      "éĹ»": 1488,
      "ç§ĳåŃ¦": 1489,
      "ç§°": 1490,
      "å¸ĥ": 1491,
      "æ¢": 1492,
      "ĠR": 1493,
      "çĭ¬": 1494,
      "åħį": 1495,
      "Ġexper": 1496,
      "æŃĮ": 1497,
      "Ġspe": 1498,
      "è¯ī": 1499,
      "Ġgo": 1500,
      "Ġthis": 1501,
      "äºĴ": 1502,
      "åĭ": 1503,
      "éĩĬ": 1504,
      "Ġman": 1505,
      "èįĲ": 1506,
      "Ġsoc": 1507,
      "éŁ³ä¹Ĳ": 1508,
      "ç»Ļåĩº": 1509,
      "å°Ŀ": 1510,
      "ail": 1511,
      "çļĦæĦ": 1512,
      "¦Ĥ": 1513,
      "çŃĶæ¡Ī": 1514,
      "æīį": 1515,
      "Ġall": 1516,
      "æĿĲ": 1517,
      "è¿Ļç§į": 1518,
      "è®¾è®¡": 1519,
      "ç§¯æŀģ": 1520,
      "ç»į": 1521,
      "å¼Ģå§ĭ": 1522,
      "ä»»åĬ¡": 1523,
      "ĠD": 1524,
      "èĲ¥": 1525,
      "äºĨè§£": 1526,
      "dit": 1527,
      "æĿ¾": 1528,
      "éĽĨ": 1529,
      "è¡¨è¾¾": 1530,
      "Ġwhich": 1531,
      "ä»ĭç»į": 1532,
      "Ġexam": 1533,
      "ä¸ŃæıĲåıĸ": 1534,
      "åı¥è¯Ŀ": 1535,
      "çļĦå½±åĵį": 1536,
      "Ġapp": 1537,
      "å¯¼èĩ´": 1538,
      "å¯Į": 1539,
      "ast": 1540,
      "è¯¯": 1541,
      "åŃ£": 1542,
      "å¿ħ": 1543,
      "å¨": 1544,
      "èĽ": 1545,
      "å¯¹äºİ": 1546,
      "æ¨¡åŀĭ": 1547,
      "ĠĠ": 1548,
      "åħ·ä½ĵ": 1549,
      "è®¡ç®Ĺæľº": 1550,
      "ry": 1551,
      "èĭ±": 1552,
      "Ġcl": 1553,
      "Ġstud": 1554,
      "çĶ·": 1555,
      "oo": 1556,
      "æĥħæĦŁ": 1557,
      "æľºåĻ¨åŃ¦ä¹ł": 1558,
      "çĲĨè§£": 1559,
      "arn": 1560,
      "Ġæł¹æį®": 1561,
      "æİ¨èįĲ": 1562,
      "çļĦæĬ": 1563,
      "è½¬": 1564,
      "iff": 1565,
      "å®ŀçİ°": 1566,
      "ase": 1567,
      "æľĢè¿ĳ": 1568,
      "æĸ°çļĦ": 1569,
      "Ġinclud": 1570,
      "æĺ¯åĲ¦": 1571,
      "éĢļå¸¸": 1572,
      "Ġwhe": 1573,
      "åı·": 1574,
      "Ġcommun": 1575,
      "åįĩ": 1576,
      "åİĭ": 1577,
      "è®¨": 1578,
      "é¦Ļ": 1579,
      "end": 1580,
      "Ġthey": 1581,
      "éĻ¤": 1582,
      "Ġacc": 1583,
      "èµĽ": 1584,
      "åĬ¿": 1585,
      "è®²": 1586,
      "00": 1587,
      "ä¸ĵ": 1588,
      "ä»Ĭå¤©": 1589,
      "Ġwill": 1590,
      "æĽ´å¥½": 1591,
      "èĤī": 1592,
      "é²": 1593,
      "åĮĹ": 1594,
      "ä¸įæĸŃ": 1595,
      "åĲĦç§į": 1596,
      "ä¿®": 1597,
      "æĿİ": 1598,
      "è´¹": 1599,
      "é»ĳ": 1600,
      "duct": 1601,
      "éĶĢ": 1602,
      "æ°ĳ": 1603,
      "åľ°çĲĥ": 1604,
      "Ġimpact": 1605,
      "è®¡åĪĴ": 1606,
      "Ġar": 1607,
      "å¸Ĥåľº": 1608,
      "ang": 1609,
      "è£ħ": 1610,
      "ace": 1611,
      "åįİ": 1612,
      "æĪı": 1613,
      "åįģ": 1614,
      "åħ³éĶ®è¯į": 1615,
      "åĳĬè¯ī": 1616,
      "è¯ģ": 1617,
      "one": 1618,
      "Ġdiff": 1619,
      "ep": 1620,
      "ated": 1621,
      "æŁĵ": 1622,
      "åħ»": 1623,
      "çļĦéĹ®é¢ĺ": 1624,
      "æīĢæľī": 1625,
      "ä¸Ģæ®µ": 1626,
      "ract": 1627,
      "é©¬": 1628,
      "ology": 1629,
      "èħ": 1630,
      "ĠIt": 1631,
      "ong": 1632,
      "åĸĦ": 1633,
      "åĽ´": 1634,
      "æīĢä»¥": 1635,
      "çĶ¨æĪ·": 1636,
      "æ³¨æĦı": 1637,
      "Ġthem": 1638,
      "èīº": 1639,
      "Ġ-": 1640,
      "ience": 1641,
      "æĪĳçļĦ": 1642,
      "æĻļ": 1643,
      "ç»Ī": 1644,
      "velop": 1645,
      "Ġun": 1646,
      "åįķè¯į": 1647,
      "è¯ĨåĪ«": 1648,
      "å¯»": 1649,
      "éĢĤåĲĪ": 1650,
      "Ġev": 1651,
      "å¤ı": 1652,
      "ä¸Ģèµ·": 1653,
      "æİ§": 1654,
      "Ġuse": 1655,
      "ç¦»": 1656,
      "å¸Į": 1657,
      "æŃ£åľ¨": 1658,
      "çª": 1659,
      "Ġqu": 1660,
      "æĪĳä»¬åı¯ä»¥": 1661,
      "èĳĹ": 1662,
      "å¾ĭ": 1663,
      "éĻħ": 1664,
      "éĺ²": 1665,
      "ĠIn": 1666,
      "Ġprovide": 1667,
      "æĸ°éĹ»": 1668,
      "æ¯Ķå¦Ĥ": 1669,
      "Ġess": 1670,
      "Ġpe": 1671,
      "è¶ħ": 1672,
      "ä»ĸçļĦ": 1673,
      "Ġk": 1674,
      "åĽĽ": 1675,
      "è¿ľ": 1676,
      "å¤ªéĺ³": 1677,
      "åŃ©": 1678,
      "Ġtime": 1679,
      "è¦ģæ±Ĥ": 1680,
      "Ġway": 1681,
      "çŁ¥éģĵ": 1682,
      "Ġover": 1683,
      "çļĦæĺ¯": 1684,
      "æĹłæ³ķ": 1685,
      "å°Ķ": 1686,
      "Ġout": 1687,
      "å¹¶ä¸Ķ": 1688,
      "ä¸Ģç§į": 1689,
      "å·§": 1690,
      "æĦŁåĪ°": 1691,
      "æŀĹ": 1692,
      "æ³Ľ": 1693,
      "æĴ": 1694,
      "å£°": 1695,
      "Ġmed": 1696,
      "èµ°": 1697,
      "åĳ¢": 1698,
      "åħ³ç³»": 1699,
      "æŁĲ": 1700,
      "å°ıè¯´": 1701,
      "çĦ¶åĲİ": 1702,
      "åı¦": 1703,
      "ks": 1704,
      "ments": 1705,
      "ä»ħ": 1706,
      "ï¼ļâĢľ": 1707,
      "è´Ł": 1708,
      "æĹħæ¸¸": 1709,
      "è¿ĩç¨ĭ": 1710,
      "åįĹ": 1711,
      "å£«": 1712,
      "æ¯ıä¸ª": 1713,
      "ç½®": 1714,
      "åŃĺåľ¨": 1715,
      "æĢ»ç»ĵ": 1716,
      "å¤§çļĦ": 1717,
      "åİħ": 1718,
      "AI": 1719,
      "èģĮ": 1720,
      "è§£éĩĬ": 1721,
      "èĢĥèĻĳ": 1722,
      "å¾·": 1723,
      "Ġwho": 1724,
      "æĪĲåĬŁ": 1725,
      "æĭī": 1726,
      "è´¨éĩı": 1727,
      "è¾¹": 1728,
      "oy": 1729,
      "æĹ©": 1730,
      "çļĦæ°": 1731,
      "ç®¡çĲĨ": 1732,
      "Ġlearn": 1733,
      "elf": 1734,
      "ia": 1735,
      "éĻį": 1736,
      "èĽĭ": 1737,
      "çļĦæĢ": 1738,
      "Ġact": 1739,
      "åŃ¦çĶŁ": 1740,
      "ue": 1741,
      "Ġnew": 1742,
      "æĺ¾": 1743,
      "ĳæĪĺ": 1744,
      "åĦ": 1745,
      "æĪ¿": 1746,
      "Ġli": 1747,
      "èŀ": 1748,
      "çŃīçŃī": 1749,
      "ªæĸ½": 1750,
      "æ®µèĲ½": 1751,
      "è¡Įä¸º": 1752,
      "ç¾İåĽ½": 1753,
      "ä¸ľ": 1754,
      "æĪĳæĥ³": 1755,
      "éĶĻè¯¯": 1756,
      "The": 1757,
      "åĮ»çĶŁ": 1758,
      "ential": 1759,
      "å¢ŀåĬł": 1760,
      "Ġdevelop": 1761,
      "ä¸Ģç¯ĩ": 1762,
      "Ġwrit": 1763,
      "çĨ": 1764,
      "è¾ĳ": 1765,
      "ife": 1766,
      "Ġimpro": 1767,
      "ä¼¼": 1768,
      "å°Ŀè¯ķ": 1769,
      "çħ§": 1770,
      "äºĶ": 1771,
      "å¯¹è¯Ŀ": 1772,
      "av": 1773,
      "å®ĮæĪĲ": 1774,
      "æ¦Ĥ": 1775,
      "å¯Ĩ": 1776,
      "Ġperson": 1777,
      "çİ©": 1778,
      "æĺ¯ä»Ģä¹Ī": 1779,
      "erv": 1780,
      "å¹¿æ³Ľ": 1781,
      "ility": 1782,
      "ç±³": 1783,
      "ä¸ĭéĿ¢": 1784,
      "åĪ©çĶ¨": 1785,
      "ä½ľä¸º": 1786,
      "ild": 1787,
      "çĶ»": 1788,
      "è¿Ļæ®µ": 1789,
      "ä¸įåĲĮçļĦ": 1790,
      "çģ«": 1791,
      "èĩªåĬ¨": 1792,
      "ors": 1793,
      "æľĢåĲİ": 1794,
      "é¥®é£Ł": 1795,
      "æĭ¥": 1796,
      "æļĸ": 1797,
      "ĠO": 1798,
      "ne": 1799,
      "çİĭ": 1800,
      "Ġrel": 1801,
      "éģ¿": 1802,
      "Ġtr": 1803,
      "åĴĸ": 1804,
      "Ġ(": 1805,
      "å½ĵçĦ¶": 1806,
      "æ¿": 1807,
      "é£Łçī©": 1808,
      "è®Ń": 1809,
      "çļĦåıĳå±ķ": 1810,
      "å®³": 1811,
      "ef": 1812,
      "å¾ĹåĪ°": 1813,
      "æµİ": 1814,
      "æĽ´å¥½åľ°": 1815,
      "åı°": 1816,
      "åĽ¢": 1817,
      "ç¡®ä¿Ŀ": 1818,
      "å¿µ": 1819,
      "åı¯èĥ½ä¼ļ": 1820,
      "çļĦåľ°": 1821,
      "ness": 1822,
      "çļĦæķ°": 1823,
      "ĠL": 1824,
      "ä¼ģ": 1825,
      "ĠG": 1826,
      "Ġpart": 1827,
      "çļĦä¿¡æģ¯": 1828,
      "Ġsocial": 1829,
      "ivid": 1830,
      "ä»»ä½ķ": 1831,
      "ãĢĤ\\": 1832,
      "ost": 1833,
      "Ġsupport": 1834,
      "ices": 1835,
      "Ġrec": 1836,
      "ç®Ĺæ³ķ": 1837,
      "æ°ĶåĢĻ": 1838,
      "Ġinform": 1839,
      "ob": 1840,
      "äºļ": 1841,
      "èŀį": 1842,
      "ä¸įæĺ¯": 1843,
      "åķ¡": 1844,
      "çļĦåºĶçĶ¨": 1845,
      "äº¬": 1846,
      "æłĩé¢ĺ": 1847,
      "ĠN": 1848,
      "äº§çĶŁ": 1849,
      "Ġany": 1850,
      "uc": 1851,
      "ile": 1852,
      "éĻĲ": 1853,
      "æĤ¨çļĦ": 1854,
      "æĥħåĨµ": 1855,
      "åĴĸåķ¡": 1856,
      "æĵ": 1857,
      "ative": 1858,
      "ire": 1859,
      "æ´ģ": 1860,
      "å¸ĮæľĽ": 1861,
      "å®¤": 1862,
      "æķħäºĭ": 1863,
      "èįī": 1864,
      "æį¢": 1865,
      "åł": 1866,
      "èİ·å¾Ĺ": 1867,
      "è¿ĺæľī": 1868,
      "ram": 1869,
      "äººçļĦ": 1870,
      "éĽ¨": 1871,
      "ç»ľ": 1872,
      "äº¤éĢļ": 1873,
      "Ġmake": 1874,
      "æĢİ": 1875,
      "å·´": 1876,
      "ass": 1877,
      "king": 1878,
      "è¾ĵåħ¥": 1879,
      "çĽ®æłĩ": 1880,
      "ople": 1881,
      "Ġpos": 1882,
      "åĦ¿": 1883,
      "ç»ıæµİ": 1884,
      "Ġsign": 1885,
      "Ġbut": 1886,
      "aking": 1887,
      "è¿Ļæł·": 1888,
      "Ġneed": 1889,
      "çĶŁæĪĲä¸Ģä¸ª": 1890,
      "å¹²": 1891,
      "é»Ħ": 1892,
      "è¡¨ç¤º": 1893,
      "Ġredu": 1894,
      "çĶ¨äºİ": 1895,
      "é¦ĸåħĪ": 1896,
      "ings": 1897,
      "ĠU": 1898,
      "rough": 1899,
      "åı¯ä»¥å¸®åĬ©": 1900,
      "Ġup": 1901,
      "éħĴ": 1902,
      "è¡£": 1903,
      "é£ŀ": 1904,
      "éĥ½æĺ¯": 1905,
      "ĊĊ": 1906,
      "ç³ĸæŀľ": 1907,
      "ä¼Ĺ": 1908,
      "å¾ģ": 1909,
      "æľīæķĪ": 1910,
      "Ġthese": 1911,
      "é¤Ĳåİħ": 1912,
      "cl": 1913,
      "çļĦä¸»è¦ģ": 1914,
      "ä½łåı¯ä»¥": 1915,
      "éĺħ": 1916,
      "its": 1917,
      "Ġoff": 1918,
      "åĮħåĲ«": 1919,
      "çīĽ": 1920,
      "çļĦæł": 1921,
      "Ġeffect": 1922,
      "iet": 1923,
      "Ġpeople": 1924,
      "ç©¿": 1925,
      "Ġtechnology": 1926,
      "åºĹ": 1927,
      "æĹħè¡Į": 1928,
      "æī¾åĪ°": 1929,
      "Ġspec": 1930,
      "å¾Ģ": 1931,
      "æķĻèĤ²": 1932,
      "å±ŀ": 1933,
      "ividual": 1934,
      "Ġcons": 1935,
      "ood": 1936,
      "åºŃ": 1937,
      "ç»ĵæŀľ": 1938,
      "ç®Ģåįķ": 1939,
      "¡æŁĵ": 1940,
      "éľĢæ±Ĥ": 1941,
      "æ¸¸æĪı": 1942,
      "æ¿Ģ": 1943,
      "çļĦéĩįè¦ģ": 1944,
      "éĥ¨åĪĨ": 1945,
      "éº": 1946,
      "åĳĬè¯īæĪĳ": 1947,
      "ä½¿åħ¶": 1948,
      "åĿĩ": 1949,
      "éģ¿åħį": 1950,
      "ary": 1951,
      "éĩĩåıĸ": 1952,
      "æ©": 1953,
      "Ġsc": 1954,
      "19": 1955,
      "å±ħ": 1956,
      "æ½": 1957,
      "Ġsy": 1958,
      "è§ĤçĤ¹": 1959,
      "Ġimport": 1960,
      "åĩłä¸ª": 1961,
      "ç½ĳç»ľ": 1962,
      "æİªæĸ½": 1963,
      "åĪ¶ä½ľ": 1964,
      "Ġadd": 1965,
      "Ġdiffere": 1966,
      "çīĮ": 1967,
      "åĩĨç¡®": 1968,
      "ound": 1969,
      "ä¹Łæĺ¯": 1970,
      "Ġund": 1971,
      "Ġmay": 1972,
      "æľīåħ³": 1973,
      "Ġpre": 1974,
      "å¾®": 1975,
      "ä»¤": 1976,
      "äºī": 1977,
      "ating": 1978,
      "æĮģç»Ń": 1979,
      "æĶ¯æĮģ": 1980,
      "èĥ½æºĲ": 1981,
      "ä¸ĩ": 1982,
      "åª": 1983,
      "ä½ĵéªĮ": 1984,
      "é±": 1985,
      "èµ·æĿ¥": 1986,
      "Ġlead": 1987,
      "äºĨä¸Ģä¸ª": 1988,
      "hip": 1989,
      "ä½ľçĶ¨": 1990,
      "é±¼": 1991,
      "åī§": 1992,
      "ount": 1993,
      "ä¼ģä¸ļ": 1994,
      "è¡¨çİ°": 1995,
      "éĩįè¦ģçļĦ": 1996,
      "ç«Ļ": 1997,
      "ç»¿": 1998,
      "ä¸įèĥ½": 1999,
      "çĽĬ": 2000,
      "Ġed": 2001,
      "Ġindividual": 2002,
      "é¼": 2003,
      "çĳ": 2004,
      "æłĳ": 2005,
      "åıĳçĶŁ": 2006,
      "tain": 2007,
      "ame": 2008,
      "ä»ĸä»¬çļĦ": 2009,
      "ä¹Łåı¯ä»¥": 2010,
      "ely": 2011,
      "èĵ": 2012,
      "èī¯": 2013,
      "éĺħè¯»": 2014,
      "åĪĩ": 2015,
      "Ġsp": 2016,
      "èĩªçĦ¶è¯Ńè¨Ģ": 2017,
      "å°ıçº¢": 2018,
      "¾çĹħ": 2019,
      "æ¤į": 2020,
      "é¾": 2021,
      "Ġlife": 2022,
      "çĶ±äºİ": 2023,
      "çİ°ä»£": 2024,
      "ap": 2025,
      "ä¸īä¸ª": 2026,
      "Ġdo": 2027,
      "Ġso": 2028,
      "__": 2029,
      "åĵªäºĽ": 2030,
      "å¤ľ": 2031,
      "Ġlike": 2032,
      "åĪ¤": 2033,
      "Ġsignific": 2034,
      "ç¤¾äº¤": 2035,
      "Ġdes": 2036,
      "Ġbet": 2037,
      "å®Ŀ": 2038,
      "ç¬¦": 2039,
      "å¾ħ": 2040,
      "æ²¹": 2041,
      "åŁºäºİ": 2042,
      "æĭ¥æľī": 2043,
      "å¥¶": 2044,
      "âĢĿï¼Į": 2045,
      "Ġro": 2046,
      "Ġper": 2047,
      "æ¹": 2048,
      "ular": 2049,
      "åĬłåħ¥": 2050,
      "åħ³æ³¨": 2051,
      "çº§": 2052,
      "å¥ĩ": 2053,
      "è¿ĺæĺ¯": 2054,
      "Ġits": 2055,
      "èī²çļĦ": 2056,
      "ç»ĩ": 2057,
      "now": 2058,
      "Ġsk": 2059,
      "è¯Ĭ": 2060,
      "Ġcol": 2061,
      "æ±¡æŁĵ": 2062,
      "å¦Ĥæŀľä½ł": 2063,
      "åıĪ": 2064,
      "é¢ľ": 2065,
      "éģĩ": 2066,
      "Ġinv": 2067,
      "cess": 2068,
      "ple": 2069,
      "ditional": 2070,
      "åĬª": 2071,
      "ä¸¾": 2072,
      "åºľ": 2073,
      "gan": 2074,
      "åĿĹ": 2075,
      "Ġused": 2076,
      "åĩºçİ°": 2077,
      "é¦Ĩ": 2078,
      "è¿ŀ": 2079,
      "ples": 2080,
      "çļĦæĸĩç«ł": 2081,
      "ä¸°": 2082,
      "lect": 2083,
      "é¸¡": 2084,
      "erg": 2085,
      "ç±»åŀĭ": 2086,
      "Ġam": 2087,
      "ç¡®å®ļ": 2088,
      "ä»¥ä¸ĭåı¥åŃĲ": 2089,
      "åĪ»": 2090,
      "å®¶åºŃ": 2091,
      "æĮĳæĪĺ": 2092,
      "Ġprovid": 2093,
      "æĺ¥": 2094,
      "å®¢æĪ·": 2095,
      "Ġprog": 2096,
      "itive": 2097,
      "èµĦæºĲ": 2098,
      "çļĦæİ": 2099,
      "allen": 2100,
      "åĬªåĬĽ": 2101,
      "lic": 2102,
      "ject": 2103,
      "Ġä»İ": 2104,
      "âĢĿãĢĤ": 2105,
      "ory": 2106,
      "åĶ®": 2107,
      "è½¯": 2108,
      "ç¿»": 2109,
      "Ġpersonal": 2110,
      "ater": 2111,
      "èĪĴ": 2112,
      "ures": 2113,
      "èį¯": 2114,
      "è®Ńç»ĥ": 2115,
      "æİ§åĪ¶": 2116,
      "èĻ½": 2117,
      "æľīè¶£": 2118,
      "æĢ§åĴĮ": 2119,
      "éĿĻ": 2120,
      "æķ£": 2121,
      "ange": 2122,
      "è¿½": 2123,
      "Ġå°Ĩ": 2124,
      "åĬŁèĥ½": 2125,
      "è¿Ļæĺ¯": 2126,
      "ä»İèĢĮ": 2127,
      "çļĦæĬĢ": 2128,
      "èĦĳ": 2129,
      "åıĹåĪ°": 2130,
      "æŃ£ç¡®": 2131,
      "æĸ¹æ¡Ī": 2132,
      "mot": 2133,
      "çļĦåı¥åŃĲ": 2134,
      "Ġbeen": 2135,
      "çļĦæĻ": 2136,
      "ä¸ºäºĨ": 2137,
      "Ġinformation": 2138,
      "Ġpract": 2139,
      "ç§ĭ": 2140,
      "é¸Ł": 2141,
      "æ£Ģ": 2142,
      "ä¸¥": 2143,
      "æĬķ": 2144,
      "ens": 2145,
      "hy": 2146,
      "éŃ": 2147,
      "ise": 2148,
      "èŃ": 2149,
      "Ġproduct": 2150,
      "Ġment": 2151,
      "ural": 2152,
      "very": 2153,
      "Ġinter": 2154,
      "ious": 2155,
      "ased": 2156,
      "Ġincre": 2157,
      "è§Ĵèī²": 2158,
      "Ġcre": 2159,
      "æ²»çĸĹ": 2160,
      "æĤ¨åı¯ä»¥": 2161,
      "åħ¸": 2162,
      "çĸ¾çĹħ": 2163,
      "Ġchallen": 2164,
      "é¢Ħæµĭ": 2165,
      "èīºæľ¯": 2166,
      "å±Ĥ": 2167,
      "ord": 2168,
      "æ²Ļ": 2169,
      "çļĦç¾": 2170,
      "å½Ĵ": 2171,
      "ç¨ĭåºı": 2172,
      "åİĭåĬĽ": 2173,
      "æ¯Ķè¾ĥ": 2174,
      "æķĪçİĩ": 2175,
      "æİ¢ç´¢": 2176,
      "åģĩ": 2177,
      "enef": 2178,
      "pect": 2179,
      "äºĳ": 2180,
      "è¯¦": 2181,
      "äººå·¥æĻºèĥ½æĬĢæľ¯": 2182,
      "äºĭä»¶": 2183,
      "èĮĥ": 2184,
      "èĶ": 2185,
      "ä¸ĬçļĦ": 2186,
      "ons": 2187,
      "æĤ£": 2188,
      "Ġwell": 2189,
      "æĿ¯": 2190,
      "è´Ńä¹°": 2191,
      "ä¼łç»Ł": 2192,
      "te": 2193,
      "æĿĤ": 2194,
      "çļĦæĦı": 2195,
      "çŁ³": 2196,
      "èĻ½çĦ¶": 2197,
      "ear": 2198,
      "éĻ¢": 2199,
      "Ġsignificant": 2200,
      "éĨ": 2201,
      "æľĢç»Ī": 2202,
      "ä¸įä»ħ": 2203,
      "æĿ¥è¶Ĭ": 2204,
      "ize": 2205,
      "æ°ĶåĢĻåıĺåĮĸ": 2206,
      "çĶŁçī©": 2207,
      "çĶŁåĳ½": 2208,
      "é²ľ": 2209,
      "è¶ĬæĿ¥è¶Ĭ": 2210,
      "æĮī": 2211,
      "çĶµåŃĲ": 2212,
      "ç¦ı": 2213,
      "æīįèĥ½": 2214,
      "Ġtrans": 2215,
      "Ġthrough": 2216,
      "æµª": 2217,
      "ĠY": 2218,
      "ient": 2219,
      "æĪĳä»¬éľĢè¦ģ": 2220,
      "éļıçĿĢ": 2221,
      "é£İéĻ©": 2222,
      "æ¥": 2223,
      "Ġhad": 2224,
      "Ġåľ¨": 2225,
      "å°±æĺ¯": 2226,
      "æĽ²": 2227,
      "Ġeduc": 2228,
      "Ġfeel": 2229,
      "ä¸Ģä»½": 2230,
      "Ġcult": 2231,
      "--": 2232,
      "æ´ĭ": 2233,
      "è¯Ħè®º": 2234,
      "çķ¥": 2235,
      "ns": 2236,
      "als": 2237,
      "æ±½": 2238,
      "ics": 2239,
      "åªĴ": 2240,
      "ts": 2241,
      "çĥ¤": 2242,
      "ä¸´": 2243,
      "ç¼º": 2244,
      "åĽ°": 2245,
      "ources": 2246,
      "ä¸Ģä½į": 2247,
      "Ġinto": 2248,
      "åį¡": 2249,
      "è·ĳ": 2250,
      "æĿ¥è¯´": 2251,
      "iness": 2252,
      "èĥĮ": 2253,
      "çĵ": 2254,
      "åı¶": 2255,
      "åĨ°": 2256,
      "Ġbenef": 2257,
      "æĢİä¹Ī": 2258,
      "å»ºç«ĭ": 2259,
      "Ġcould": 2260,
      "ç¼ĸè¾ĳ": 2261,
      "stem": 2262,
      "ä¸°å¯Į": 2263,
      "åĪĽéĢł": 2264,
      "æĶ¿åºľ": 2265,
      "åİŁåĽł": 2266,
      "row": 2267,
      "æĻ®": 2268,
      "å½©": 2269,
      "ives": 2270,
      "Ġimprove": 2271,
      "ä»·åĢ¼": 2272,
      "èĩªçĦ¶è¯Ńè¨Ģå¤ĦçĲĨ": 2273,
      "è¯¦ç»Ĩ": 2274,
      "æĿĥ": 2275,
      "erst": 2276,
      "åĿļ": 2277,
      "èĵĿ": 2278,
      "æł¡": 2279,
      "çļĦæī": 2280,
      "iron": 2281,
      "æ°´æŀľ": 2282,
      "æ¯ĶèµĽ": 2283,
      "In": 2284,
      "ality": 2285,
      "åĳ¼": 2286,
      "ose": 2287,
      "æĽ´å¤ļçļĦ": 2288,
      "çļĦç¾İ": 2289,
      "ub": 2290,
      "åĽłç´ł": 2291,
      "çĶŁæĢģ": 2292,
      "è¡¨æĺİ": 2293,
      "Ġone": 2294,
      "å¤ļå°ĳ": 2295,
      "ä½ľèĢħ": 2296,
      "è¯Ńæ³ķ": 2297,
      "äº²": 2298,
      "Ġdifferent": 2299,
      "èľ": 2300,
      "æĹ¶åĢĻ": 2301,
      "æĸĩæ¡Ī": 2302,
      "uring": 2303,
      "ä¹ĭéĹ´çļĦ": 2304,
      "Ġthere": 2305,
      "è¯ĬæĸŃ": 2306,
      "con": 2307,
      "ien": 2308,
      "Ġpol": 2309,
      "ç¬Ķ": 2310,
      "æĶ¹åıĺ": 2311,
      "Ġessay": 2312,
      "æĹı": 2313,
      "ç»Ħç»ĩ": 2314,
      "get": 2315,
      "åħ¬åĽŃ": 2316,
      "åĩĨå¤ĩ": 2317,
      "ä»¥ä¸ĭæĸĩæľ¬": 2318,
      "Ġexamples": 2319,
      "è¿ĺåı¯ä»¥": 2320,
      "åĬŀ": 2321,
      "ata": 2322,
      "viron": 2323,
      "å³": 2324,
      "èĴ": 2325,
      "æľºä¼ļ": 2326,
      "ark": 2327,
      "ä½ı": 2328,
      "é¢ĺçĽ®": 2329,
      "Ġcreat": 2330,
      "ä¿ĥ": 2331,
      "é¢Ĺ": 2332,
      "çļĦæĥħæĦŁ": 2333,
      "ploy": 2334,
      "les": 2335,
      "Ġ1": 2336,
      "ustom": 2337,
      "çªģ": 2338,
      "çĽĳ": 2339,
      "çĶŁäº§": 2340,
      "æĿĲæĸĻ": 2341,
      "ç¼ĵ": 2342,
      "éĴŁ": 2343,
      "Ġknow": 2344,
      "Ġdet": 2345,
      "round": 2346,
      "ible": 2347,
      "è¿İ": 2348,
      "åĲįç§°": 2349,
      "Ġstr": 2350,
      "é£İæł¼": 2351,
      "ç»ĵæŀĦ": 2352,
      "Ġreg": 2353,
      "çķĻ": 2354,
      "å°¼": 2355,
      "çļĦæĸ¹æ³ķ": 2356,
      "çĻ¾": 2357,
      "Ġshould": 2358,
      "Ġserv": 2359,
      "å½ĵåľ°": 2360,
      "ting": 2361,
      "å¹´è½»": 2362,
      "ç»ıéªĮ": 2363,
      "å®ĥçļĦ": 2364,
      "çī¹å¾ģ": 2365,
      "Ġ2": 2366,
      "åıĺå¾Ĺ": 2367,
      "æ³¢": 2368,
      "çĸ«": 2369,
      "çłģ": 2370,
      "äº®": 2371,
      "é£Łåĵģ": 2372,
      "çĤ¼": 2373,
      "è¡Įä¸ļ": 2374,
      "åķĨåĵģ": 2375,
      "Ġbec": 2376,
      "å¤§éĩı": 2377,
      "äº«åıĹ": 2378,
      "é¢ľèī²": 2379,
      "å¯»æī¾": 2380,
      "åªĴä½ĵ": 2381,
      "å¦ĤæŀľæĤ¨": 2382,
      "è¡¡": 2383,
      "å¼Ĥ": 2384,
      "ues": 2385,
      "å¿ĥçĲĨ": 2386,
      "çļĦæµ": 2387,
      "ç½Ĺ": 2388,
      "æĭŁ": 2389,
      "éĿĴ": 2390,
      "çļĦæĸĩæľ¬": 2391,
      "æľ¨": 2392,
      "ĠæĪĳ": 2393,
      "erstand": 2394,
      "åĤ": 2395,
      "è®¨è®º": 2396,
      "è¡ĮåĬ¨": 2397,
      "è´£": 2398,
      "Ġindividuals": 2399,
      "Ġart": 2400,
      "çļ®": 2401,
      "æ´²": 2402,
      "åĲ§": 2403,
      "Ġenviron": 2404,
      "Ġeducation": 2405,
      "é¡»": 2406,
      "ced": 2407,
      "è´ŁéĿ¢": 2408,
      "Ġexperience": 2409,
      "iety": 2410,
      "ä¸Ģå®ļ": 2411,
      "Ġwhen": 2412,
      "åħħæ»¡": 2413,
      "åıĤåĬł": 2414,
      "ä¸ºä»Ģä¹Ī": 2415,
      "å¨ģ": 2416,
      "ĥåľ": 2417,
      "å¼Ģåıĳ": 2418,
      "è¯ĳ": 2419,
      "åľ¨è¿Ļä¸ª": 2420,
      "ä»·æł¼": 2421,
      "èĳĹåĲį": 2422,
      "æ¯ıä¸ªäºº": 2423,
      "åŀĥåľ": 2424,
      "åŀĥåľ¾": 2425,
      "ä¼¤": 2426,
      "éĥ¨çĶµå½±": 2427,
      "æ¯ıå¤©": 2428,
      "ä¸Ńå¿ĥ": 2429,
      "å·¥åħ·": 2430,
      "Ġmedia": 2431,
      "Ġchalleng": 2432,
      "âĢĻ": 2433,
      "çŁ¥è¯Ĩ": 2434,
      "Ġens": 2435,
      "ãĢĤ\"": 2436,
      "Ġworld": 2437,
      "æ±½è½¦": 2438,
      "ä¸ĢæŃ¥": 2439,
      "è®¾å¤ĩ": 2440,
      "Ġaccess": 2441,
      "æ¯į": 2442,
      "Ġskill": 2443,
      "ç¾¤": 2444,
      "åħ´è¶£": 2445,
      "æ»©": 2446,
      "ish": 2447,
      "åĩºäºĨ": 2448,
      "èĶ¬": 2449,
      "Ġadv": 2450,
      "ç´§": 2451,
      "åĮĹäº¬": 2452,
      "Ġpr": 2453,
      "åľºæĻ¯": 2454,
      "åĵģçīĮ": 2455,
      "ä½ľåĵģ": 2456,
      "ä¸ĵä¸ļ": 2457,
      "ä»į": 2458,
      "Ġwould": 2459,
      "ized": 2460,
      "ite": 2461,
      "æĶ¹åĸĦ": 2462,
      "Ġhigh": 2463,
      "ber": 2464,
      "åľŁ": 2465,
      "éĤ®": 2466,
      "è¿Ļä¸ªéĹ®é¢ĺ": 2467,
      "Ġcustom": 2468,
      "çļĦæ¸": 2469,
      "cial": 2470,
      "Ġdata": 2471,
      "æĽ¿": 2472,
      "çļĦæķħäºĭ": 2473,
      "Ġsystem": 2474,
      "è®²è¿°": 2475,
      "è¿Ļåı¥è¯Ŀ": 2476,
      "ç¾İä¸½": 2477,
      "ates": 2478,
      "çļĦæŃ": 2479,
      "Ġbus": 2480,
      "çļĦæĶ": 2481,
      "Ġ3": 2482,
      "Ġprogram": 2483,
      "rap": 2484,
      "å¸®æĪĳ": 2485,
      "éĩİ": 2486,
      "èĪĴéĢĤ": 2487,
      "åĪĽæĸ°": 2488,
      "port": 2489,
      "éĺ¿": 2490,
      "çľł": 2491,
      "ä¸ĢçĽ´": 2492,
      "æīĭæľº": 2493,
      "æ·±åº¦": 2494,
      "ç§ĺ": 2495,
      "åº§": 2496,
      "æ¼«": 2497,
      "è¯¢": 2498,
      "æĪĳä¼ļ": 2499,
      "åĩ»": 2500,
      "Ġspecific": 2501,
      "çļĦçĶµå½±": 2502,
      "rib": 2503,
      "é¡¹çĽ®": 2504,
      "æĶ¾æĿ¾": 2505,
      "Ġass": 2506,
      "ĠJ": 2507,
      "Ġac": 2508,
      "çģµ": 2509,
      "åŃ©åŃĲ": 2510,
      "èĥľ": 2511,
      "low": 2512,
      "çŃĳ": 2513,
      "éĢłæĪĲ": 2514,
      "æħ¢": 2515,
      "è¶ĭ": 2516,
      "éĢĲ": 2517,
      "å·ŀ": 2518,
      "Ġenvironment": 2519,
      "éĩįæĸ°": 2520,
      "iqu": 2521,
      "Ġmental": 2522,
      "è§īå¾Ĺ": 2523,
      "éĩĳèŀį": 2524,
      "å·¨": 2525,
      "ä»¥ä¸ĭæĺ¯": 2526,
      "çł´": 2527,
      "ä¼ĳ": 2528,
      "çĩ": 2529,
      "ren": 2530,
      "Ġcompan": 2531,
      "äºĭæĥħ": 2532,
      "åĲ¸å¼ķ": 2533,
      "èģĬ": 2534,
      "åĨ³å®ļ": 2535,
      "åĪ¤æĸŃ": 2536,
      "Ġunderstand": 2537,
      "usion": 2538,
      "èĶ¬èıľ": 2539,
      "éĢģ": 2540,
      "ree": 2541,
      "we": 2542,
      "å½ķ": 2543,
      "Ġorgan": 2544,
      "ough": 2545,
      "arch": 2546,
      "ving": 2547,
      "æ¤įçī©": 2548,
      "çļĦçŁ": 2549,
      "çĹĩ": 2550,
      "Ġeng": 2551,
      "Ġstudents": 2552,
      "èĢĮä¸Ķ": 2553,
      "çĿ¡": 2554,
      "Ġincluding": 2555,
      "ä¸ŃæıĲåıĸåĩº": 2556,
      "ade": 2557,
      "è¯·éĹ®": 2558,
      "ever": 2559,
      "æķ°åŃĹ": 2560,
      "èŃ¦": 2561,
      "åį°": 2562,
      "ook": 2563,
      "åĨĽ": 2564,
      "éĶ»": 2565,
      "åįı": 2566,
      "Ġimportant": 2567,
      "å·®": 2568,
      "åı¦å¤ĸ": 2569,
      "åī©": 2570,
      "éļĲ": 2571,
      "ays": 2572,
      "ä½³": 2573,
      "éĶ»çĤ¼": 2574,
      "æŃ¢": 2575,
      "ms": 2576,
      "é©¶": 2577,
      "ä¸Ģæ¬¡": 2578,
      "ivers": 2579,
      "æĢ§çļĦ": 2580,
      "æ¸Ĳ": 2581,
      "Ġwere": 2582,
      "Ġwriting": 2583,
      "ric": 2584,
      "çľĭåĪ°": 2585,
      "Ġsm": 2586,
      "ç¿»è¯ĳ": 2587,
      "å»ºçŃĳ": 2588,
      "angu": 2589,
      "ĠSt": 2590,
      "å°Ĭ": 2591,
      "éĩĩçĶ¨": 2592,
      "cing": 2593,
      "ccess": 2594,
      "gg": 2595,
      "æľīä»Ģä¹Ī": 2596,
      "ll": 2597,
      "æĪĳåı¯ä»¥": 2598,
      "Ġmany": 2599,
      "éĶĢåĶ®": 2600,
      "æ²³": 2601,
      "ten": 2602,
      "Ġcreate": 2603,
      "Ġpromot": 2604,
      "åı¯æĮģç»Ń": 2605,
      "ower": 2606,
      "çºª": 2607,
      "æĩ": 2608,
      "ergy": 2609,
      "çľ¼": 2610,
      "Ġgreat": 2611,
      "èª": 2612,
      "è¶ĭåĬ¿": 2613,
      "å¿ħé¡»": 2614,
      "Ġemploy": 2615,
      "é¢ĳ": 2616,
      "Ġpot": 2617,
      "æ°§": 2618,
      "ç®Ģæ´ģ": 2619,
      "æĸĩç«łä¸Ń": 2620,
      "Ġatt": 2621,
      "Ġlearning": 2622,
      "å°Ĩåħ¶": 2623,
      "æ¢¦": 2624,
      "Ġå¥½çļĦ": 2625,
      "åĽ¢éĺŁ": 2626,
      "æĺ¨": 2627,
      "ä¸įä¼ļ": 2628,
      "éĴ±": 2629,
      "æĿ¿": 2630,
      "ved": 2631,
      "line": 2632,
      "é©¾": 2633,
      "ç§ģ": 2634,
      "ç»ª": 2635,
      "ruct": 2636,
      "åĪ¶å®ļ": 2637,
      "ä»¥ä¸Ĭ": 2638,
      "åĬ©äºİ": 2639,
      "ivity": 2640,
      "åį«": 2641,
      "å¤įæĿĤ": 2642,
      "åĵĪ": 2643,
      "åĪĿ": 2644,
      "Ġgen": 2645,
      "çļĦçł": 2646,
      "ocus": 2647,
      "å¿«éĢŁ": 2648,
      "åĬ±": 2649,
      "Ġke": 2650,
      "Ġbu": 2651,
      "åľ°åĮº": 2652,
      "ally": 2653,
      "Ġwhat": 2654,
      "çī¹çĤ¹": 2655,
      "èĩªçĶ±": 2656,
      "olut": 2657,
      "iew": 2658,
      "Ġbusiness": 2659,
      "æķ°åŃ¦": 2660,
      "çī¹åĪ«": 2661,
      "è¿Ļæ®µæĸĩæľ¬": 2662,
      "æ¶ī": 2663,
      "ä¸Ģåıª": 2664,
      "éĥ½æľī": 2665,
      "Ġdisc": 2666,
      "ä»£è¡¨": 2667,
      "Ġexpl": 2668,
      "çĦ¶èĢĮ": 2669,
      "å±ŀäºİ": 2670,
      "Ġskills": 2671,
      "Ġlangu": 2672,
      "æĥ³è¦ģ": 2673,
      "Ġco": 2674,
      "åĨľ": 2675,
      "æĺ¯åľ¨": 2676,
      "çļĦæĳ": 2677,
      "æĸĩåŃĹ": 2678,
      "æĳĦ": 2679,
      "Ġtake": 2680,
      "èģĮä¸ļ": 2681,
      "æĥ¯": 2682,
      "çļĦæ²": 2683,
      "è´¢": 2684,
      "Ġcommunic": 2685,
      "å¿Ĺ": 2686,
      "ily": 2687,
      "è¡Ģ": 2688,
      "èĹ": 2689,
      "çĽ®åīį": 2690,
      "ä¸ºæĤ¨": 2691,
      "Ġexp": 2692,
      "è¯Ħä»·": 2693,
      "çĸĳ": 2694,
      "å®ŀä½ĵ": 2695,
      "ä¼¦": 2696,
      "æĲŃ": 2697,
      "Ġbenefits": 2698,
      "ä¾Ŀ": 2699,
      "Ġrese": 2700,
      "éĻįä½İ": 2701,
      "åĨ·": 2702,
      "éĴĪ": 2703,
      "oth": 2704,
      "éĺ³åħī": 2705,
      "å°ļ": 2706,
      "å²ģ": 2707,
      "ç»ıåİĨ": 2708,
      "åºķ": 2709,
      "å°½ç®¡": 2710,
      "åĲĪä½ľ": 2711,
      "å©": 2712,
      "æĬ¥éģĵ": 2713,
      "åı¯ä»¥éĢļè¿ĩ": 2714,
      "'t": 2715,
      "å¾Īå¥½": 2716,
      "åħ¬åı¸çļĦ": 2717,
      "çļĦçĶŁæ´»": 2718,
      "æ·»": 2719,
      "Ġreduce": 2720,
      "ä¸įè¦ģ": 2721,
      "éĤ®ä»¶": 2722,
      "Ġmost": 2723,
      "æĺ¯æĮĩ": 2724,
      "Ġprocess": 2725,
      "ident": 2726,
      "ç²ī": 2727,
      "çļĦæĮ": 2728,
      "Ġpotential": 2729,
      "åĬłå¼º": 2730,
      "äººå·¥æĻºèĥ½åľ¨": 2731,
      "çĽĸ": 2732,
      "ç»§": 2733,
      "åįļ": 2734,
      "ç®ĢçŁŃ": 2735,
      "æķ°éĩı": 2736,
      "çī©è´¨": 2737,
      "Ġenergy": 2738,
      "ç¼ĸåĨĻ": 2739,
      "riend": 2740,
      "ä¿ĥè¿Ľ": 2741,
      "ward": 2742,
      "50": 2743,
      "ä½łèĥ½": 2744,
      "Ġexample": 2745,
      "æĥĬ": 2746,
      "çīĪ": 2747,
      "Ġvar": 2748,
      "åħ±åĲĮ": 2749,
      "xt": 2750,
      "Ġusing": 2751,
      "çļĦæĦŁ": 2752,
      "ç¾İé£Ł": 2753,
      "è®©æĪĳ": 2754,
      "Ġag": 2755,
      "å¼ºè°ĥ": 2756,
      "Ġsuccess": 2757,
      "âĢĶ": 2758,
      "Ġher": 2759,
      "è¿ĻéĩĮ": 2760,
      "æ±ĩ": 2761,
      "çļĦå»ºè®®": 2762,
      "ç»Ļå®ļçļĦæĸĩæľ¬": 2763,
      "æľīåĬ©äºİ": 2764,
      "Ġgrow": 2765,
      "aly": 2766,
      "ä¸ĬæľĢ": 2767,
      "è¿Ļéĥ¨çĶµå½±": 2768,
      "Ġrequ": 2769,
      "å¹¸": 2770,
      "aus": 2771,
      "Ġthan": 2772,
      "åĪļ": 2773,
      "å°Ħ": 2774,
      "çļĦæ¯": 2775,
      "æĹ¨": 2776,
      "ä¹łæĥ¯": 2777,
      "è°¢è°¢": 2778,
      "åŁºç¡": 2779,
      "ustain": 2780,
      "Ġif": 2781,
      "åŁºç¡Ģ": 2782,
      "æľīå¾Īå¤ļ": 2783,
      "éĩįåĨĻ": 2784,
      "åıĮ": 2785,
      "Ġself": 2786,
      "ç¤¼": 2787,
      "èģĶç½ĳ": 2788,
      "æľīäºĽ": 2789,
      "ç§»": 2790,
      "èĻļ": 2791,
      "æķ´ä¸ª": 2792,
      "Ġevery": 2793,
      "Ġpositive": 2794,
      "ä¸ĢåĲį": 2795,
      "Ġins": 2796,
      "ä½¿å¾Ĺ": 2797,
      "ĠĊ": 2798,
      "åĨ³çŃĸ": 2799,
      "èĪŀ": 2800,
      "éĵģ": 2801,
      "åĬĽåĴĮ": 2802,
      "åį´": 2803,
      "åĮ»åŃ¦": 2804,
      "Ġç»Ļå®ļ": 2805,
      "Ġdec": 2806,
      "äº¤æµģ": 2807,
      "å½¢å¼ı": 2808,
      "Ġprof": 2809,
      "åį±": 2810,
      "ä¸įéĶĻ": 2811,
      "å±Ģ": 2812,
      "çļĦæķ°æį®": 2813,
      "æĬĢèĥ½": 2814,
      "å¡ĳ": 2815,
      "åįĪ": 2816,
      "èĮ¶": 2817,
      "è¿Ļæĺ¯ä¸Ģ": 2818,
      "æĤ£èĢħ": 2819,
      "ç¥¨": 2820,
      "Ġcare": 2821,
      "Ġjust": 2822,
      "åŁºæľ¬": 2823,
      "å®ĩ": 2824,
      "æľ¬æĸĩ": 2825,
      "æľºåĻ¨äºº": 2826,
      "æĬĢå·§": 2827,
      "Ġresp": 2828,
      "å¯Ł": 2829,
      "å¹»": 2830,
      "çļĦæı": 2831,
      "Ġfocus": 2832,
      "ĠHere": 2833,
      "çļĦç¤": 2834,
      "èģĶç³»": 2835,
      "æ¯Ĵ": 2836,
      "è¯´æĺİ": 2837,
      "çī¹å®ļ": 2838,
      "åı«": 2839,
      "ertain": 2840,
      "Th": 2841,
      "çŃīæĸ¹éĿ¢": 2842,
      "Ġindust": 2843,
      "èķ": 2844,
      "ä»¤äºº": 2845,
      "Ġeach": 2846,
      "æĭħ": 2847,
      "æİ¢è®¨": 2848,
      "å¢ŀå¼º": 2849,
      "åķĬ": 2850,
      "é¥Ń": 2851,
      "åĪĨéĴŁ": 2852,
      "æĢĿèĢĥ": 2853,
      "è¿ĩç¨ĭä¸Ń": 2854,
      "Ġensure": 2855,
      "ç¹": 2856,
      "Ġinst": 2857,
      "Ġlanguage": 2858,
      "åįĥ": 2859,
      "æ¯Ľ": 2860,
      "åĸĿ": 2861,
      "çĭ¬çī¹": 2862,
      "Ġeffective": 2863,
      "æıĲåĪ°": 2864,
      "è®©äºº": 2865,
      "ä½įç½®": 2866,
      "å®£": 2867,
      "ä¸ªèĭ¹æŀľ": 2868,
      "Ġfam": 2869,
      "èĢģå¸Ī": 2870,
      "ds": 2871,
      "omm": 2872,
      "å³°": 2873,
      "è¯ŃéŁ³": 2874,
      "ç«ŀ": 2875,
      "è±Ĩ": 2876,
      "çº³": 2877,
      "ĠHow": 2878,
      "æ¬¢è¿İ": 2879,
      "èĸ": 2880,
      "ç¬¬äºĮ": 2881,
      "ä»ĺ": 2882,
      "éŀ": 2883,
      "æĬ½": 2884,
      "å¥¥": 2885,
      "Ġshow": 2886,
      "æ©Ļ": 2887,
      "åıªæľī": 2888,
      "Ġval": 2889,
      "åĿĲ": 2890,
      "éĢŁåº¦": 2891,
      "ä»¥ä¾¿": 2892,
      "care": 2893,
      "ĠAd": 2894,
      "Ġ[": 2895,
      "è¡ĮæĺŁ": 2896,
      "ç«¯": 2897,
      "wn": 2898,
      "pportun": 2899,
      "ç»Ŀ": 2900,
      "æĸĩåŃ¦": 2901,
      "Ġwhile": 2902,
      "éĢı": 2903,
      "è¿Ľä¸ĢæŃ¥": 2904,
      "èģļ": 2905,
      "è·Ł": 2906,
      "æĦŁè§ī": 2907,
      "è¯¾": 2908,
      "è¾ĵåĩº": 2909,
      "Ġexperien": 2910,
      "Ġmod": 2911,
      "clusion": 2912,
      "Ġmade": 2913,
      "å®¹æĺĵ": 2914,
      "Ġpat": 2915,
      "æĦŁè°¢": 2916,
      "ç¤¾äº¤åªĴä½ĵ": 2917,
      "æī§": 2918,
      "å½¢æĪĲ": 2919,
      "çģ¾": 2920,
      "æŃ£éĿ¢": 2921,
      "ä¹ħ": 2922,
      "çļĦæ°´": 2923,
      "ä½Ļ": 2924,
      "cy": 2925,
      "é¡º": 2926,
      "Ġallow": 2927,
      "çļĦçľ": 2928,
      "Ġsustain": 2929,
      "æĦ¿": 2930,
      "Ġfind": 2931,
      "Ġcle": 2932,
      "çĦ¦": 2933,
      "é¹": 2934,
      "Ġaff": 2935,
      "çĮ®": 2936,
      "é©¾é©¶": 2937,
      "Ġresearch": 2938,
      "Ġopportun": 2939,
      "ç»ĦæĪĲ": 2940,
      "ç¬ĳ": 2941,
      "è¿Ļæĺ¯ä¸Ģä¸ª": 2942,
      "å®ŀéĻħ": 2943,
      "Ġref": 2944,
      "æ¶īåıĬ": 2945,
      "çıŃ": 2946,
      "nect": 2947,
      "æ·±åº¦åŃ¦ä¹ł": 2948,
      "å¤§åĪ©": 2949,
      "çĥĪ": 2950,
      "åĪĽæĦı": 2951,
      "çļĦæĬĢæľ¯": 2952,
      "è¿Ļä¸Ģ": 2953,
      "åģ¥èº«": 2954,
      "èĪ¬": 2955,
      "Ġpo": 2956,
      "èĪª": 2957,
      "åįĬ": 2958,
      "æ¦Ĥæĭ¬": 2959,
      "Ġinf": 2960,
      "ç»ĥä¹ł": 2961,
      "åģļåĩº": 2962,
      "Ġset": 2963,
      "åŃ¦æł¡": 2964,
      "é¾Ļ": 2965,
      "çļĦä¸»é¢ĺ": 2966,
      "ä¸įåı¯": 2967,
      "æĿ¡ä»¶": 2968,
      "Ġloc": 2969,
      "Ġwhere": 2970,
      "åıĺæļĸ": 2971,
      "äººåĳĺ": 2972,
      "åĲįåŃĹ": 2973,
      "ining": 2974,
      "é¼ĵ": 2975,
      "ç»§ç»Ń": 2976,
      "æıĲä¾ĽäºĨ": 2977,
      "èĲ¥åħ»": 2978,
      "çļĦæĹ¶éĹ´": 2979,
      "ç¼ĸç¨ĭ": 2980,
      "Ġmem": 2981,
      "åĳĺå·¥": 2982,
      "Ġsa": 2983,
      "åĲįè¯į": 2984,
      "eth": 2985,
      "çİĽ": 2986,
      "Ġ=": 2987,
      "Ġinclude": 2988,
      "æĦıè¯Ĩ": 2989,
      "åı¯ä»¥åľ¨": 2990,
      "éĵ¾": 2991,
      "æķħ": 2992,
      "Ġ20": 2993,
      "Ġchallenges": 2994,
      "Ġread": 2995,
      "ç»ıå¸¸": 2996,
      "Ġemot": 2997,
      "é«ĺçļĦ": 2998,
      "æĸ¹åĲĳ": 2999,
      "Ġsee": 3000,
      "èĥĮæĻ¯": 3001,
      "è´Ńçī©": 3002,
      "èĩªæĪĳ": 3003,
      "åĨ¬": 3004,
      "éĢĤå½ĵ": 3005,
      "æĦıä¹ī": 3006,
      "chie": 3007,
      "ability": 3008,
      "éĵ¶": 3009,
      "æ°´å¹³": 3010,
      "å¤ļä¸ª": 3011,
      "Ġrem": 3012,
      "èĮĥåĽ´": 3013,
      "é¢Ŀ": 3014,
      "æĭ¿": 3015,
      "å¤ļç§į": 3016,
      "åĽ¾åĥı": 3017,
      "çļĦå¤©æ°Ķ": 3018,
      "Ġpartic": 3019,
      "ft": 3020,
      "è¯ĹæŃĮ": 3021,
      "Ġä¸º": 3022,
      "Ġç»ĻæĪĳ": 3023,
      "åħ°": 3024,
      "Ġrelations": 3025,
      "ä¸¥éĩį": 3026,
      "ĠFor": 3027,
      "å®ĺ": 3028,
      "åĳ¼åĲ¸": 3029,
      "çī©åĵģ": 3030,
      "ä¼´": 3031,
      "æĮīçħ§": 3032,
      "éŀĭ": 3033,
      "å¦Ĥä¸ĭ": 3034,
      "ense": 3035,
      "åºĶå¯¹": 3036,
      "è¿·": 3037,
      "çļĦå°ı": 3038,
      "Ġteam": 3039,
      "ware": 3040,
      "å®ł": 3041,
      "å¸¸è§ģ": 3042,
      "èĲ¨": 3043,
      "å¤ıå¤©": 3044,
      "æ¸ħæĻ": 3045,
      "Ġiss": 3046,
      "æ»¡è¶³": 3047,
      "ç¢³": 3048,
      "Ġnat": 3049,
      "åĲĮæĹ¶ä¹Ł": 3050,
      "è½¯ä»¶": 3051,
      "å¹³è¡¡": 3052,
      "æ´ŀ": 3053,
      "å¯¹è¯ĿåĨħå®¹": 3054,
      "Ġdevelopment": 3055,
      "æľ«": 3056,
      "é¡¾": 3057,
      "ves": 3058,
      "Ġav": 3059,
      "çŁŃè¯Ń": 3060,
      "ĠBy": 3061,
      "bs": 3062,
      "æĬ±": 3063,
      "ering": 3064,
      "åİ»äºĨ": 3065,
      "ä¼°": 3066,
      "Ġachie": 3067,
      "åĢĭ": 3068,
      "ä¼ļè®®": 3069,
      "ck": 3070,
      "Ġcommunity": 3071,
      "Ġresources": 3072,
      "Ġfood": 3073,
      "éª¤": 3074,
      "Ġrev": 3075,
      "ç±»åĪ«": 3076,
      "çļĦçĪ": 3077,
      "æ£ĢæŁ¥": 3078,
      "Ġemploye": 3079,
      "ä¸ĭæĿ¥": 3080,
      "åĭĩ": 3081,
      "Ġanaly": 3082,
      "æĽ¾": 3083,
      "Ġrelationship": 3084,
      "Ġconf": 3085,
      "ribut": 3086,
      "çĨŁ": 3087,
      "éĽª": 3088,
      "ç»ıåħ¸": 3089,
      "çºł": 3090,
      "ç¹ģ": 3091,
      "æĲľ": 3092,
      "æľ¬ä¹¦": 3093,
      "èµı": 3094,
      "å¼ķèµ·": 3095,
      "æıĲåĪ°äºĨ": 3096,
      "äºĭå®ŀ": 3097,
      "ç©ºæ°Ķ": 3098,
      "æľĹ": 3099,
      "hys": 3100,
      "ĠAs": 3101,
      "ĠV": 3102,
      "Ġmus": 3103,
      "çļĦæłĩ": 3104,
      "åģı": 3105,
      "åŃ¤": 3106,
      "ä½įäºİ": 3107,
      "åıĤä¸İ": 3108,
      "Ġorganiz": 3109,
      "..": 3110,
      "è¸": 3111,
      "åĿı": 3112,
      "æ´Ĺ": 3113,
      "12": 3114,
      "è¯»èĢħ": 3115,
      "åħĥç´ł": 3116,
      "éŃĶ": 3117,
      "ĠCh": 3118,
      "Ġhis": 3119,
      "çļĦåħ³éĶ®": 3120,
      "æĬķèµĦ": 3121,
      "çĶµè§Ĩ": 3122,
      "æĦī": 3123,
      "å½ĵçĦ¶åı¯ä»¥": 3124,
      "ä»Ģä¹Īæĺ¯": 3125,
      "æ³³": 3126,
      "åķĨä¸ļ": 3127,
      "æĹ¥å¸¸": 3128,
      "ç¨³": 3129,
      "Ġdesign": 3130,
      "100": 3131,
      "åĪĨäº«": 3132,
      "æĽ´å¥½çļĦ": 3133,
      "è°Ī": 3134,
      "æĺ¨å¤©": 3135,
      "ç§ĳåŃ¦å®¶": 3136,
      "éĿ¢ä¸´": 3137,
      "çľģ": 3138,
      "ines": 3139,
      "lement": 3140,
      "Ġmain": 3141,
      "çļĦçłĶç©¶": 3142,
      "åĩºæĿ¥": 3143,
      "self": 3144,
      "Ġback": 3145,
      "å§Ĩ": 3146,
      "çķħ": 3147,
      "æŁĶ": 3148,
      "çļĦæĸ¹å¼ı": 3149,
      "åĢ¼å¾Ĺ": 3150,
      "ove": 3151,
      "æ¸©åº¦": 3152,
      "æ²ī": 3153,
      "çĶľ": 3154,
      "è·Ŀ": 3155,
      "åģľ": 3156,
      "æİĴæĶ¾": 3157,
      "è´µ": 3158,
      "æ·»åĬł": 3159,
      "éĢĶ": 3160,
      "è¿ĩåİ»": 3161,
      "åĬĽéĩı": 3162,
      "å®łçī©": 3163,
      "Ġplay": 3164,
      "arm": 3165,
      "éĢīé¡¹": 3166,
      "é¥°": 3167,
      "æľīçĿĢ": 3168,
      "çĨĬ": 3169,
      "éħ±": 3170,
      "Ġty": 3171,
      "Ġessential": 3172,
      "Ġproject": 3173,
      "è¶ħè¿ĩ": 3174,
      "æķĪæŀľ": 3175,
      "Ġdetail": 3176,
      "èĤ¡": 3177,
      "Ġmind": 3178,
      "Ġbl": 3179,
      "è°ģ": 3180,
      "çİ°å®ŀ": 3181,
      "ĠWe": 3182,
      "iss": 3183,
      "hes": 3184,
      "Ġpres": 3185,
      "å²Ľ": 3186,
      "Ġbetter": 3187,
      "åı£æĦŁ": 3188,
      "éħ¸": 3189,
      "ble": 3190,
      "ify": 3191,
      "å°Ĩä¼ļ": 3192,
      "Ġlong": 3193,
      "éĻĪ": 3194,
      "ç³»åĪĹ": 3195,
      "Ġjob": 3196,
      "oura": 3197,
      "åĽ½å®¶": 3198,
      "çļĦå·¥ä½ľ": 3199,
      "çļĦç¬": 3200,
      "ä¼½": 3201,
      "ç¾İåĳ³": 3202,
      "Ġfin": 3203,
      "ï¼ĮâĢľ": 3204,
      "ween": 3205,
      "conom": 3206,
      "æŃ»": 3207,
      "Ġown": 3208,
      "other": 3209,
      "30": 3210,
      "å¹³åĿĩ": 3211,
      "æĴŃ": 3212,
      "led": 3213,
      "å¥ĸ": 3214,
      "Ġbuild": 3215,
      "è¿ĽæŃ¥": 3216,
      "Ġchange": 3217,
      "hed": 3218,
      "éľ²": 3219,
      "Ġappro": 3220,
      "Ġpub": 3221,
      "å¤«": 3222,
      "Ġbetween": 3223,
      "éĿł": 3224,
      "åĸľæ¬¢çļĦ": 3225,
      "æ¬§": 3226,
      "ç³ķ": 3227,
      "æ£®": 3228,
      "å¿ĺ": 3229,
      "Ġways": 3230,
      "å¤§åŃ¦": 3231,
      "Ġmaking": 3232,
      "äººçī©": 3233,
      "æİĮ": 3234,
      "å®Ļ": 3235,
      "ç¥ŀç»ı": 3236,
      "Ġ5": 3237,
      "çļĦæ®": 3238,
      "ink": 3239,
      "åĪĽå»º": 3240,
      "ool": 3241,
      "rite": 3242,
      "éĢĤåºĶ": 3243,
      "åħ¨çĲĥåıĺæļĸ": 3244,
      "èĨ": 3245,
      "çŃīé¢ĨåŁŁ": 3246,
      "cer": 3247,
      "Ġconnect": 3248,
      "wor": 3249,
      "Ġaut": 3250,
      "éĴĪå¯¹": 3251,
      "æĺİå¤©": 3252,
      "åŁ¹": 3253,
      "Ġenc": 3254,
      "Ġstart": 3255,
      "è´§": 3256,
      "Ġothers": 3257,
      "å¿Ĩ": 3258,
      "çļĦæĥħåĨµ": 3259,
      "äºĴèģĶç½ĳ": 3260,
      "Ġcomple": 3261,
      "æľīä¸Ģä¸ª": 3262,
      "ä¹īè¯į": 3263,
      "è°ĥæķ´": 3264,
      "18": 3265,
      "çļĦæľĢ": 3266,
      "å¥Ĺ": 3267,
      "å®ĩå®Ļ": 3268,
      "åĨĻä½ľ": 3269,
      "ä¹³": 3270,
      "éĿ©": 3271,
      "çĽ¸åĲĮ": 3272,
      "15": 3273,
      "åıĸå¾Ĺ": 3274,
      "è¿Ļä¸ªåı¥åŃĲ": 3275,
      "Ġphys": 3276,
      "çļĦåľ°æĸ¹": 3277,
      "ages": 3278,
      "Ġhum": 3279,
      "æĸĩæľ¬ä¸Ń": 3280,
      "ism": 3281,
      "åĲĪéĢĤ": 3282,
      "ľä¼½": 3283,
      "ä¿®æĶ¹": 3284,
      "Ġmanage": 3285,
      "ition": 3286,
      "çļĦæ´": 3287,
      "è§Ĩè§ī": 3288,
      "fore": 3289,
      "Ġget": 3290,
      "è®©æĪĳä»¬": 3291,
      "æ¸ħæĻ°": 3292,
      "Ġfew": 3293,
      "æĪĳä»¬åºĶè¯¥": 3294,
      "Ġeas": 3295,
      "Ġlevel": 3296,
      "Ġeven": 3297,
      "çĪ±æĥħ": 3298,
      "åī©ä¸ĭ": 3299,
      "æ¥¼": 3300,
      "çº½": 3301,
      "\\_": 3302,
      "å°ıæĹ¶": 3303,
      "Ġgu": 3304,
      "æ³ķå¾ĭ": 3305,
      "éģĹ": 3306,
      "æĥħèĬĤ": 3307,
      "ĠâĢľ": 3308,
      "é«ĺæķĪ": 3309,
      "Ġduring": 3310,
      "ä¸Ģé¦ĸ": 3311,
      "hen": 3312,
      "è¯·ä½ł": 3313,
      "æ·±åħ¥": 3314,
      "æı¡": 3315,
      "ĠThey": 3316,
      "å½¢å®¹": 3317,
      "Ġæııè¿°": 3318,
      "Ġfound": 3319,
      "æļĹ": 3320,
      "Ġfriend": 3321,
      "æī¿": 3322,
      "Ġchild": 3323,
      "èĲ¥éĶĢ": 3324,
      "æ··": 3325,
      "åĽłä¸ºå®ĥ": 3326,
      "åĨĴ": 3327,
      "Ġbel": 3328,
      "åĪĽä½ľ": 3329,
      "åĽ°éļ¾": 3330,
      "è·³": 3331,
      "Ġcar": 3332,
      "æĹ¥æľ¬": 3333,
      "åĢĴ": 3334,
      "Ġcontin": 3335,
      "ä¸ªç³ĸæŀľ": 3336,
      "ps": 3337,
      "åľ°çĤ¹": 3338,
      "ç§Ģ": 3339,
      "èĹı": 3340,
      "ited": 3341,
      "æµ·æ´ĭ": 3342,
      "Ġyear": 3343,
      "ä»ĭç»įäºĨ": 3344,
      "åºĬ": 3345,
      "Ġident": 3346,
      "çŃĸçķ¥": 3347,
      "æ±Ł": 3348,
      "çļĦæ®µ": 3349,
      "lease": 3350,
      "æ½ľ": 3351,
      "éļĲç§ģ": 3352,
      "è¯įæ±ĩ": 3353,
      "com": 3354,
      "è¶³å¤Ł": 3355,
      "Ġbeing": 3356,
      "çĽ¸ä¼¼": 3357,
      "Ġgr": 3358,
      "æ±ī": 3359,
      "æĹ¶å°ļ": 3360,
      "æĹ¥æľŁ": 3361,
      "ç£": 3362,
      "å·§åħĭ": 3363,
      "éģĵå¾·": 3364,
      "å¡ĳæĸĻ": 3365,
      "èĭ±è¯Ń": 3366,
      "çļĦçĥ": 3367,
      "çļĦå¤§": 3368,
      "arket": 3369,
      "ĠĠĠĠ": 3370,
      "ä¼ĺåĮĸ": 3371,
      "ç½ĳç«Ļ": 3372,
      "æ±¤": 3373,
      "å·¦": 3374,
      "æ£Ĵ": 3375,
      "aging": 3376,
      "çļĦæ°Ķ": 3377,
      "Ġinvol": 3378,
      "Ġopt": 3379,
      "çļĦæ®µèĲ½": 3380,
      "çļĦç¤¾": 3381,
      "å¿«ä¹Ĳ": 3382,
      "æĵį": 3383,
      "ç»ĨèĬĤ": 3384,
      "ĠThese": 3385,
      "çļĦè¯Ŀ": 3386,
      "ä¾ĭåŃĲ": 3387,
      "å¹¶åľ¨": 3388,
      "éĨĴ": 3389,
      "int": 3390,
      "æ¸¸æ³³": 3391,
      "å®Ī": 3392,
      "ĠHowever": 3393,
      "Ġform": 3394,
      "ç»¿èī²": 3395,
      "çĦ¦èĻĳ": 3396,
      "Ġtool": 3397,
      "ital": 3398,
      "æļ´": 3399,
      "èį¯çī©": 3400,
      "Ġoften": 3401,
      "å®ĥä»¬çļĦ": 3402,
      "éļľ": 3403,
      "Ġcount": 3404,
      "åĪĨç±»ä¸º": 3405,
      "çĻ»": 3406,
      "è´£ä»»": 3407,
      "back": 3408,
      "æĺ¯çļĦ": 3409,
      "è¢ĭ": 3410,
      "æľĿ": 3411,
      "æıĲåĩº": 3412,
      "Ġgener": 3413,
      "åŃ£èĬĤ": 3414,
      "ä¿Ŀåģ¥": 3415,
      "æĹłè®º": 3416,
      "æ¶Īè´¹": 3417,
      "ateg": 3418,
      "ict": 3419,
      "é¡¿": 3420,
      "ights": 3421,
      "Ġide": 3422,
      "ique": 3423,
      "ä»įçĦ¶": 3424,
      "ä¸Ģç¯ĩæĸĩç«ł": 3425,
      "çļĦæĹ¶åĢĻ": 3426,
      "Ġris": 3427,
      "Ġç»Ļåĩº": 3428,
      "Ġactiv": 3429,
      "uture": 3430,
      "å¹¿åĳĬ": 3431,
      "æĬ¥åĳĬ": 3432,
      "ider": 3433,
      "æĶ¿çŃĸ": 3434,
      "çģ¯": 3435,
      "çļĦå¥½": 3436,
      "ä»¥ä¸ĭæĺ¯ä¸Ģ": 3437,
      "å¹³åı°": 3438,
      "Ġbre": 3439,
      "Ġconclusion": 3440,
      "åı³": 3441,
      "åĲĪçĲĨ": 3442,
      "Ġindustry": 3443,
      "çļĦéĩįè¦ģæĢ§": 3444,
      "ç»ŃåĨĻ": 3445,
      "å¤ļæł·": 3446,
      "æĪĳåĸľæ¬¢": 3447,
      "æ¨¡å¼ı": 3448,
      "åĹ": 3449,
      "å°ģ": 3450,
      "äººå·¥æĻºèĥ½çļĦ": 3451,
      "å·§åħĭåĬĽ": 3452,
      "ç¥ŀç§ĺ": 3453,
      "ŁéĢļ": 3454,
      "åĮĸçļĦ": 3455,
      "Ġra": 3456,
      "irst": 3457,
      "è¡Ĺ": 3458,
      "å¢ŀéķ¿": 3459,
      "Ġprofess": 3460,
      "Ġwant": 3461,
      "çĬ¯": 3462,
      "Ġcommunication": 3463,
      "ç®±": 3464,
      "åľ¨å®¶": 3465,
      "æµĵ": 3466,
      "chool": 3467,
      "be": 3468,
      "åıįåºĶ": 3469,
      "ä¸įè¿ĩ": 3470,
      "ä¸Ģæł·": 3471,
      "Ġneg": 3472,
      "çĹĽ": 3473,
      "åľĨ": 3474,
      "å°ıæĺİæľī": 3475,
      "èĢĲ": 3476,
      "å¹¸ç¦ı": 3477,
      "ĠYou": 3478,
      "æĮ¥": 3479,
      "ĠWh": 3480,
      "æĬĺ": 3481,
      "ĠCan": 3482,
      "åĺ": 3483,
      "Ġå¯¹": 3484,
      "å¸¦æĿ¥äºĨ": 3485,
      "æĭ¼": 3486,
      "Ġstudy": 3487,
      "erest": 3488,
      "ç¬¦åĲĪ": 3489,
      "æĶ¹è¿Ľ": 3490,
      "èĦĤ": 3491,
      "Ġonline": 3492,
      "çĳľä¼½": 3493,
      "æĲľç´¢": 3494,
      "çĬ¶æĢģ": 3495,
      "Ġtop": 3496,
      "å¡Ķ": 3497,
      "åĨ²": 3498,
      "Ġsim": 3499,
      "ational": 3500,
      "åı£åĳ³": 3501,
      "Ġperform": 3502,
      "ning": 3503,
      "abor": 3504,
      "Ġpur": 3505,
      "åĪ¶éĢł": 3506,
      "çļĦæµ·": 3507,
      "å¿ħè¦ģ": 3508,
      "çĶµèĦĳ": 3509,
      "ç¼ĵè§£": 3510,
      "æĦŁåıĹ": 3511,
      "ä¹İ": 3512,
      "æķĳ": 3513,
      "ditionally": 3514,
      "Ġ4": 3515,
      "çī©çĲĨ": 3516,
      "æĬĹ": 3517,
      "çº½çº¦": 3518,
      "è£¤": 3519,
      "çº¸": 3520,
      "æĺİç¡®": 3521,
      "Ġphysical": 3522,
      "äººåĲį": 3523,
      "è¯įè¯Ń": 3524,
      "æŃ£ç¡®çļĦ": 3525,
      "çļĦæĳĺè¦ģ": 3526,
      "Ġlet": 3527,
      "eg": 3528,
      "åħ¶æ¬¡": 3529,
      "Ġeconom": 3530,
      "ä¸Ĭåįĩ": 3531,
      "èĦļ": 3532,
      "é¼ĵåĬ±": 3533,
      "ç«ŀäºī": 3534,
      "Ġreal": 3535,
      "erc": 3536,
      "ç«¥": 3537,
      "åį³åı¯": 3538,
      "æĢ»æĺ¯": 3539,
      "Ġcompany": 3540,
      "éĹ²": 3541,
      "Ġpower": 3542,
      "ick": 3543,
      "Ġvis": 3544,
      "åľ°æĸ¹": 3545,
      "åĬ¨ä½ľ": 3546,
      "æł¸": 3547,
      "çļĦä¸»": 3548,
      "æĥħç»ª": 3549,
      "å·¥ç¨ĭ": 3550,
      "åĪĨç»Ļ": 3551,
      "ç±į": 3552,
      "æıĲä¾Ľä¸Ģä¸ª": 3553,
      "æ½®": 3554,
      "éĢĲæ¸Ĳ": 3555,
      "ov": 3556,
      "çİ°è±¡": 3557,
      "ĠAI": 3558,
      "Ġwater": 3559,
      "åıĹæ¬¢è¿İ": 3560,
      "åĽ½éĻħ": 3561,
      "éĻĲåĪ¶": 3562,
      "Ġfuture": 3563,
      "è¿½æ±Ĥ": 3564,
      "å®¶å±ħ": 3565,
      "Ġboth": 3566,
      "æŁĲäºĽ": 3567,
      "é»İ": 3568,
      "ä¹ĭåīį": 3569,
      "old": 3570,
      "è¾Ĩ": 3571,
      "åĩıè½»": 3572,
      "Ġprot": 3573,
      "æ¬£": 3574,
      "æ°¸": 3575,
      "è´¡": 3576,
      "ä¸ĸçºª": 3577,
      "çħ®": 3578,
      "æµĭè¯ķ": 3579,
      "Ġimplement": 3580,
      "çĽĲ": 3581,
      "Ġthose": 3582,
      "åĳ³éģĵ": 3583,
      "iving": 3584,
      "Ġday": 3585,
      "è·Ŀç¦»": 3586,
      "Ġinterest": 3587,
      "ries": 3588,
      "cept": 3589,
      "æıĲåįĩ": 3590,
      "æĻ¯çĤ¹": 3591,
      "ä¸Ģåı¥è¯Ŀ": 3592,
      "ĠK": 3593,
      "èĿ": 3594,
      "å¤ªç©º": 3595,
      "èĤ¤": 3596,
      "åºĶçĶ¨äºİ": 3597,
      "çĤº": 3598,
      "Ġcost": 3599,
      "ä¸Ŀ": 3600,
      "çĶŁæĢģç³»ç»Ł": 3601,
      "æĲŃéħį": 3602,
      "Ġph": 3603,
      "Ġgoals": 3604,
      "vent": 3605,
      "è°·": 3606,
      "ä¸ĸçķĮä¸ĬæľĢ": 3607,
      "çļĦé£Łçī©": 3608,
      "±ä¹Ĳ": 3609,
      "ng": 3610,
      "åħ¬åħ±": 3611,
      "æİ¨åĬ¨": 3612,
      "ä¸ĭæĸĩ": 3613,
      "è®©ä½ł": 3614,
      "éĸ": 3615,
      "Ġmarket": 3616,
      "ways": 3617,
      "ä»¿": 3618,
      "Ġgl": 3619,
      "Ġresult": 3620,
      "å®ŀéªĮ": 3621,
      "éĶħ": 3622,
      "Ġchang": 3623,
      "åº¦åĴĮ": 3624,
      "Ġno": 3625,
      "ond": 3626,
      "åĵªä¸ª": 3627,
      "ç¥Ŀ": 3628,
      "ç»¼": 3629,
      "æĻļä¸Ĭ": 3630,
      "ĠPro": 3631,
      "ä¸Ģå®¶": 3632,
      "Ġbr": 3633,
      "åĢĳ": 3634,
      "ä¸ªæĢ§": 3635,
      "Ġsur": 3636,
      "ç©ºéĹ´": 3637,
      "Ġexperiences": 3638,
      "çº¢èī²": 3639,
      "ä½¿åħ¶æĽ´åĬł": 3640,
      "å¼łä¸ī": 3641,
      "çĶ¨æĿ¥": 3642,
      "è§£åĨ³æĸ¹æ¡Ī": 3643,
      "æ±ł": 3644,
      "æ©ĻåŃĲ": 3645,
      "Ġservices": 3646,
      "Ġaddress": 3647,
      "æĪĲéķ¿": 3648,
      "å¤ıåŃ£": 3649,
      "æĦıæĢĿ": 3650,
      "å¸ģ": 3651,
      "ogn": 3652,
      "æĿĳ": 3653,
      "Ġplan": 3654,
      "çļĦåĨħå®¹": 3655,
      "è´¡çĮ®": 3656,
      "æĺ¯çĶ±": 3657,
      "ollow": 3658,
      "æ¹ĸ": 3659,
      "éĵħ": 3660,
      "Ġsustainable": 3661,
      "uss": 3662,
      "Ġstress": 3663,
      "å±ķç¤º": 3664,
      "çļĦæ³": 3665,
      "çĽĺ": 3666,
      "çīĽå¥¶": 3667,
      "____": 3668,
      "Ġrole": 3669,
      "è¯Ħä¼°": 3670,
      "por": 3671,
      "ä¹ĺ": 3672,
      "èµŀ": 3673,
      "è²": 3674,
      "åĲ«ä¹ī": 3675,
      "ä¸¤ä¸ªåı¥åŃĲ": 3676,
      "æ°Ķä½ĵ": 3677,
      "Ġquality": 3678,
      "Ġop": 3679,
      "å¿Ļ": 3680,
      "æľºæŀĦ": 3681,
      "æŃ§": 3682,
      "æĹ©ä¸Ĭ": 3683,
      "æľªæĿ¥çļĦ": 3684,
      "Ġcontribut": 3685,
      "Ġprofessional": 3686,
      "Ġgood": 3687,
      "åİŁå§ĭ": 3688,
      "åĬ³": 3689,
      "çĬ¶åĨµ": 3690,
      "å¥³æĢ§": 3691,
      "åĴĮåħ¶ä»ĸ": 3692,
      "å®«": 3693,
      "own": 3694,
      "å®Įåħ¨": 3695,
      "æ±ģ": 3696,
      "\\_\\_": 3697,
      "ĠUse": 3698,
      "æī©": 3699,
      "çļĦåİĨåı²": 3700,
      "Ġpop": 3701,
      "ips": 3702,
      "ä¸ĢèĪ¬": 3703,
      "ax": 3704,
      "åİļ": 3705,
      "ec": 3706,
      "è°ĥæŁ¥": 3707,
      "Ġbecome": 3708,
      "èİ·åıĸ": 3709,
      "yle": 3710,
      "åľ¨çº¿": 3711,
      "æķ£æŃ¥": 3712,
      "å¥ĭ": 3713,
      "ases": 3714,
      "å°Ĭéĩį": 3715,
      "imate": 3716,
      "æĿ¥èĩª": 3717,
      "Write": 3718,
      "åĤ¨": 3719,
      "çĶŁæ´»ä¸Ń": 3720,
      "æĪ·å¤ĸ": 3721,
      "çĽ¸ä¿¡": 3722,
      "è®°å½ķ": 3723,
      "è¿Ļå®¶": 3724,
      "åĮ»çĸĹä¿Ŀåģ¥": 3725,
      "ç¯®": 3726,
      "Ġaround": 3727,
      "åĲ¯": 3728,
      "ä¸ľè¥¿": 3729,
      "æ»ĳ": 3730,
      "Ġfl": 3731,
      "Ġsense": 3732,
      "çĽ´æİ¥": 3733,
      "å°į": 3734,
      "æĪĲæľ¬": 3735,
      "ä¹Łä¼ļ": 3736,
      "åı¯èĥ½æĺ¯": 3737,
      "åĪĹè¡¨": 3738,
      "æĬĢæľ¯çļĦ": 3739,
      "Ġent": 3740,
      "æĦıåĳ³": 3741,
      "æĺł": 3742,
      "over": 3743,
      "Ġpractices": 3744,
      "åħŃ": 3745,
      "è¾¾åĪ°": 3746,
      "çļĦæĢĿ": 3747,
      "Ġshare": 3748,
      "ered": 3749,
      "åĽŀçŃĶéĹ®é¢ĺ": 3750,
      "ç½ª": 3751,
      "å¾Ħ": 3752,
      "ody": 3753,
      "å¥¹çļĦ": 3754,
      "ian": 3755,
      "ä¸įçŁ¥éģĵ": 3756,
      "è®ºæĸĩ": 3757,
      "åºĶçĶ¨ç¨ĭåºı": 3758,
      "çłĶ": 3759,
      "Ġchar": 3760,
      "æĦıå¤§åĪ©": 3761,
      "ä¸Ĭæµ·": 3762,
      "Ġopportunities": 3763,
      "Ġpublic": 3764,
      "éĢĻ": 3765,
      "Ġfeat": 3766,
      "å¦Ī": 3767,
      "éĵħç¬Ķ": 3768,
      "Ġgrowth": 3769,
      "ci": 3770,
      "åĨł": 3771,
      "Ġclear": 3772,
      "æĸ¹ä¾¿": 3773,
      "éĤ£éĩĮ": 3774,
      "çİī": 3775,
      "Ġclass": 3776,
      "åĪĨåĪ«": 3777,
      "Ġproviding": 3778,
      "ph": 3779,
      "red": 3780,
      "è¡¨è¾¾äºĨ": 3781,
      "ç¼©": 3782,
      "Ġoffer": 3783,
      "åŃ¦ä¹łåĴĮ": 3784,
      "çĥ§": 3785,
      "æĿ°": 3786,
      "ç»Ļä½ł": 3787,
      "oh": 3788,
      "æŃ¥éª¤": 3789,
      "æįŁ": 3790,
      "èĳĹåĲįçļĦ": 3791,
      "æ·±åĪ»": 3792,
      "Ġfac": 3793,
      "å·´é»İ": 3794,
      "ause": 3795,
      "æĢ¥": 3796,
      "éģį": 3797,
      "ç¨³å®ļ": 3798,
      "éº¦": 3799,
      "èĽĭçĻ½": 3800,
      "æ´¾": 3801,
      "è¶³çĲĥ": 3802,
      "åĽº": 3803,
      "èĩ³å°ĳ": 3804,
      "éĩıåŃĲ": 3805,
      "ä¸Ģå¤©": 3806,
      "apt": 3807,
      "æŀ¶": 3808,
      "åı¯ä»¥ä½¿çĶ¨": 3809,
      "åĩī": 3810,
      "æĶ¹åĨĻ": 3811,
      "atform": 3812,
      "æĸĹ": 3813,
      "è¿Ļç¯ĩ": 3814,
      "ty": 3815,
      "çĩĥ": 3816,
      "æĸ°éĹ»æĬ¥éģĵ": 3817,
      "æĦıåĳ³çĿĢ": 3818,
      "æĽ¿æį¢": 3819,
      "åĳĪ": 3820,
      "çİ¯å¢ĥä¿ĿæĬ¤": 3821,
      "----": 3822,
      "ier": 3823,
      "é¥¼": 3824,
      "Ġstay": 3825,
      "Ġfollow": 3826,
      "åĪº": 3827,
      "ron": 3828,
      "å®½": 3829,
      "æŃī": 3830,
      "Ġstrateg": 3831,
      "åĮĸåŃ¦": 3832,
      "åıĳå¸ĥ": 3833,
      "çĤĴ": 3834,
      "è¡¨éĿ¢": 3835,
      "éĻĦ": 3836,
      "ner": 3837,
      "ä½Ľ": 3838,
      "å½ĵåīį": 3839,
      "åĿļæĮģ": 3840,
      "ç±»ä¼¼": 3841,
      "Ġemployees": 3842,
      "äººçĶŁ": 3843,
      "å¤©ç©º": 3844,
      "Ġä½ł": 3845,
      "Ġpolic": 3846,
      "åģ¥åº·çļĦ": 3847,
      "Ġactivities": 3848,
      "éľĩ": 3849,
      "Ġdel": 3850,
      "æ°Ķæ¸©": 3851,
      "Ġdivers": 3852,
      "Ġnegative": 3853,
      "ä¸Ģç»Ħ": 3854,
      "æĿŁ": 3855,
      "æģ¶": 3856,
      "Ġhealthcare": 3857,
      "å¹¶ä¸į": 3858,
      "åı¥åŃĲä¸Ń": 3859,
      "èĩªè¡Į": 3860,
      "æĶ»": 3861,
      "ä»¥ç¡®ä¿Ŀ": 3862,
      "çĽ¸åħ³çļĦ": 3863,
      "åĶ±": 3864,
      "åºŁ": 3865,
      "éĽħ": 3866,
      "ç»©": 3867,
      "ĠAdditionally": 3868,
      "Ġhand": 3869,
      "Ġinvest": 3870,
      "å¯Ĵ": 3871,
      "ä¿Ŀè¯ģ": 3872,
      "æĤ¦": 3873,
      "çŃ¾": 3874,
      "çļĦæ´»": 3875,
      "è®¢": 3876,
      "æ¯ıä¸ªæľĭåıĭ": 3877,
      "çļĦä¸Ģä¸ª": 3878,
      "Ġsub": 3879,
      "Ġsmall": 3880,
      "å°¤": 3881,
      "åĪĨåĪ°": 3882,
      "å¹ħ": 3883,
      "æİ¨å¹¿": 3884,
      "çļĦç³": 3885,
      "çīĻ": 3886,
      "æ¶¦": 3887,
      "labor": 3888,
      "Ġfamily": 3889,
      "Ġfun": 3890,
      "æĪĳå¾Ī": 3891,
      "Ġob": 3892,
      "Ġcrit": 3893,
      "è¡£æľį": 3894,
      "Can": 3895,
      "åºĵ": 3896,
      "ç»ĺ": 3897,
      "éľĢè¦ģæ³¨æĦı": 3898,
      "Ġplatform": 3899,
      "çľŁæŃ£": 3900,
      "¡èĲ": 3901,
      "Ġexerc": 3902,
      "åĬ¨è¯į": 3903,
      "akes": 3904,
      "æī§è¡Į": 3905,
      "Ġalways": 3906,
      "ä¼ĺåĬ¿": 3907,
      "æİī": 3908,
      "Ġcour": 3909,
      "æģĲ": 3910,
      "æĢĿæĥ³": 3911,
      "èĥ½éĩı": 3912,
      "Ġencoura": 3913,
      "åı¯ä»¥è¢«": 3914,
      "Ġpromote": 3915,
      "èĤĮ": 3916,
      "Ġbelie": 3917,
      "wards": 3918,
      "èĭ¦": 3919,
      "çĽĽ": 3920,
      "æİ¥åıĹ": 3921,
      "å®ļä¹ī": 3922,
      ".\"": 3923,
      "ç§ĳå¹»": 3924,
      "und": 3925,
      "æ¤Ĵ": 3926,
      "æ¨¡æĭŁ": 3927,
      "çıį": 3928,
      "ä¸Ģä¸ªäºº": 3929,
      "çļĦæĸ°": 3930,
      "Ġche": 3931,
      "åı¯æĮģç»Ńåıĳå±ķ": 3932,
      "éªĳ": 3933,
      "å¾ª": 3934,
      "èĢĮä¸įæĺ¯": 3935,
      "å®īæİĴ": 3936,
      "ä¸ŃæľĢ": 3937,
      "Ġbusinesses": 3938,
      "å¼ĥ": 3939,
      "ç»ĵåĲĪ": 3940,
      "çļĦæĻº": 3941,
      "çļĦçĭ": 3942,
      "æ£®æŀĹ": 3943,
      "æĺİäºĨ": 3944,
      "åıĳæĮ¥": 3945,
      "Ġschool": 3946,
      "åĴĮæĸĩåĮĸ": 3947,
      "è½»æĿ¾": 3948,
      "çļĦçĪ±": 3949,
      "ä¸»ä¹ī": 3950,
      "Ġprograms": 3951,
      "ude": 3952,
      "ä¸ĭåĪĹ": 3953,
      "çļĦæıı": 3954,
      "åĩºèī²": 3955,
      "çĽ¸äºĴ": 3956,
      "Ġrep": 3957,
      "Ġcultural": 3958,
      "çļĦæĦıæĢĿ": 3959,
      "çĿ¡çľł": 3960,
      "å®¶äºº": 3961,
      "Ġgrou": 3962,
      "Ġbest": 3963,
      "æıĲä¾Ľä¸ĢäºĽ": 3964,
      "è©": 3965,
      "Ġcustomer": 3966,
      "èĤ¥": 3967,
      "åħ±æľī": 3968,
      "Ġsever": 3969,
      "ä¼ĺç§Ģ": 3970,
      "äºĨä¸ĢäºĽ": 3971,
      "å®ļæľŁ": 3972,
      "èĭı": 3973,
      "Ġfact": 3974,
      "ï¼īãĢĤ": 3975,
      "å©ļ": 3976,
      "åĪĹåĩº": 3977,
      "äººç±»çļĦ": 3978,
      "Ġrequire": 3979,
      "åľ¨ä¸Ģèµ·": 3980,
      "è·µ": 3981,
      "çµ": 3982,
      "æĵįä½ľ": 3983,
      "å°¾": 3984,
      "å¨±ä¹Ĳ": 3985,
      "Ġ|": 3986,
      "çļĦçģ": 3987,
      "Ġproble": 3988,
      "è§Ĥä¼Ĺ": 3989,
      "æ³¨éĩį": 3990,
      "çĥŁ": 3991,
      "é«ĺåħ´": 3992,
      "emic": 3993,
      "æīĢæľīçļĦ": 3994,
      "æµģè¡Į": 3995,
      "Ġmusic": 3996,
      "çĽ®çļĦåľ°": 3997,
      "æĺ¯ä¸Ģéĥ¨": 3998,
      "å¤§å®¶": 3999,
      "Ġrespons": 4000,
      "Ġaffect": 4001,
      "çĶŁåŃĺ": 4002,
      "ä¹Łæľī": 4003,
      "200": 4004,
      "Ġpa": 4005,
      "èĽĭç³ķ": 4006,
      "ä½łéľĢè¦ģ": 4007,
      "çĽ¸å¯¹": 4008,
      "Ġvarious": 4009,
      "ç¿°": 4010,
      "æ¹¿": 4011,
      "çļĦæ¦Ĥ": 4012,
      "èī¯å¥½çļĦ": 4013,
      "iel": 4014,
      "Ġcur": 4015,
      "éĿ¢å¯¹": 4016,
      "åĨĻä¸Ģç¯ĩ": 4017,
      "erm": 4018,
      "ä¹¦ç±į": 4019,
      "é¥®æĸĻ": 4020,
      "come": 4021,
      "æĢ»ä¹ĭ": 4022,
      "èĥģ": 4023,
      "éĢ»": 4024,
      "æĹ¶ä»£": 4025,
      "br": 4026,
      "ä¾Ĩ": 4027,
      "æĪĳè®¤ä¸º": 4028,
      "åĿ¦": 4029,
      "Ġprotect": 4030,
      "ç»ĵè®º": 4031,
      "Ġdem": 4032,
      "å®ľ": 4033,
      "Ġissues": 4034,
      "icult": 4035,
      "åĮ»çĸĹé¢ĨåŁŁ": 4036,
      "Ġunique": 4037,
      "è·ĳæŃ¥": 4038,
      "è®¿": 4039,
      "èĪ¹": 4040,
      "Ġsec": 4041,
      "Ġrelationships": 4042,
      "ilities": 4043,
      "é¾Ħ": 4044,
      "ç¨ĭåº¦": 4045,
      "acy": 4046,
      "åı¤è¯Ĺ": 4047,
      "æľµ": 4048,
      "éĢĤéĩı": 4049,
      "çľŁçļĦ": 4050,
      "çļĦäºĭæĥħ": 4051,
      "åıªæĺ¯": 4052,
      "Ġposs": 4053,
      "ants": 4054,
      "Ġachieve": 4055,
      "è¯ļ": 4056,
      "åŃ¤çĭ¬": 4057,
      "é¢Ħéĺ²": 4058,
      "åħ¶ä¸ŃçļĦ": 4059,
      "æİ¨çĲĨ": 4060,
      "çļĦæĢ»": 4061,
      "æİĮæı¡": 4062,
      "éĤ£äºĽ": 4063,
      "æĬ½åıĸ": 4064,
      "çĶļ": 4065,
      "åĵº": 4066,
      "è¿Ľåħ¥": 4067,
      "å¨ģèĥģ": 4068,
      "æ³¡": 4069,
      "å¥ı": 4070,
      "ertainly": 4071,
      "202": 4072,
      "å¯»æ±Ĥ": 4073,
      "ä¸ļåĬ¡": 4074,
      "åĵ¥": 4075,
      "è°±": 4076,
      "åīįå¾Ģ": 4077,
      "æľīåĵªäºĽ": 4078,
      "Ġimportance": 4079,
      "æ¼Ķåĳĺ": 4080,
      "æµģçķħ": 4081,
      "è§ĦåĪĴ": 4082,
      "è¿Ľè¡ĮåĪĨç±»": 4083,
      "Ġnatural": 4084,
      "å®ŀè·µ": 4085,
      "æĮĩåĩº": 4086,
      "çĭ¬çī¹çļĦ": 4087,
      "iven": 4088,
      "åĳ¨åĽ´": 4089,
      "Ġonly": 4090,
      "æĪĲè¯Ń": 4091,
      "å¹´çļĦ": 4092,
      "Ġseveral": 4093,
      "'m": 4094,
      "è¾£": 4095,
      "Ġtraining": 4096,
      "ç»ıè¿ĩ": 4097,
      "Ġshe": 4098,
      "æ¸©æļĸ": 4099,
      "Ġthough": 4100,
      "ä½ĵèĤ²": 4101,
      "çıł": 4102,
      "éĩįçĤ¹": 4103,
      "çİĽä¸½": 4104,
      "Ġgra": 4105,
      "æŃ§è§Ĩ": 4106,
      "å£°éŁ³": 4107,
      "ä¸Ńæĸĩ": 4108,
      "åŃ¸": 4109,
      "æ¦Ĥå¿µ": 4110,
      "Ġdist": 4111,
      "sis": 4112,
      "ä»ĸåľ¨": 4113,
      "éĽ¶": 4114,
      "æ°§åĮĸ": 4115,
      "orpor": 4116,
      "Ġoverall": 4117,
      "Ġareas": 4118,
      "å¼ĢæĶ¾": 4119,
      "åįģåĪĨ": 4120,
      "å¾Ĺåĩº": 4121,
      "éĢ»è¾ĳ": 4122,
      "ç²¾ç¥ŀ": 4123,
      "Ġlives": 4124,
      "Ġla": 4125,
      "Ġtoget": 4126,
      "Ġtogether": 4127,
      "èķī": 4128,
      "æĹ¨åľ¨": 4129,
      "ĠHe": 4130,
      "æ¶²": 4131,
      "Ġequ": 4132,
      "Ġsit": 4133,
      "åĵªéĩĮ": 4134,
      "çļĦçŁŃ": 4135,
      "çº¦ç¿°": 4136,
      "æ³°": 4137,
      "çī©ä½ĵ": 4138,
      "çĹħæ¯Ĵ": 4139,
      "é¸¡èĽĭ": 4140,
      "è¿ŀæİ¥": 4141,
      "å¦Ļ": 4142,
      "èĩªåĬ¨åĮĸ": 4143,
      "å¤ªéĺ³ç³»": 4144,
      "Ġdifficult": 4145,
      "è§ĦåĪĻ": 4146,
      "Ġtips": 4147,
      "æľĢä½³": 4148,
      "Ġneeds": 4149,
      "èĻļæĭŁ": 4150,
      "ä½¿åħ¶æĽ´": 4151,
      "éĥ½ä¼ļ": 4152,
      "Ġquest": 4153,
      "éķ¿åº¦": 4154,
      "çļĦæĥ³": 4155,
      "æĢĢ": 4156,
      "ä¸Ģæ¬¾": 4157,
      "Ġmot": 4158,
      "ather": 4159,
      "Ġhist": 4160,
      "mer": 4161,
      "Ġbeh": 4162,
      "èĩªåĬ¨é©¾é©¶": 4163,
      "è´Ŀ": 4164,
      "ss": 4165,
      "Ġsure": 4166,
      "Ġeffects": 4167,
      "çļĦæĻ¯": 4168,
      "æıĲåıĸåĩº": 4169,
      "èº«ä½ĵåģ¥åº·": 4170,
      "olution": 4171,
      "ä¸ĬéĿ¢": 4172,
      "è½®": 4173,
      "Ġtyp": 4174,
      "çĲĨè®º": 4175,
      "æķ¬": 4176,
      "Ġnum": 4177,
      "èľľ": 4178,
      "Ġend": 4179,
      "åĩĢ": 4180,
      "éģµ": 4181,
      "åĢ¾": 4182,
      "å´": 4183,
      "èĵĿèī²": 4184,
      "é¦Ļèķī": 4185,
      "çļĦé£İéĻ©": 4186,
      "äº¡": 4187,
      "ä¹¡": 4188,
      "Ġdiscuss": 4189,
      "æĸ°é²ľ": 4190,
      "æµ·æ»©": 4191,
      "åħ³éĶ®ä¿¡æģ¯": 4192,
      "åĲĦä¸ª": 4193,
      "æĪĲä¸ºäºĨ": 4194,
      "æľīæīĢ": 4195,
      "Ġfirst": 4196,
      "èĭ±åĽ½": 4197,
      "è¡¥": 4198,
      "ç¾İå¥½çļĦ": 4199,
      "èĦ±": 4200,
      "ä¼ĺçĤ¹": 4201,
      "reen": 4202,
      "æ··åĲĪ": 4203,
      "åĵºä¹³": 4204,
      "çĤİ": 4205,
      "åĪĨä¸º": 4206,
      "ope": 4207,
      "ï¼īï¼Į": 4208,
      "æĺ¾ç¤º": 4209,
      "Ġunderstanding": 4210,
      "è¿Ļæ¬¾": 4211,
      "æĶ¾åľ¨": 4212,
      "Ġinfl": 4213,
      "Ġhuman": 4214,
      "èĤ¯": 4215,
      "å¥³åŃ©": 4216,
      "æĬ±æŃī": 4217,
      "ank": 4218,
      "Ġdon": 4219,
      "åĨĻä¸Ģä¸ª": 4220,
      "çĶ³": 4221,
      "å·¥ä¸ļ": 4222,
      "è´¥": 4223,
      "ä¸»äºº": 4224,
      "ç§¯æŀģçļĦ": 4225,
      "éº¼": 4226,
      "çŁŃæĸĩ": 4227,
      "XX": 4228,
      "éĹŃ": 4229,
      "æĺ¯ä¸ŃåĽ½": 4230,
      "åį·": 4231,
      "ically": 4232,
      "Ġbefore": 4233,
      "é«ĺåº¦": 4234,
      "èªī": 4235,
      "çļĦæ´»åĬ¨": 4236,
      "ins": 4237,
      "ggest": 4238,
      "å°ıåŃ¦": 4239,
      "ination": 4240,
      "Ġyears": 4241,
      "çĬ¬": 4242,
      "Ġbra": 4243,
      "æ²ŁéĢļ": 4244,
      "Ġlocal": 4245,
      "'re": 4246,
      "æĸĩåĮĸåĴĮ": 4247,
      "è¿¹": 4248,
      "ãĢĭãĢģ": 4249,
      "æĩĤ": 4250,
      "ç¾İä¸½çļĦ": 4251,
      "æ¡Į": 4252,
      "aterial": 4253,
      "imes": 4254,
      "less": 4255,
      "èĩªè¡Įè½¦": 4256,
      "æĺ¯ä¸Ģä½į": 4257,
      "åħ«": 4258,
      "Ġtransport": 4259,
      "Ġsources": 4260,
      "åľ£": 4261,
      "Ġhapp": 4262,
      "æ¾": 4263,
      "éĿ¢åĮħ": 4264,
      "Ġkey": 4265,
      "Ġreducing": 4266,
      "Ġgive": 4267,
      "å«": 4268,
      "ç®Ģè¦ģ": 4269,
      "æĪĳåľ¨": 4270,
      "è¯ŃéŁ³è¯ĨåĪ«": 4271,
      "éĥģ": 4272,
      "ember": 4273,
      "çļĦæııè¿°": 4274,
      "éķĩ": 4275,
      "ç¥ŀç»ıç½ĳç»ľ": 4276,
      "ript": 4277,
      "çļĦæīĭ": 4278,
      "Ġtas": 4279,
      "Ġmom": 4280,
      "Ġincrease": 4281,
      "æĭį": 4282,
      "uch": 4283,
      "ling": 4284,
      "Ġtry": 4285,
      "éĻĪè¿°": 4286,
      "ä¹ĭåĲİ": 4287,
      "æłĩåĩĨ": 4288,
      "å¹³çŃī": 4289,
      "Ġprovides": 4290,
      "Ġmin": 4291,
      "æĹ¶æľŁ": 4292,
      "çļĦçŃĶæ¡Ī": 4293,
      "Ġlist": 4294,
      "ä¹ı": 4295,
      "èİĵ": 4296,
      "è§¦": 4297,
      "åįļçī©": 4298,
      "verall": 4299,
      "æĸĩç«łä¸ŃæıĲåıĸ": 4300,
      "èĭĹ": 4301,
      "åģ¥åº·é¥®é£Ł": 4302,
      "Ġkeep": 4303,
      "ructure": 4304,
      "æĸĩæľ¬åĨħå®¹": 4305,
      "urity": 4306,
      "Ġaud": 4307,
      "urn": 4308,
      "Ġbody": 4309,
      "å»¶": 4310,
      "tern": 4311,
      "éŃĶæ³ķ": 4312,
      "åºĨ": 4313,
      "Ġtraditional": 4314,
      "æĹ¶éĹ´åĴĮ": 4315,
      "Ġi": 4316,
      "ç¤¾åĮº": 4317,
      "çļĦæĭ": 4318,
      "æŁĲä¸ª": 4319,
      "Ġsuggest": 4320,
      "Certainly": 4321,
      "ç¬¬ä¸Ģ": 4322,
      "Ġinteract": 4323,
      "Ġhere": 4324,
      "ä»£çłģ": 4325,
      "å±ķçİ°": 4326,
      "æķ°æį®éĽĨ": 4327,
      "åĳ¨æľ«": 4328,
      "oid": 4329,
      "è½¬æį¢": 4330,
      "è¯¾ç¨ĭ": 4331,
      "nce": 4332,
      "ommend": 4333,
      "èĢ³": 4334,
      "è³": 4335,
      "Ġsociety": 4336,
      "æī¾åĩº": 4337,
      "å·¦åı³": 4338,
      "Ġpass": 4339,
      "ted": 4340,
      "éª¨": 4341,
      "ories": 4342,
      "é¢Ĩå¯¼": 4343,
      "PT": 4344,
      "day": 4345,
      "Ġstep": 4346,
      "Ġeffort": 4347,
      "å¾ĹåĪ°äºĨ": 4348,
      "ç§°ä¸º": 4349,
      "Ġext": 4350,
      "åīĤ": 4351,
      "åı¤ä»£": 4352,
      "ç®ĢåįķçļĦ": 4353,
      "Ġleading": 4354,
      "åĬĽçļĦ": 4355,
      "çļĦæĢ§": 4356,
      "å®Ĺ": 4357,
      "æľŁéĹ´": 4358,
      "Ġbi": 4359,
      "çļĦæİ¨": 4360,
      "ied": 4361,
      "æ¬£èµı": 4362,
      "åĨįçĶŁ": 4363,
      "Ġeffic": 4364,
      "åĪĨéħį": 4365,
      "åĨ¥": 4366,
      "ä¼ĳæģ¯": 4367,
      "æĦŁåıĹåĪ°": 4368,
      "è¯Ńè¨Ģæ¨¡åŀĭ": 4369,
      "Ġless": 4370,
      "çļĦæķĪ": 4371,
      "aut": 4372,
      "els": 4373,
      "çĴ": 4374,
      "çļĦæĮĳæĪĺ": 4375,
      "ularly": 4376,
      "è®²è¿°äºĨ": 4377,
      "rior": 4378,
      "äº¿": 4379,
      "æĹ§": 4380,
      "æ¸ħæ´ģ": 4381,
      "Ġmaterial": 4382,
      "vers": 4383,
      "åĵģè´¨": 4384,
      "æħ§": 4385,
      "åĮºåĿĹ": 4386,
      "çĪ±å¥½": 4387,
      "Ġmaintain": 4388,
      "å£®": 4389,
      "ä»Ģéº¼": 4390,
      "Ġdecis": 4391,
      "çĶļèĩ³": 4392,
      "æĸĩæľ¬ä¸ŃçļĦ": 4393,
      "èĽĭçĻ½è´¨": 4394,
      "å®ĥåı¯ä»¥": 4395,
      "æĺŁæľŁ": 4396,
      "è½½": 4397,
      "å®ģ": 4398,
      "çģ¾å®³": 4399,
      "Ġfinan": 4400,
      "Ġve": 4401,
      "åĨĴéĻ©": 4402,
      "new": 4403,
      "Ġstrong": 4404,
      "èĥ½åĲ¦": 4405,
      "ä¸ĥ": 4406,
      "Ġlim": 4407,
      "Ġcommunities": 4408,
      "Ġhealthy": 4409,
      "ients": 4410,
      "ªæĺİ": 4411,
      "ibility": 4412,
      "Ġidentify": 4413,
      "å¯¿": 4414,
      "åłĤ": 4415,
      "Sure": 4416,
      "Ġfeed": 4417,
      "è¡¨æ¼Ķ": 4418,
      "åıĬæĹ¶": 4419,
      "æĪ¿éĹ´": 4420,
      "å½Ĵç±»": 4421,
      "Ġmon": 4422,
      "åĮĢ": 4423,
      "pend": 4424,
      "å¤§æ°Ķ": 4425,
      "æĸĩç«łä¸ŃæıĲåıĸåĩº": 4426,
      "è¿Ļæľ¬ä¹¦": 4427,
      "çĭ¬ç«ĭ": 4428,
      "çĻĮ": 4429,
      "åľ¨ä¸Ģä¸ª": 4430,
      "Ġable": 4431,
      "ately": 4432,
      "æĹĭ": 4433,
      "oss": 4434,
      "ãĢĭãĢģãĢĬ": 4435,
      "âĢĶâĢĶ": 4436,
      "å°¤åħ¶": 4437,
      "é¼ł": 4438,
      "åħ·ä½ĵçļĦ": 4439,
      "çĶŁæ´»æĸ¹å¼ı": 4440,
      "omp": 4441,
      "æĢĿç»´": 4442,
      "Ġsystems": 4443,
      "æĿĢ": 4444,
      "Ġproducts": 4445,
      "ç§įæĹı": 4446,
      "æĥħåĨµä¸ĭ": 4447,
      "èĤª": 4448,
      "çľĭçĶµå½±": 4449,
      "000": 4450,
      "Ġartic": 4451,
      "èĦĤèĤª": 4452,
      "é»ĺ": 4453,
      "Ġsom": 4454,
      "èĮĦ": 4455,
      "Ġlit": 4456,
      "çĽ¸åºĶ": 4457,
      "å¼ºè°ĥäºĨ": 4458,
      "æ®Ĭ": 4459,
      "«èĲ¨": 4460,
      "ĠUn": 4461,
      "é¢Ĺç³ĸæŀľ": 4462,
      "éĻ¤äºĨ": 4463,
      "åĵºä¹³åĬ¨çī©": 4464,
      "æľĢå¥½çļĦ": 4465,
      "å®¾": 4466,
      "å®ĥæĺ¯": 4467,
      "Ġtowards": 4468,
      "Ġdr": 4469,
      "æķı": 4470,
      "being": 4471,
      "å¹¶æıĲä¾Ľ": 4472,
      "å½¢å®¹è¯į": 4473,
      "è®¤è¯Ĩ": 4474,
      "Ġservice": 4475,
      "çļĦåİŁåĽł": 4476,
      "è¿ª": 4477,
      "è¯º": 4478,
      "é»ĳæ´ŀ": 4479,
      "asing": 4480,
      "å®¤æ°Ķä½ĵ": 4481,
      "Ġdep": 4482,
      "æ¦": 4483,
      "çĶŁæĪĲåķĨåĵģ": 4484,
      "Ġjour": 4485,
      "äºĭçī©": 4486,
      "ression": 4487,
      "æĭĮ": 4488,
      "çļĦèĥ½åĬĽ": 4489,
      "work": 4490,
      "èĳ±": 4491,
      "èļ": 4492,
      "åľ¨æľªæĿ¥": 4493,
      "ç§įç±»": 4494,
      "äºĴåĬ¨": 4495,
      "æıĲä¾ĽçļĦ": 4496,
      "æĺĵäºİ": 4497,
      "åĢŁ": 4498,
      "fter": 4499,
      "å¼ºçĥĪ": 4500,
      "ization": 4501,
      "æ¶Īè´¹èĢħ": 4502,
      "ä¼ĳéĹ²": 4503,
      "Ġrecommend": 4504,
      "å½¼": 4505,
      "lish": 4506,
      "ash": 4507,
      "æ»¡æĦı": 4508,
      "Ġculture": 4509,
      "ohn": 4510,
      "Ġemotional": 4511,
      "äºĨä¸Ģç§į": 4512,
      "æľĢæĸ°": 4513,
      "Ġdown": 4514,
      "å¼¹": 4515,
      "Ġworking": 4516,
      "çļĦç©": 4517,
      "Ġhelped": 4518,
      "Ġtreat": 4519,
      "èĦı": 4520,
      "Ġpresent": 4521,
      "ä½ĨæĪĳ": 4522,
      "Ġsaf": 4523,
      "éĢĢ": 4524,
      "æľĥ": 4525,
      "ç¶": 4526,
      "Ġtw": 4527,
      "æİ¢è®¨äºĨ": 4528,
      "ä¹Ŀ": 4529,
      "è°ĵ": 4530,
      "çļĦä¸»è¦ģè§ĤçĤ¹": 4531,
      "è¹": 4532,
      "Ġreport": 4533,
      "æľīè¶£çļĦ": 4534,
      "äº¤æĺĵ": 4535,
      "æ¼Ĥ": 4536,
      "æľĢå¥½": 4537,
      "æĹ¢": 4538,
      "å¸Ŀ": 4539,
      "åįļçī©é¦Ĩ": 4540,
      "åĴ¨": 4541,
      "æ¶Īæŀģ": 4542,
      "Ġwithout": 4543,
      "å·Ŀ": 4544,
      "è¿ĺéľĢè¦ģ": 4545,
      "èĢĹ": 4546,
      "Ġimm": 4547,
      "å¹´é¾Ħ": 4548,
      "æ¯ıä¸ªäººéĥ½": 4549,
      "itation": 4550,
      "å®Įæķ´": 4551,
      "çĸ«æĥħ": 4552,
      "ention": 4553,
      "æİ¥ä¸ĭæĿ¥": 4554,
      "Ġchildren": 4555,
      "éĢĴ": 4556,
      "è´ŁéĿ¢å½±åĵį": 4557,
      "Ġtechnolog": 4558,
      "å¤ļçļĦ": 4559,
      "è¾ħ": 4560,
      "çļĦç³ĸ": 4561,
      "Ġhome": 4562,
      "è¿ħ": 4563,
      "å®£ä¼ł": 4564,
      ").": 4565,
      "è§Ĩé¢ĳ": 4566,
      "çĶŁéķ¿": 4567,
      "è®¨è®ºäºĨ": 4568,
      "çĪ¶": 4569,
      "é¡¶": 4570,
      "Ġhelps": 4571,
      "èº«å¿ĥ": 4572,
      "çªĹ": 4573,
      "ä½łå¥½": 4574,
      "Ġpractice": 4575,
      "çļĦç¬¬": 4576,
      "ä¹Łå¾Ī": 4577,
      "æĢ§èĥ½": 4578,
      "åħħåĪĨ": 4579,
      "èģĬå¤©": 4580,
      "Ġtaking": 4581,
      "æ³ķåĽ½": 4582,
      "çľĭèµ·æĿ¥": 4583,
      "çĵľ": 4584,
      "âĢ¦": 4585,
      "è¯Ńæ³ķéĶĻè¯¯": 4586,
      "Ġclimate": 4587,
      "Ġcontent": 4588,
      "åĴ¨è¯¢": 4589,
      "ars": 4590,
      "leep": 4591,
      "ç»ķ": 4592,
      "è§Ī": 4593,
      "ç¿»è¯ĳæĪĲ": 4594,
      "æķ¢": 4595,
      "æĺŁçĲĥ": 4596,
      "äºĨè®¸å¤ļ": 4597,
      "éķ¿æľŁ": 4598,
      "ä¸Ĭä¸ĭæĸĩ": 4599,
      "Ġbreak": 4600,
      "çļĦçİ¯å¢ĥ": 4601,
      "åĲ¬èµ·æĿ¥": 4602,
      "Ġstand": 4603,
      "ĠRe": 4604,
      "èģªæĺİ": 4605,
      "ä¸Ģæľ¬": 4606,
      "æĥł": 4607,
      "æĢ»ç»Ł": 4608,
      "éĺ¶": 4609,
      "çĶŁæĹ¥": 4610,
      "Ġful": 4611,
      "ä»¥ä¸ĭæ®µèĲ½": 4612,
      "å¿ĥæĥħ": 4613,
      "Ġconst": 4614,
      "çļĦçĹ": 4615,
      "æĪĳæĹłæ³ķ": 4616,
      "åĵ²": 4617,
      "Ġcreating": 4618,
      "è§Ĥå¯Ł": 4619,
      "çļĦç²": 4620,
      "Ġlevels": 4621,
      "urther": 4622,
      "èī²å½©": 4623,
      "Ġenvironmental": 4624,
      "é½": 4625,
      "çķª": 4626,
      "éº»": 4627,
      "åıĺå¾ĹæĽ´åĬł": 4628,
      "çļĦæīĢ": 4629,
      "idence": 4630,
      "Ġlove": 4631,
      "èį£": 4632,
      "place": 4633,
      "ä¼łæĴŃ": 4634,
      "å¹´æĿ¥": 4635,
      "Ġthink": 4636,
      "è§£åĨ³éĹ®é¢ĺ": 4637,
      "Ġfriends": 4638,
      "Ġmanagement": 4639,
      "çļĦçŁ¥": 4640,
      "åĮºåĿĹéĵ¾": 4641,
      "æİ¨åĩº": 4642,
      "çļĦæ¯Ķ": 4643,
      "igital": 4644,
      "ï¼ŁâĢĿ": 4645,
      "ç§»åĬ¨": 4646,
      "ooking": 4647,
      "æĺİæĺ¾": 4648,
      "éĿŀå¸¸å¥½": 4649,
      "çļĦæķ°éĩı": 4650,
      "ç»´æĬ¤": 4651,
      "éĻĨ": 4652,
      "Ġwords": 4653,
      "Ġengage": 4654,
      "SS": 4655,
      "Ġelect": 4656,
      "Ġcompanies": 4657,
      "çľĭçľĭ": 4658,
      "read": 4659,
      "é¢ĦæĬ¥": 4660,
      "åĳĪçİ°": 4661,
      "Ġdesc": 4662,
      "èī¾": 4663,
      "çļĦç¥": 4664,
      "fort": 4665,
      "Ġsound": 4666,
      "ists": 4667,
      "å¹¶æ²¡æľī": 4668,
      "çº¯": 4669,
      "bers": 4670,
      "æĪĳéľĢè¦ģ": 4671,
      "éķľ": 4672,
      "Ġarg": 4673,
      "å¯¹çİ¯å¢ĥ": 4674,
      "å·¨å¤§": 4675,
      "æĻºèĥ½å®¶å±ħ": 4676,
      "çĶ²": 4677,
      "ä½łä»¬": 4678,
      "Ġmuch": 4679,
      "å®¡": 4680,
      "Ġrange": 4681,
      "Ġstyle": 4682,
      "çĸ²": 4683,
      "çĺ": 4684,
      "çĽ´åĪ°": 4685,
      "ert": 4686,
      "åį±éĻ©": 4687,
      "æĳĦåħ¥": 4688,
      "éĽ·": 4689,
      "çªģçĦ¶": 4690,
      "ï¼ļãĢĬ": 4691,
      "Ġcontro": 4692,
      "ĠæıĲåıĸ": 4693,
      "çļĦè¡Įä¸º": 4694,
      "åĲĮä¹īè¯į": 4695,
      "èī¯å¥½": 4696,
      "Ġconcer": 4697,
      "Ġmeet": 4698,
      "çļĦæ±": 4699,
      "è¸ª": 4700,
      "æĭ¼åĨĻ": 4701,
      "æľĢåĸľæ¬¢çļĦ": 4702,
      "è¿ĩåº¦": 4703,
      "Ġavail": 4704,
      "nov": 4705,
      "åĴĮç¤¾ä¼ļ": 4706,
      "ç¾İåħĥ": 4707,
      "lev": 4708,
      "Ġbal": 4709,
      "Ġanx": 4710,
      "åĮºåŁŁ": 4711,
      "Ġinflu": 4712,
      "Ġacad": 4713,
      "å¡«": 4714,
      "è¿Ļç¯ĩæĸĩç«łä¸Ń": 4715,
      "ç¡¬": 4716,
      "è§Ħå¾ĭ": 4717,
      "æĤ¨éľĢè¦ģ": 4718,
      "Ġyourself": 4719,
      "èĻ«": 4720,
      "éĵ¶è¡Į": 4721,
      "Ġsuccessful": 4722,
      "Ġstru": 4723,
      "ction": 4724,
      "Ġfinancial": 4725,
      "çļĦéĢīæĭ©": 4726,
      "æŃ¦": 4727,
      "vern": 4728,
      "çī¹æ®Ĭ": 4729,
      "åĨ¥æĥ³": 4730,
      "Ġmat": 4731,
      "æł·çļĦ": 4732,
      "å±ĭ": 4733,
      "éĴ¢": 4734,
      "åĶĲ": 4735,
      "Ġtext": 4736,
      "åĽŀå®¶": 4737,
      "çļĦçĥŃ": 4738,
      "æį·": 4739,
      "Ġprior": 4740,
      "çĽ®çļĦ": 4741,
      "ĠTe": 4742,
      "Ġcollabor": 4743,
      "æĶ¯ä»ĺ": 4744,
      "éļıæĹ¶": 4745,
      "çļĦçĿ": 4746,
      "çļĦç¼": 4747,
      "ä¸°å¯ĮçļĦ": 4748,
      "å°ıçĭĹ": 4749,
      "çĶ°": 4750,
      "Ġsent": 4751,
      "åīįæĻ¯": 4752,
      "çĵ¶": 4753,
      "ĠCon": 4754,
      "mm": 4755,
      "åı¯çĪ±": 4756,
      "Ġfeedback": 4757,
      "ãĢĭãĢĤ": 4758,
      "Ġthings": 4759,
      "èħ¿": 4760,
      "å»ºè®¾": 4761,
      "Ġconsider": 4762,
      "çĶŁæĪĲä¸Ģæ®µ": 4763,
      "äººæ°ĳ": 4764,
      "çĶ¨çļĦ": 4765,
      "Ġcome": 4766,
      "Ġdev": 4767,
      "å¤§èĩªçĦ¶": 4768,
      "Ġstrategies": 4769,
      "åĽŀæĶ¶": 4770,
      "ior": 4771,
      "Ġtoo": 4772,
      "ä¸ĭåįĪ": 4773,
      "åı¹": 4774,
      "ä»ĸä»¬çļĦå¯¹è¯ĿåĨħå®¹": 4775,
      "Ġtools": 4776,
      "å¹ķ": 4777,
      "raph": 4778,
      "çļĦæ¸©": 4779,
      "åĦ¿ç«¥": 4780,
      "æµ®": 4781,
      "æ·¡": 4782,
      "åŃĲçļĦ": 4783,
      "éĩįå¤į": 4784,
      "åĪĨæĪĲ": 4785,
      "éĹª": 4786,
      "ä¸ºæĪĳ": 4787,
      "itude": 4788,
      "Ġrest": 4789,
      "èĦ¸": 4790,
      "Ġgovern": 4791,
      "æĭĽ": 4792,
      "åĪ°è¾¾": 4793,
      "11": 4794,
      "åŁºåĽł": 4795,
      "any": 4796,
      "å¦ĤæŃ¤": 4797,
      "ee": 4798,
      "åĪĽå»ºä¸Ģä¸ª": 4799,
      "æĸ¼": 4800,
      "ç¾İå¥½": 4801,
      "Ġmotiv": 4802,
      "æģ©": 4803,
      "æĦīå¿«": 4804,
      "æľīæ²¡æľī": 4805,
      "åĵģç§į": 4806,
      "æĶ¾åħ¥": 4807,
      "çļĦç¨": 4808,
      "çļĦæ¸¸": 4809,
      "åı¯åĨįçĶŁ": 4810,
      "æ´Ľ": 4811,
      "æľīè®¸å¤ļ": 4812,
      "Ġorganizations": 4813,
      "å¡ŀ": 4814,
      "GPT": 4815,
      "çĶµåŃĲéĤ®ä»¶": 4816,
      "ç¯®çĲĥ": 4817,
      "æ¶µ": 4818,
      "Ġincreased": 4819,
      "ç©¿çĿĢ": 4820,
      "æĪĳä»¬å°Ĩ": 4821,
      "è¿Ŀ": 4822,
      "åľ¨äºİ": 4823,
      "Ġenh": 4824,
      "çī¹èī²": 4825,
      "æīĺ": 4826,
      "çļĦä¸Ģç§į": 4827,
      "ç§ĭå¤©": 4828,
      "çļĦæĥ³æ³ķ": 4829,
      "èµ¢": 4830,
      "çļĦæ¼": 4831,
      "çĶŁç´ł": 4832,
      "è¢«è®¤ä¸º": 4833,
      "ĽåĽ´": 4834,
      "æľĢå¤§": 4835,
      "ä¿ĿæĬ¤çİ¯å¢ĥ": 4836,
      "As": 4837,
      "éŁ©": 4838,
      "èĥŀ": 4839,
      "Ġeconomic": 4840,
      "fact": 4841,
      "è¿Ļé¡¹": 4842,
      "duction": 4843,
      "åĵģå°Ŀ": 4844,
      "çļĦæķĻ": 4845,
      "Ġmove": 4846,
      "dition": 4847,
      "åł¡": 4848,
      "Ġreview": 4849,
      "Ġpaper": 4850,
      "çļĦæīĢæľī": 4851,
      "çļĦçĿ¡": 4852,
      "Ġapproach": 4853,
      "é£ŁæĿĲ": 4854,
      "å¹³éĿ¢": 4855,
      "äºĪ": 4856,
      "Ġæł¹æį®ç»Ļå®ļçļĦ": 4857,
      "Ġdetails": 4858,
      "æķ°åŃ¦é¢ĺ": 4859,
      "éļ¾ä»¥": 4860,
      "éĤ£ä¸ª": 4861,
      "Ġperformance": 4862,
      "çī©ç§į": 4863,
      "aring": 4864,
      "éģĩåĪ°": 4865,
      "Ġret": 4866,
      "æııè¿°äºĨ": 4867,
      "Ġfiel": 4868,
      "åįł": 4869,
      "é£İæĻ¯": 4870,
      "æĪĲå°±": 4871,
      "çļĦéŁ³ä¹Ĳ": 4872,
      "æĻ´": 4873,
      "Ġstrugg": 4874,
      "è®°å¿Ĩ": 4875,
      "æĪĲåĪĨ": 4876,
      "åı¯ä»¥è®©": 4877,
      "16": 4878,
      "çļĦæŃĮ": 4879,
      "çļĦç½": 4880,
      "ä¸ĢæĿ¡": 4881,
      "åįĸ": 4882,
      "çĿĽ": 4883,
      "Ġear": 4884,
      "Ġç¼ĸè¾ĳ": 4885,
      "å°º": 4886,
      "Ġsoft": 4887,
      "è§Ħæ¨¡": 4888,
      "æª": 4889,
      "æī¹": 4890,
      "çļĦæĦŁè§ī": 4891,
      "åĲ«æľī": 4892,
      "å¸¸è§ģçļĦ": 4893,
      "çĶŁæĪĲåķĨåĵģæĸĩæ¡Ī": 4894,
      "Ġmust": 4895,
      "Ġpopular": 4896,
      "è¿Ļé¦ĸ": 4897,
      "å½Ĵç±»ä¸º": 4898,
      "æĿ¥æºĲ": 4899,
      "çĪĨ": 4900,
      "å»ºè®®æĤ¨": 4901,
      "ledge": 4902,
      "reng": 4903,
      "éĢĥ": 4904,
      "ä»Ķ": 4905,
      "ä¸Ģé¡¹": 4906,
      "Ġsens": 4907,
      "Ġappre": 4908,
      "è¿ĺåī©ä¸ĭ": 4909,
      "å°½åı¯èĥ½": 4910,
      "Ġtransportation": 4911,
      "Ġconsum": 4912,
      "ä¸»è¯Ń": 4913,
      "çļĦæłĩé¢ĺ": 4914,
      "çļĦä½¿çĶ¨": 4915,
      "iques": 4916,
      "æĹ©é¤Ĳ": 4917,
      "é£ŀè¡Į": 4918,
      "nces": 4919,
      "çĹĩçĬ¶": 4920,
      "è¿Ľè¡ĮäºĨ": 4921,
      "çł´åĿı": 4922,
      "çļĦä¸»è¦ģåĨħå®¹": 4923,
      "ç¬¬ä¸ī": 4924,
      "åĨľä¸ļ": 4925,
      "alk": 4926,
      "åŃ¦ä¼ļ": 4927,
      "æ·ĭ": 4928,
      "å½¢è±¡": 4929,
      "æľīæķĪåľ°": 4930,
      "åĲī": 4931,
      "çļĦçĿ¡çľł": 4932,
      "Ġfeatures": 4933,
      "çļĦç¤¾ä¼ļ": 4934,
      "ä¼Ĭ": 4935,
      "irt": 4936,
      "éĢĤå½ĵçļĦ": 4937,
      "Ġability": 4938,
      "ç¬¦åı·": 4939,
      "izing": 4940,
      "ethod": 4941,
      "é¦Ī": 4942,
      "çļĦéľĢæ±Ĥ": 4943,
      "ä»ĸäºº": 4944,
      "io": 4945,
      "çŀ": 4946,
      "èĤº": 4947,
      "Ġrisk": 4948,
      "æŃĮæĽ²": 4949,
      "ĠAn": 4950,
      "Ġplease": 4951,
      "åıĬåħ¶": 4952,
      "æľŁå¾ħ": 4953,
      "ave": 4954,
      "Ġanxiety": 4955,
      "ä¾¿åĪ©": 4956,
      "åį«çĶŁ": 4957,
      "æīĢéľĢ": 4958,
      "Ġacademic": 4959,
      "ĠEx": 4960,
      "25": 4961,
      "Ġcam": 4962,
      "æĪ´": 4963,
      "èĭ¥": 4964,
      "èľĤ": 4965,
      "åī¯": 4966,
      "Ġreflect": 4967,
      "Ġcomplex": 4968,
      "åģĩè®¾": 4969,
      "äºĶä¸ª": 4970,
      "åħħæ»¡äºĨ": 4971,
      "é»Ħèī²": 4972,
      "Ġappreci": 4973,
      "åĴĮæĮĳæĪĺ": 4974,
      "åĬ©æīĭ": 4975,
      "Ġcru": 4976,
      "å¼±": 4977,
      "æĦŁåħ´è¶£": 4978,
      "Ġoffers": 4979,
      "è¯·åĳĬè¯īæĪĳ": 4980,
      "ç¾İçļĦ": 4981,
      "é£ŁçĶ¨": 4982,
      "åĬŀåħ¬": 4983,
      "Ġmean": 4984,
      "æĢķ": 4985,
      "æ±¤å§Ĩ": 4986,
      "pro": 4987,
      "ç´¯": 4988,
      "è¿Ľå±ķ": 4989,
      "æĳĺ": 4990,
      "Ġchanges": 4991,
      "Ġopen": 4992,
      "aily": 4993,
      "Ġanim": 4994,
      "æĪĺäºī": 4995,
      "çļĦç©º": 4996,
      "åİŁçĲĨ": 4997,
      "Ġcharact": 4998,
      "è§Ħå®ļ": 4999,
      "åºĶè¯¥æĺ¯": 5000,
      "çľĭåĪ°äºĨ": 5001,
      "elt": 5002,
      "çļĦæĶ¯": 5003,
      "Ġwrite": 5004,
      "çĿ£": 5005,
      "çļĦæ·": 5006,
      "åĸľå¥½": 5007,
      "çĻ¼": 5008,
      "Ġevents": 5009,
      "hers": 5010,
      "æ¡¥": 5011,
      "æ£Ģæµĭ": 5012,
      "éĿŀå¸¸éĩįè¦ģ": 5013,
      "oring": 5014,
      "é¡¾å®¢": 5015,
      "Ġtre": 5016,
      "çļĦåŁİå¸Ĥ": 5017,
      "Ġpossible": 5018,
      "æĢ§åĪ«": 5019,
      "æ²Ļæ»©": 5020,
      "ances": 5021,
      "æĤ²": 5022,
      "åĲĪéĢĤçļĦ": 5023,
      "ĠName": 5024,
      "åº¦è¿ĩ": 5025,
      "æĻĤ": 5026,
      "å°±ä¸ļ": 5027,
      "åĵ¦": 5028,
      "Ġinsp": 5029,
      "åıĺæĪĲ": 5030,
      "éĩĮçļĦ": 5031,
      "éĩĮæľī": 5032,
      "æģĴ": 5033,
      "çļĦçŁ¥è¯Ĩ": 5034,
      "17": 5035,
      "Ġinnov": 5036,
      "Ġcustomers": 5037,
      "ä¹ĭå¤ĸ": 5038,
      "çļĦæĻºèĥ½": 5039,
      "èĸĦ": 5040,
      "è¯Ŀé¢ĺ": 5041,
      "åĲ¹": 5042,
      "éĿ¢ç§¯": 5043,
      "ĠThere": 5044,
      "ä¸ĵæ³¨": 5045,
      "Ġsleep": 5046,
      "meric": 5047,
      "ç¼ºä¹ı": 5048,
      "å²¸": 5049,
      "Ġideas": 5050,
      "Ġcritical": 5051,
      "åĨħå¿ĥ": 5052,
      "æ¸©å®¤æ°Ķä½ĵ": 5053,
      "é¢Ħç®Ĺ": 5054,
      "æĺ¯æĪĳ": 5055,
      "éĽĦ": 5056,
      "ĠWhen": 5057,
      "ä»°": 5058,
      "åı¯éĿł": 5059,
      "Ġtwo": 5060,
      "Ġplace": 5061,
      "ä¸ĢæĿ¯": 5062,
      "åı¯ä»¥æıĲé«ĺ": 5063,
      "åŁĥ": 5064,
      "up": 5065,
      "æ¡£": 5066,
      "arent": 5067,
      "Ġtest": 5068,
      "æĹ¶åħī": 5069,
      "åĲ¬è¯´": 5070,
      "éĻĦè¿ĳ": 5071,
      "è£ħé¥°": 5072,
      "åĴĮæ²»çĸĹ": 5073,
      "çļĦå®īåħ¨": 5074,
      "ĠWith": 5075,
      "ething": 5076,
      "Ġstreng": 5077,
      "iting": 5078,
      "å·®å¼Ĥ": 5079,
      "çļĦæĮĩ": 5080,
      "é£ĺ": 5081,
      "æ¸¯": 5082,
      "è§£éĩĬä¸Ģä¸ĭ": 5083,
      "ĠYour": 5084,
      "è®¡ç®Ĺæľºç§ĳåŃ¦": 5085,
      "Ġbased": 5086,
      "æĦīæĤ¦": 5087,
      "èĬ±åĽŃ": 5088,
      "èĩªä¿¡": 5089,
      "çĸ«èĭĹ": 5090,
      "è®¾æĸ½": 5091,
      "å§ĵ": 5092,
      "å®ŀæĸ½": 5093,
      "æıĲéĨĴ": 5094,
      "Ġheart": 5095,
      "Ġdaily": 5096,
      "åī§æĥħ": 5097,
      "Ġlow": 5098,
      "æµªè´¹": 5099,
      "to": 5100,
      "ç»ĦåĲĪ": 5101,
      "ãĢģâĢľ": 5102,
      "ĠIf": 5103,
      "åĮĸåĴĮ": 5104,
      "æīĢåľ¨": 5105,
      "èİ«": 5106,
      "joy": 5107,
      "è´¢åĬ¡": 5108,
      "Ġbehav": 5109,
      "Ġlik": 5110,
      "ä¸»è§Ĵ": 5111,
      "NA": 5112,
      "çĶµè¯Ŀ": 5113,
      "How": 5114,
      "ä¸Ģéĥ¨": 5115,
      "ä¸ªæľĭåıĭ": 5116,
      "åĴĮä¸į": 5117,
      "åĿĩåĮĢ": 5118,
      "Ġair": 5119,
      "çĹħäºº": 5120,
      "æĺ¯ä¸ĢåĲį": 5121,
      "Ġdef": 5122,
      "Ġworks": 5123,
      "åĪĨæŀĲåĴĮ": 5124,
      "ä¸ŃæĢ§": 5125,
      "éģĩåĪ°äºĨ": 5126,
      "å¤§æķ°æį®": 5127,
      "èİ·å¾ĹäºĨ": 5128,
      "Ġtechniques": 5129,
      "åıįé¦Ī": 5130,
      "ä¸Ģä¸ªåı¥åŃĲ": 5131,
      "Ġdigital": 5132,
      "çļĦåģ¥åº·": 5133,
      "åİ¨": 5134,
      "éļĶ": 5135,
      "Ġface": 5136,
      "Ġinit": 5137,
      "Ġsomething": 5138,
      "æĪĲåĳĺ": 5139,
      "Ġprevent": 5140,
      "æıĲåĩºäºĨ": 5141,
      "Ġcolle": 5142,
      "éħĴåºĹ": 5143,
      "az": 5144,
      "çĽĴ": 5145,
      "ç»Ĩèĥŀ": 5146,
      "åľ¨è¿Ļ": 5147,
      "åĨįæ¬¡": 5148,
      "çĪ¬": 5149,
      "Ġglob": 5150,
      "olun": 5151,
      "ä¸ĢäºĽåħ³äºİ": 5152,
      "Ġhard": 5153,
      "å¿§": 5154,
      "åĴĮä¸Ģä¸ª": 5155,
      "çĨĬçĮ«": 5156,
      "æ°ı": 5157,
      "åħ¨éĿ¢": 5158,
      "æł¹æį®ä»¥ä¸ĭ": 5159,
      "æĶ¶éĽĨ": 5160,
      "ä»¥ä¸ĭæĺ¯ä¸Ģéģĵ": 5161,
      "çĪ½": 5162,
      "pos": 5163,
      "èĦī": 5164,
      "Ġmethod": 5165,
      "Ġè¯·ä»İ": 5166,
      "Ġsitu": 5167,
      "åĵ²åŃ¦": 5168,
      "Ġcrucial": 5169,
      "å¸¸å¸¸": 5170,
      "ç¦ģ": 5171,
      "èµĸ": 5172,
      "èįīèİĵ": 5173,
      "åı¯åĨįçĶŁèĥ½æºĲ": 5174,
      "Ġpar": 5175,
      "æµªæ¼«": 5176,
      "èĳ¡èĲ": 5177,
      "èĳ¡èĲĦ": 5178,
      "Ġhope": 5179,
      "ä¼Ł": 5180,
      "ä¸įå¤ª": 5181,
      "çĲĨè§£åĴĮ": 5182,
      "è§Ĵåº¦": 5183,
      "åħĶ": 5184,
      "åŃĹæ¯į": 5185,
      "çı¾": 5186,
      "Ġmeas": 5187,
      "Ġcent": 5188,
      "å¤ªéĺ³èĥ½": 5189,
      "çķªèĮĦ": 5190,
      "å°ıåŃ¦æķ°åŃ¦é¢ĺ": 5191,
      "æĪĲç»©": 5192,
      "çļĦè¯Ńè¨Ģ": 5193,
      "ock": 5194,
      "ä¸Ĭè¿°": 5195,
      "ä»¥ä¸ĭæĺ¯ä¸Ģéģĵå°ıåŃ¦æķ°åŃ¦é¢ĺ": 5196,
      "æĬ«èĲ¨": 5197,
      "åº¦åģĩ": 5198,
      "å¯¹äººç±»": 5199,
      "éĺ´": 5200,
      "ream": 5201,
      "Ġdise": 5202,
      "æķ¦": 5203,
      "ç¦»å¼Ģ": 5204,
      "çķĻä¸ĭ": 5205,
      "Ġincorpor": 5206,
      "å®¤åĨħ": 5207,
      "åĴĮåıĳå±ķ": 5208,
      "çĤ¸": 5209,
      "Ġstill": 5210,
      "æ¶īåıĬåĪ°": 5211,
      "æįķ": 5212,
      "çļĦåįķè¯į": 5213,
      "Ġlar": 5214,
      "äººåľ¨": 5215,
      "ined": 5216,
      "Ġstate": 5217,
      "çŃīéĹ®é¢ĺ": 5218,
      "olunte": 5219,
      "Ġhistory": 5220,
      "æĻºæħ§": 5221,
      "èĩªä¸»": 5222,
      "Ġexplore": 5223,
      "éĥ¨éĹ¨": 5224,
      "Ġguid": 5225,
      "ç²Ĵ": 5226,
      "çºłéĶĻ": 5227,
      "çļĦæĦıä¹ī": 5228,
      "ä¼łè¾¾": 5229,
      "ĠBe": 5230,
      "ç»´çĶŁç´ł": 5231,
      "åħįçĸ«": 5232,
      "èĤ¯å®ļ": 5233,
      "çĶ·åŃ©": 5234,
      "¹é¥": 5235,
      "Ġsat": 5236,
      "å¤§å°ı": 5237,
      "åĪĻæĺ¯": 5238,
      "æĽ¾ç»ı": 5239,
      "å½¢çĬ¶": 5240,
      "çī©çĲĨåŃ¦": 5241,
      "å°Ĩå®ĥä»¬": 5242,
      "æĲħ": 5243,
      "èı²": 5244,
      "éģŃ": 5245,
      "rent": 5246,
      "¹é¥ª": 5247,
      "OSS": 5248,
      "Ġeffectively": 5249,
      "è¯¢éĹ®": 5250,
      "åĶ¯": 5251,
      "Ġproper": 5252,
      "æĤł": 5253,
      "ä¹ĭå¤Ħ": 5254,
      "çļĦæł¸": 5255,
      "ery": 5256,
      "æĸ°åŀĭ": 5257,
      "Ġenjoy": 5258,
      "Ġemotions": 5259,
      "æĮĩå®ļ": 5260,
      "60": 5261,
      "æ¬§æ´²": 5262,
      "èĮĥåĽ´åĨħ": 5263,
      "æī°": 5264,
      "çļĦç»ĵæŀľ": 5265,
      "æ¸¸å®¢": 5266,
      "åı¦ä¸Ģä¸ª": 5267,
      "ç´§å¼ł": 5268,
      "ä¼¼ä¹İ": 5269,
      "çļĩ": 5270,
      "air": 5271,
      "Ġmindful": 5272,
      "åĭķ": 5273,
      "èĢĥè¯ķ": 5274,
      "One": 5275,
      "Overall": 5276,
      "Ġavailable": 5277,
      "èıľåĵģ": 5278,
      "åĪºæ¿Ģ": 5279,
      "æŀģç«¯": 5280,
      "ä¹±": 5281,
      "ĠAl": 5282,
      "ĠéĤ£": 5283,
      "è®¾ç½®": 5284,
      "Ġengaging": 5285,
      "çº·": 5286,
      "irtual": 5287,
      "Ġrecogn": 5288,
      "æĸ¹éĿ¢çļĦ": 5289,
      "Ġbeaut": 5290,
      "ditions": 5291,
      "è·¨": 5292,
      "ĠAmeric": 5293,
      "Ġexpress": 5294,
      "çļĦç²¾": 5295,
      "å¿ł": 5296,
      "ouse": 5297,
      "çļĦæ²»": 5298,
      "å°±åı¯ä»¥": 5299,
      "æī¬": 5300,
      "Ġarticle": 5301,
      "åĨħéĥ¨": 5302,
      "è·¯ä¸Ĭ": 5303,
      "ç»¼åĲĪ": 5304,
      "ç´«": 5305,
      "æĺ¥å¤©": 5306,
      "ven": 5307,
      "è¿Ķ": 5308,
      "ences": 5309,
      "å°ıæĺİæīĭ": 5310,
      "Ġcommon": 5311,
      "Ġeasy": 5312,
      "ä¸ŃçļĦåºĶçĶ¨": 5313,
      "çļĦæ¶": 5314,
      "åĩºå¤Ħ": 5315,
      "çļĦç³ĸæŀľ": 5316,
      "âĢĿãĢģâĢľ": 5317,
      "å¹´è½»çļĦ": 5318,
      "åıĤè§Ĥ": 5319,
      "nal": 5320,
      "ä¹Ķ": 5321,
      "æľīä¸Ģ": 5322,
      "ership": 5323,
      "æľīä¸ĢäºĽ": 5324,
      "lex": 5325,
      "åħĪçĶŁ": 5326,
      "å¢Ļ": 5327,
      "è¿ħéĢŁ": 5328,
      "éĿŀå¸¸æĦŁè°¢": 5329,
      "Ġemp": 5330,
      "Ġsol": 5331,
      "Ġplatforms": 5332,
      "Ġanalyz": 5333,
      "ead": 5334,
      "è¿Ļä¸¤ä¸ª": 5335,
      "Ġnecess": 5336,
      "Ġassist": 5337,
      "based": 5338,
      "å°Ĩåľ¨": 5339,
      "14": 5340,
      "çļĦæıĲ": 5341,
      "è´´": 5342,
      "åĪĨåŃĲ": 5343,
      "èĥ¡": 5344,
      "oice": 5345,
      "è¿Ļå®¶é¤Ĳåİħ": 5346,
      "ä¸ĭéĻį": 5347,
      "æł¹æį®ç»Ļå®ļçļĦ": 5348,
      "Ġagain": 5349,
      "èĬĤçº¦": 5350,
      "çģŃ": 5351,
      "åħ´å¥ĭ": 5352,
      "æĻ¨": 5353,
      "ä¸ºæĤ¨æıĲä¾Ľ": 5354,
      "çļĦæ¼Ķ": 5355,
      "çļĦä¸Ģæ®µ": 5356,
      "æľīçĤ¹": 5357,
      "çļĦæŀ": 5358,
      "thing": 5359,
      "éĺ²æŃ¢": 5360,
      "èĤ´": 5361,
      "çĶµæ±ł": 5362,
      "Ġtypes": 5363,
      "è½¦è¾Ĩ": 5364,
      "æĺ¯éĿŀå¸¸": 5365,
      "å¯¹æĸ¹": 5366,
      "å·¨å¤§çļĦ": 5367,
      "ires": 5368,
      "åħ·å¤ĩ": 5369,
      "é¡ºåºı": 5370,
      "ource": 5371,
      "ince": 5372,
      "åĬłä¸Ĭ": 5373,
      "ix": 5374,
      "Ġavoid": 5375,
      "Ġest": 5376,
      "Ġcontrol": 5377,
      "èĩªçĦ¶çģ¾å®³": 5378,
      "ĠOne": 5379,
      "è¦Ĩ": 5380,
      "Ġreally": 5381,
      "Ġtru": 5382,
      "è¢ĸ": 5383,
      "åĮ»éĻ¢": 5384,
      "äº§çĶŁäºĨ": 5385,
      "Ġled": 5386,
      "æĲħæĭĮ": 5387,
      "è¯¥æĸĩæľ¬": 5388,
      "åĵĪåĪ©": 5389,
      "Ġanalysis": 5390,
      "æ¬²": 5391,
      "ç¾Ĭ": 5392,
      "çŃīå¾ħ": 5393,
      "Ġstat": 5394,
      "è¯Ńæ°Ķ": 5395,
      "Ġrece": 5396,
      "å¤§çº¦": 5397,
      "ä¸¾è¡Į": 5398,
      "éĩįè§Ĩ": 5399,
      "å±ħæ°ĳ": 5400,
      "å¾Īæľī": 5401,
      "ross": 5402,
      "ä¼ĺè´¨": 5403,
      "å¼Ģå¤´": 5404,
      "light": 5405,
      "æĥ³æ³ķ": 5406,
      "ĠEn": 5407,
      "Ġaware": 5408,
      "ument": 5409,
      "Ġcountries": 5410,
      "This": 5411,
      "elves": 5412,
      "Ġlight": 5413,
      "æµ·å¹³éĿ¢": 5414,
      "è®¤çŁ¥": 5415,
      "ä¸»è¦ģè§ĤçĤ¹": 5416,
      "çĶŁæĪĲä¸Ģç¯ĩ": 5417,
      "Ġrout": 5418,
      "æľīçļĦ": 5419,
      "Ġcomfort": 5420,
      "Ġtechnologies": 5421,
      "èİī": 5422,
      "Ġsecurity": 5423,
      "Ġparticip": 5424,
      "Ġprogress": 5425,
      "æīĵå¼Ģ": 5426,
      "Ġcourse": 5427,
      "åį³ä½¿": 5428,
      "Ġpromoting": 5429,
      "æĸĩç«łä¸ŃçļĦ": 5430,
      "èĬ³": 5431,
      "èĤĮèĤī": 5432,
      "oci": 5433,
      "åħħè¶³": 5434,
      "John": 5435,
      "èĴ¸": 5436,
      "ew": 5437,
      "çļĦæĬĢèĥ½": 5438,
      "åħµ": 5439,
      "ä¾µ": 5440,
      "Ġmult": 5441,
      "æī®": 5442,
      "æĪĲè¯Ńåĩºå¤Ħ": 5443,
      "æĿ¥è§£åĨ³": 5444,
      "æĹ¶åĪ»": 5445,
      "å°ıæĿİ": 5446,
      "æ½ľåľ¨": 5447,
      "Ġexercise": 5448,
      "çļĦä¸Ģéĥ¨åĪĨ": 5449,
      "Ġmaterials": 5450,
      "åįģå¹´": 5451,
      "Ġcontinue": 5452,
      "çĮİ": 5453,
      "Ġtimes": 5454,
      "æĮĩå¯¼": 5455,
      "ç»Łè®¡": 5456,
      "ĠéĤ£ä¹Ī": 5457,
      "ä¸Ģåľº": 5458,
      "è²Į": 5459,
      "Ġmet": 5460,
      "å¿½": 5461,
      "Ġaudience": 5462,
      "é»ĳèī²": 5463,
      "é¤Ĳé¦Ĩ": 5464,
      "å½±åĥı": 5465,
      "åŃĲéĩĮ": 5466,
      "åį°è±¡": 5467,
      "Ġright": 5468,
      "è¢«å¹¿æ³Ľ": 5469,
      "Ġdid": 5470,
      "Ġapplic": 5471,
      "åĩĨç¡®åľ°": 5472,
      "å½¼æŃ¤": 5473,
      "äººåı£": 5474,
      "åħĭæľį": 5475,
      "åĪĨå¸ĥ": 5476,
      "Ġpost": 5477,
      "Ġtasks": 5478,
      "çİ¯å¢ĥæ±¡æŁĵ": 5479,
      "ugh": 5480,
      "éĽĨä¸Ń": 5481,
      "ä½¿çĶ¨äºĨ": 5482,
      "çľŁå®ŀ": 5483,
      "rast": 5484,
      "è´¦": 5485,
      "Ġletter": 5486,
      "å¿ĥèĦı": 5487,
      "Ġknowledge": 5488,
      "çłĶåıĳ": 5489,
      "çļĦæİªæĸ½": 5490,
      "selves": 5491,
      "Ġperspect": 5492,
      "èĩªèº«": 5493,
      "å¤ľæĻļ": 5494,
      "Ġpolicies": 5495,
      "Ġencourage": 5496,
      "æİĴåºı": 5497,
      "Ġtravel": 5498,
      "atch": 5499,
      "å¤ļæķ°": 5500,
      "Ġnet": 5501,
      "çļĦè®¾è®¡": 5502,
      "Ġaccount": 5503,
      "Ġsym": 5504,
      "çĶµå½±çļĦ": 5505,
      "è¾ħåĬ©": 5506,
      "ä¿¡ä»»": 5507,
      "view": 5508,
      "åĸ»": 5509,
      "æİĪ": 5510,
      "Ġallows": 5511,
      "Ġmoment": 5512,
      "åĨ¬åŃ£": 5513,
      "Ġpriv": 5514,
      "èĢĮæĺ¯": 5515,
      "çļĦåŁºç¡Ģ": 5516,
      "ually": 5517,
      "Ġcaus": 5518,
      "Ġhig": 5519,
      "Ġrenew": 5520,
      "ãĢĭï¼Į": 5521,
      "Ġmight": 5522,
      "for": 5523,
      "çļĦè¿ĲåĬ¨": 5524,
      "Ġaction": 5525,
      "Ġ19": 5526,
      "äºĨå¾Īå¤ļ": 5527,
      "Ġser": 5528,
      "ç¨İ": 5529,
      "æĴ°": 5530,
      "åħ¬éĩĮ": 5531,
      "åŁ¹åħ»": 5532,
      "æľĢå¤§çļĦ": 5533,
      "è¶ħå¸Ĥ": 5534,
      "nds": 5535,
      "çº¤": 5536,
      "å¿ĥçĲĨåģ¥åº·": 5537,
      "Ġoptions": 5538,
      "æľĢé«ĺ": 5539,
      "Ġstory": 5540,
      "ç®Ģæ´ģæĺİäºĨ": 5541,
      "atitude": 5542,
      "Ġpolit": 5543,
      "Ġfund": 5544,
      "Ġkind": 5545,
      "æĽ´å¿«": 5546,
      "èĮ¨": 5547,
      "çĲ´": 5548,
      "æĬ½åıĸåĩº": 5549,
      "é¡µ": 5550,
      "åı¤èĢģ": 5551,
      "Ġpriorit": 5552,
      "å®£å¸ĥ": 5553,
      "Ġbook": 5554,
      "éĢ²": 5555,
      "æĪĳæĺ¯": 5556,
      "ä½ľä¸ºä¸Ģä¸ª": 5557,
      "äººä»¬çļĦ": 5558,
      "æĶ»åĩ»": 5559,
      "ç¢İ": 5560,
      "å¤§èĦĳ": 5561,
      "ä¸¤ç§į": 5562,
      "çļĦå°ıè¯´": 5563,
      "çļĦæ²»çĸĹ": 5564,
      "æĸĩæĺİ": 5565,
      "çĽ¾": 5566,
      "åĴª": 5567,
      "çļĦæł¸å¿ĥ": 5568,
      "Ġquestions": 5569,
      "æĤ¬": 5570,
      "äººä½ĵ": 5571,
      "å¯Ĩçłģ": 5572,
      "ç£¨": 5573,
      "çļĦä»»åĬ¡": 5574,
      "åĬ¨åĬĽ": 5575,
      "Ġdeep": 5576,
      "ĠĠĠ": 5577,
      "è®¡ç®Ĺæľºè§Ĩè§ī": 5578,
      "çļĦæ¦Ĥå¿µ": 5579,
      "éĺ»": 5580,
      "è¿Ļç¯ĩæĸĩç«łä¸ŃæıĲåıĸåĩº": 5581,
      "èį·": 5582,
      "æľĢåĸľæ¬¢": 5583,
      "rate": 5584,
      "Ġsoftware": 5585,
      "åĽ¾ä¹¦": 5586,
      "æĢ»çļĦ": 5587,
      "æŀĦå»º": 5588,
      "è¿ĳå¹´æĿ¥": 5589,
      "åĩ½": 5590,
      "Ġincreasing": 5591,
      "è§Ĩä¸º": 5592,
      "è¯·æıĲä¾Ľ": 5593,
      "å¹¶ä¸º": 5594,
      "Ġexpect": 5595,
      "èĢį": 5596,
      "åŃĲåĴĮ": 5597,
      "çİ©å®¶": 5598,
      "èĤ¡ç¥¨": 5599,
      "issions": 5600,
      "åħ¬æŃ£": 5601,
      "å¾Īå¤§": 5602,
      "Ġmess": 5603,
      "ration": 5604,
      "bon": 5605,
      "çļĦæ¢": 5606,
      "åı¯ä»¥å°Ĩ": 5607,
      "Ġlo": 5608,
      "çĶĺ": 5609,
      "æĪĸåħ¶ä»ĸ": 5610,
      "éĩįå¤§": 5611,
      "ä½ľå®¶": 5612,
      "Ġpain": 5613,
      "éķ¿æĹ¶éĹ´": 5614,
      "æĪĳæ²¡æľī": 5615,
      "éĺµ": 5616,
      "èĩ³åħ³": 5617,
      "Ġprodu": 5618,
      "Ġlook": 5619,
      "ature": 5620,
      "Ġafter": 5621,
      "å¾ªçİ¯": 5622,
      "æıĲç¤º": 5623,
      "ney": 5624,
      "åıªèĥ½": 5625,
      "äº§åĵģçļĦ": 5626,
      "åħ¬åĽŃéĩĮ": 5627,
      "åŃĺåĤ¨": 5628,
      "æ²¿": 5629,
      "é¢ĨåŁŁçļĦ": 5630,
      "ħåĬĽ": 5631,
      "åĲįä¸º": 5632,
      "éł": 5633,
      "è¿Ľè¡Įæĳĺè¦ģ": 5634,
      "Ġcor": 5635,
      "æĺİçĻ½": 5636,
      "æĽ´å®¹æĺĵ": 5637,
      "æ¢ħ": 5638,
      "æĿİæĺİ": 5639,
      "çļĦç½ĳ": 5640,
      "ath": 5641,
      "Ġattention": 5642,
      "æĽ¼": 5643,
      "çļĦæ¬": 5644,
      "ä¸Ģåħ±æľī": 5645,
      "åĴĮå®īåħ¨": 5646,
      "ç»ĵæĿŁ": 5647,
      "Ġteac": 5648,
      "ocial": 5649,
      "Ġsomeone": 5650,
      "è£Ļ": 5651,
      "13": 5652,
      "ording": 5653,
      "èıĮ": 5654,
      "ä¸ĭéĽ¨": 5655,
      "çļĦç¾İé£Ł": 5656,
      "çĳŀ": 5657,
      "å°½éĩı": 5658,
      "Ġfelt": 5659,
      "æ¯ķ": 5660,
      "ah": 5661,
      "æİĺ": 5662,
      "èº«ä»½": 5663,
      "åĨ³äºİ": 5664,
      "Ġcy": 5665,
      "Ġaspect": 5666,
      "Ġtherap": 5667,
      "åıĸåĨ³äºİ": 5668,
      "çŁ¿": 5669,
      "æĪĳä»¬çļĦçĶŁæ´»": 5670,
      "è§Ĵèī²ä¿¡æģ¯": 5671,
      "Ġfree": 5672,
      "çļĦåŁºæľ¬": 5673,
      "ä¿Ŀéļľ": 5674,
      "çģ°": 5675,
      "æĭĵ": 5676,
      "ä»·åĢ¼è§Ĥ": 5677,
      "ooks": 5678,
      "è±ª": 5679,
      "åıĳæĺİ": 5680,
      "çļĦçĶŁæ´»æĸ¹å¼ı": 5681,
      "æ¼Ĥäº®": 5682,
      "ç»ıçĲĨ": 5683,
      "Ġrecent": 5684,
      "åĴĮåºĶçĶ¨": 5685,
      "çļĦé¢ľèī²": 5686,
      "åĽŀçŃĶè¿Ļä¸ªéĹ®é¢ĺ": 5687,
      "Ġorganization": 5688,
      "ĠéĩįåĨĻ": 5689,
      "Ġlikely": 5690,
      "Ġtopic": 5691,
      "åĲĦåľ°": 5692,
      "è½¬åĮĸ": 5693,
      "åĲĽ": 5694,
      "Ġchallenging": 5695,
      "Ġimproving": 5696,
      "æĢ»çļĦæĿ¥è¯´": 5697,
      "åķĨåĬ¡": 5698,
      "å°ıçĮ«": 5699,
      "èģĺ": 5700,
      "ä¸ºä½ł": 5701,
      "èµ¢å¾Ĺ": 5702,
      "è¯¸": 5703,
      "Ġes": 5704,
      "çļĦæ½": 5705,
      "è¯ģæį®": 5706,
      "Ã·": 5707,
      "çĬ¯ç½ª": 5708,
      "ä¼¯": 5709,
      "çº¹": 5710,
      "ç»´æĮģ": 5711,
      "æĳĨ": 5712,
      "ç»Ļåĩºä¸Ģä¸ª": 5713,
      "æĢİæł·": 5714,
      "è¯ķåĽ¾": 5715,
      "å¤§éĩıçļĦ": 5716,
      "ç¼ºçĤ¹": 5717,
      "ilar": 5718,
      "é²ģ": 5719,
      "æŁ¥è¯¢": 5720,
      "æĪĳè§īå¾Ĺ": 5721,
      "æĥ³è±¡": 5722,
      "åı¯ä»¥éĢīæĭ©": 5723,
      "Ġadditional": 5724,
      "æľīæķĪçļĦ": 5725,
      "çļĦçľĭ": 5726,
      "æĿİåĽĽ": 5727,
      "ä¹ŁéľĢè¦ģ": 5728,
      "ints": 5729,
      "ä¸Ģä»¶": 5730,
      "åĭĩæ°Ķ": 5731,
      "An": 5732,
      "Ġbalance": 5733,
      "èĻİ": 5734,
      "Ġwaste": 5735,
      "çļĦåĲ«ä¹ī": 5736,
      "åı¯ä»¥æł¹æį®": 5737,
      "åŃĹç¬¦": 5738,
      "ä»¥æĿ¥": 5739,
      "ĠInd": 5740,
      "Ġexce": 5741,
      "ä»Ĭå¹´": 5742,
      "çĽĳæµĭ": 5743,
      "æĻĴ": 5744,
      "æľªçŁ¥": 5745,
      "Ġcap": 5746,
      "æŁĶè½¯": 5747,
      "ä¼¦æķ¦": 5748,
      "å§Ķ": 5749,
      "Ġnecessary": 5750,
      "istics": 5751,
      "è®¸å¤ļäºº": 5752,
      "åĴĮæľįåĬ¡": 5753,
      "èİ±": 5754,
      "åľĪ": 5755,
      "avor": 5756,
      "å¿ĥåĴĮ": 5757,
      "ä»ª": 5758,
      "åĪļåĪļ": 5759,
      "ä½Ĩä»ĸ": 5760,
      "ush": 5761,
      "Ġcall": 5762,
      "ern": 5763,
      "éĢĬ": 5764,
      "çļĦæľįåĬ¡": 5765,
      "æĺ¯åħ³äºİ": 5766,
      "Ġproductivity": 5767,
      "ä¸ªæĢ§åĮĸ": 5768,
      "ises": 5769,
      "ä¸İåħ¶ä»ĸ": 5770,
      "æĺ¯æľĢ": 5771,
      "åį§": 5772,
      "åīª": 5773,
      "Ġfit": 5774,
      "é¸£": 5775,
      "çłĶç©¶è¡¨æĺİ": 5776,
      "Ġglobal": 5777,
      "æĥħæĦŁåĪĨæŀĲ": 5778,
      "å¹½": 5779,
      "Your": 5780,
      "çļĦåıĺåĮĸ": 5781,
      "åıĤèĢĥ": 5782,
      "çİ©èĢį": 5783,
      "çļĦåĬ¨çī©": 5784,
      "å¥½å¤Ħ": 5785,
      "Ġnow": 5786,
      "Ġusers": 5787,
      "ä¸ĵå®¶": 5788,
      "çļĦçĸ": 5789,
      "24": 5790,
      "èĢħçļĦ": 5791,
      "çļ®èĤ¤": 5792,
      "Ġliter": 5793,
      "çĽĳçĿ£": 5794,
      "èĢĮè¨Ģ": 5795,
      "Ġparticularly": 5796,
      "å°ıåįİ": 5797,
      "ç¡®å®ŀ": 5798,
      "Ġdra": 5799,
      "ĠRes": 5800,
      "ä¸įè¶³": 5801,
      "Ġregul": 5802,
      "ä¼Ļ": 5803,
      "Ġbuilding": 5804,
      "çļĦæĥħåĨµä¸ĭ": 5805,
      "ĠæĪĳæĥ³": 5806,
      "ç¢į": 5807,
      "éĻ·": 5808,
      "æ°¸è¿ľ": 5809,
      "Ġvalu": 5810,
      "çļĦäº§åĵģ": 5811,
      "æĢª": 5812,
      "éĤĢ": 5813,
      "å°±ä¼ļ": 5814,
      "è´Łè´£": 5815,
      "çºłæŃ£": 5816,
      "Ġ10": 5817,
      "èĬĿ": 5818,
      "å§¿": 5819,
      "Ġdiversity": 5820,
      "æģĭ": 5821,
      "çļĦæĶ¯æĮģ": 5822,
      "éĩĮéĿ¢": 5823,
      "éĩĩåıĸæİªæĸ½": 5824,
      "æľīçĽĬ": 5825,
      "åĲĮåŃ¦": 5826,
      "åĴĮè°": 5827,
      "Ġtoday": 5828,
      "Ġrenewable": 5829,
      "èħĲ": 5830,
      "'ve": 5831,
      "å¤§åŀĭ": 5832,
      "æŀĿ": 5833,
      "è¯ģæĺİ": 5834,
      "anced": 5835,
      "åį°åº¦": 5836,
      "way": 5837,
      "åĩºè¡Į": 5838,
      "æ¥ļ": 5839,
      "åĩ¡": 5840,
      "çļĦè¿ĩç¨ĭ": 5841,
      "çļĦåħ·ä½ĵ": 5842,
      "è¯Ńåı¥": 5843,
      "atives": 5844,
      "Ġconc": 5845,
      "è°ĥåĳ³": 5846,
      "å¹´è½»äºº": 5847,
      "çİ©åħ·": 5848,
      "è°Ĭ": 5849,
      "Ġvide": 5850,
      "è®¿éĹ®": 5851,
      "çļĦæĢģ": 5852,
      "ç®Ģçº¦": 5853,
      "Ġhelpful": 5854,
      "Ġimpacts": 5855,
      "Ġnature": 5856,
      "Ġcompet": 5857,
      "Ġcr": 5858,
      "äºĭæķħ": 5859,
      "åĽłä¸ºå®ĥä»¬": 5860,
      "olutions": 5861,
      "Ġamong": 5862,
      "Ġthen": 5863,
      "æŃ»äº¡": 5864,
      "åı¯èĥ½å¯¼èĩ´": 5865,
      "å®ŀçĶ¨": 5866,
      "Ġautom": 5867,
      "åĸľçĪ±": 5868,
      "Ġfeeling": 5869,
      "æª¬": 5870,
      "æĽ´ä¸º": 5871,
      "Ġrelev": 5872,
      "Ġland": 5873,
      "æīĭæ®µ": 5874,
      "å±±å³°": 5875,
      "äº§ä¸ļ": 5876,
      "è§Ĥçľĭ": 5877,
      "çļĦé£İæł¼": 5878,
      "çļĦæĥħç»ª": 5879,
      "åıĸå¾ĹäºĨ": 5880,
      "éĺĶ": 5881,
      "æµģç¨ĭ": 5882,
      "è¡«": 5883,
      "è¿ĻæĦıåĳ³çĿĢ": 5884,
      "æĭĶ": 5885,
      "å°ıæĺİåĴĮ": 5886,
      "ĽçĽ¾": 5887,
      "æĳĩ": 5888,
      "æŁ¥çľĭ": 5889,
      "AIæĬĢæľ¯": 5890,
      "å±ı": 5891,
      "łæª¬": 5892,
      "è¿ĲçĶ¨": 5893,
      "çļĦçĬ": 5894,
      "Ġfactors": 5895,
      "å²©": 5896,
      "è¶³å¤ŁçļĦ": 5897,
      "ä¸Ģæ®µæĸĩæľ¬": 5898,
      "äººå£«": 5899,
      "ĠMOSS": 5900,
      "Ġinvolves": 5901,
      "èĴľ": 5902,
      "Ġgain": 5903,
      "Ġdeveloping": 5904,
      "Ġè¿Ļä¸ª": 5905,
      "Ġì": 5906,
      "ished": 5907,
      "Ġproblem": 5908,
      "åľ°ä¸Ĭ": 5909,
      "æ£ī": 5910,
      "Ġeveryone": 5911,
      "çĶ·åŃĲ": 5912,
      "der": 5913,
      "ä¿Ĺ": 5914,
      "åŀĥåľ¾åĪĨç±»": 5915,
      "è¢«ç§°ä¸º": 5916,
      "æĦŁåĪ°éĿŀå¸¸": 5917,
      "èıľèĤ´": 5918,
      "ĠWhat": 5919,
      "ex": 5920,
      "èĴĤ": 5921,
      "\\_\\_\\_\\_": 5922,
      "æŃ£å¼ı": 5923,
      "åŁ¹è®Ń": 5924,
      "å¤ļæł·æĢ§": 5925,
      "Ġter": 5926,
      "Ġintro": 5927,
      "åĭĩæķ¢": 5928,
      "Ġiniti": 5929,
      "ç©Ĩ": 5930,
      "å¹´ä»£": 5931,
      "è¿Ļç¯ĩæĸĩç«łä¸ŃæıĲåıĸ": 5932,
      "åĢĴåħ¥": 5933,
      "åİĺ": 5934,
      "Ġthroughout": 5935,
      "è¿Ļæ¬¡": 5936,
      "éķ¿çļĦ": 5937,
      "çĽ¸åıį": 5938,
      "pr": 5939,
      "å½±çīĩ": 5940,
      "Ġgreen": 5941,
      "åŁİå¸ĤçļĦ": 5942,
      "ä¸ģ": 5943,
      "life": 5944,
      "Ġmyself": 5945,
      "åħ³éĶ®åŃĹ": 5946,
      "alu": 5947,
      "çļĦçĭĹ": 5948,
      "æī®æ¼Ķ": 5949,
      "ä»¥ä¸ĭæĸĩç«ł": 5950,
      "çļĦçľĭæ³ķ": 5951,
      "æĬĢæľ¯åĴĮ": 5952,
      "ä¸»äººåħ¬": 5953,
      "æ²Ļæĭī": 5954,
      "Ġgroup": 5955,
      "Ġhab": 5956,
      "åĪ©çĽĬ": 5957,
      "Ġsatis": 5958,
      "inking": 5959,
      "ging": 5960,
      "It": 5961,
      "Ġbring": 5962,
      "fect": 5963,
      "istic": 5964,
      "oot": 5965,
      "åľºæīĢ": 5966,
      "çĥ¹é¥ª": 5967,
      "Ġmembers": 5968,
      "edic": 5969,
      "è£ģ": 5970,
      "Ġcommit": 5971,
      "Ġwebs": 5972,
      "ç¼ĸåĨĻä¸Ģä¸ª": 5973,
      "ours": 5974,
      "æĳ©": 5975,
      "æĶ¶åħ¥": 5976,
      "çĽŁ": 5977,
      "çļĦæĬķ": 5978,
      "Ġfollowing": 5979,
      "ards": 5980,
      "å±ķå¼Ģ": 5981,
      "Ġmeaning": 5982,
      "äº¤äºĴ": 5983,
      "ç§Ł": 5984,
      "tle": 5985,
      "çļĦæ¸¸æĪı": 5986,
      "Ġsteps": 5987,
      "Ġinteg": 5988,
      "åĪĺ": 5989,
      "çģµæ´»": 5990,
      "æŃ£å¸¸": 5991,
      "ption": 5992,
      "å¼ķåıĳ": 5993,
      "arget": 5994,
      "Ġmodel": 5995,
      "Ġevent": 5996,
      "ĠWhile": 5997,
      "omen": 5998,
      "æĪĲåĬŁçļĦ": 5999,
      "åĸľæ¬¢åĲĥ": 6000,
      "ä¾Ŀèµĸ": 6001,
      "Ġremot": 6002,
      "ä¸Ńæľī": 6003,
      "ä¹Łä¸į": 6004,
      "æłĩçŃ¾": 6005,
      "æģ¢": 6006,
      "Ġview": 6007,
      "ale": 6008,
      "Ġill": 6009,
      "å®ŀæĹ¶": 6010,
      "åĮ¹": 6011,
      "Ġvolunte": 6012,
      "Ġgratitude": 6013,
      "æ¸ħæĸ°": 6014,
      "ä¸Ģå¹´": 6015,
      "Ġtell": 6016,
      "quality": 6017,
      "Ġvariety": 6018,
      "çļĦæģ": 6019,
      "æĪĲæŀľ": 6020,
      "Ġsupp": 6021,
      "éĩİçĶŁ": 6022,
      "æĪĳä¸į": 6023,
      "å½ĵæĹ¶": 6024,
      "Ġissue": 6025,
      "èĢģæĿ¿": 6026,
      "å¿ħè¦ģçļĦ": 6027,
      "èģĮä½į": 6028,
      "Ġdoes": 6029,
      "åĿĢ": 6030,
      "æŁ¥æī¾": 6031,
      "æĻºèĥ½æīĭæľº": 6032,
      "å¤®": 6033,
      "Ġconvers": 6034,
      "èŃ¦å¯Ł": 6035,
      "åĴĮæ°´": 6036,
      "æĺ¾èĳĹ": 6037,
      "æµ·å¹³éĿ¢ä¸Ĭåįĩ": 6038,
      "ets": 6039,
      "æİ¢éĻ©": 6040,
      "å°¿": 6041,
      "ening": 6042,
      "è¿«": 6043,
      "Ġnever": 6044,
      "å¢¨": 6045,
      "éĺ¶æ®µ": 6046,
      "æ³¢çī¹": 6047,
      "çļĦçĽ®æłĩ": 6048,
      "yth": 6049,
      "çļĦæ¢¦": 6050,
      "æĭħå¿ĥ": 6051,
      "ä½łè®¤ä¸º": 6052,
      "äºĮæ°§åĮĸ": 6053,
      "åı¯ä»¥çĶ¨": 6054,
      "åºĨç¥Ŀ": 6055,
      "çĸĳéĹ®": 6056,
      "ä»Ļ": 6057,
      "è·ĥ": 6058,
      "Ġintern": 6059,
      "çļĦæ³ķ": 6060,
      "åİŁæĸĩ": 6061,
      "ä¸ªæ©ĻåŃĲ": 6062,
      "è®¤çľŁ": 6063,
      "ç«¹": 6064,
      "ones": 6065,
      "ä¸įè¶ħè¿ĩ": 6066,
      "Ġmar": 6067,
      "çĭ®": 6068,
      "ĠEng": 6069,
      "åľ¨ä¸ŃåĽ½": 6070,
      "æĺĵæĩĤ": 6071,
      "Ġhigher": 6072,
      "æĹłéĻĲ": 6073,
      "Ġopportunity": 6074,
      "æ·±è¿ľ": 6075,
      "åĲĮæł·": 6076,
      "å·¥èīº": 6077,
      "æ³ķè§Ħ": 6078,
      "å¿ĥæĢģ": 6079,
      "çļĦä¸ĸçķĮ": 6080,
      "ä¹°äºĨ": 6081,
      "çļĦçľŁ": 6082,
      "è°ĵè¯Ń": 6083,
      "åħ¶ä¸ŃåĮħæĭ¬": 6084,
      "ä½ĵéĩį": 6085,
      "é¸¡èĤī": 6086,
      "Ġnon": 6087,
      "å¯¼æ¼Ķ": 6088,
      "Ġä½¿çĶ¨": 6089,
      "åŃ¦ç§ĳ": 6090,
      "è¦ģçĤ¹": 6091,
      "here": 6092,
      "çļĦçī¹çĤ¹": 6093,
      "èİİ": 6094,
      "æ¶µçĽĸ": 6095,
      "å¤§å¤ļæķ°": 6096,
      "æĬĳ": 6097,
      "Ġfield": 6098,
      "å·¥ç¨ĭå¸Ī": 6099,
      "ats": 6100,
      "èĬĤæĹ¥": 6101,
      "Ġeth": 6102,
      "åı¯ä»¥èĢĥèĻĳ": 6103,
      "éĹ®é¢ĺçļĦ": 6104,
      "Ġincludes": 6105,
      "åĢ¼å¾Ĺä¸Ģ": 6106,
      "ĠIm": 6107,
      "Ġdue": 6108,
      "Ġoper": 6109,
      "Ġspace": 6110,
      "Ġstrength": 6111,
      "Ġcal": 6112,
      "Ġbehavior": 6113,
      "æī¾åĪ°äºĨ": 6114,
      "è¢«è®¤ä¸ºæĺ¯": 6115,
      "Ġleg": 6116,
      "éĩĬæĶ¾": 6117,
      "æľĢéĩįè¦ģ": 6118,
      "Ġcurrent": 6119,
      "ä¼¦çĲĨ": 6120,
      "Ġshort": 6121,
      "ython": 6122,
      "hor": 6123,
      "é²¸": 6124,
      "çļĦçĮ": 6125,
      "éĥ½åľ¨": 6126,
      "icing": 6127,
      "Ġer": 6128,
      "åĲĪçī©": 6129,
      "æĪĳæľĢè¿ĳ": 6130,
      "åĴĮæĶ¯æĮģ": 6131,
      "åĲĥäºĨ": 6132,
      "çŁ¥åĲį": 6133,
      "ä¸Ģç³»åĪĹ": 6134,
      "ä¸įæĸŃåľ°": 6135,
      "ç¡®è®¤": 6136,
      "å¼Ģå¿ĥ": 6137,
      "éľľ": 6138,
      "åıĭè°Ĭ": 6139,
      "comes": 6140,
      "åĩ½æķ°": 6141,
      "2021": 6142,
      "Ġsame": 6143,
      "Ġtrack": 6144,
      "å¦Ĥä½ķåľ¨": 6145,
      "åģļå¥½": 6146,
      "æĺ¯åĲ¦æľī": 6147,
      "æıŃ": 6148,
      "çº¤ç»´": 6149,
      "çļĦæĽ": 6150,
      "Ġwithin": 6151,
      "çļĦæ¨": 6152,
      "é¸Ń": 6153,
      "æĭľ": 6154,
      "æĥľ": 6155,
      "çļĦä¸ĢäºĽ": 6156,
      "è´§å¸ģ": 6157,
      "Ġrun": 6158,
      "çĩķ": 6159,
      "æĦŁæŁĵ": 6160,
      "åĽ¾åĥıè¯ĨåĪ«": 6161,
      "Ġsolutions": 6162,
      "å¼Ł": 6163,
      "Ġknown": 6164,
      "åıĹæ¬¢è¿İçļĦ": 6165,
      "å°Ĭæķ¬": 6166,
      "å¾Ĵ": 6167,
      "çĭĹçĭĹ": 6168,
      "igate": 6169,
      "éģµå®Ī": 6170,
      "90": 6171,
      "çļĦæ¶Ī": 6172,
      "é£Łè°±": 6173,
      "æķĪçİĩåĴĮ": 6174,
      "å¦ĩ": 6175,
      "Ġproduction": 6176,
      "æŁłæª¬": 6177,
      "Ġmeans": 6178,
      "Ġstudent": 6179,
      "çļĦä¸»æĹ¨": 6180,
      "èĤł": 6181,
      "å¥½çľĭ": 6182,
      "è¶ĬæĿ¥è¶Ĭå¤ļ": 6183,
      "äººç±»æ´»åĬ¨": 6184,
      "æŃĮè¯į": 6185,
      "æĽ¿ä»£": 6186,
      "ames": 6187,
      "çĽĳç®¡": 6188,
      "æİ¨æĸŃ": 6189,
      "æĦıè¯ĨåĪ°": 6190,
      "æ®ĸ": 6191,
      "æĲº": 6192,
      "çļĦç¥ŀ": 6193,
      "ä¼ļå¯¼èĩ´": 6194,
      "èĤĸ": 6195,
      "åľ¨è¿ĩåİ»": 6196,
      "Ġç»Ļå®ļä¸Ģä¸ª": 6197,
      "è½»è½»": 6198,
      "gin": 6199,
      "80": 6200,
      "Ġcity": 6201,
      "æĦ¿æĦı": 6202,
      "æµ·è¾¹": 6203,
      "çļĦæŃ£": 6204,
      "åľ¨å®¶éĩĮ": 6205,
      "ç»ĻäºĨ": 6206,
      "Ġel": 6207,
      "Ġpast": 6208,
      "æĻ®éĢļ": 6209,
      "Ġrelevant": 6210,
      "éĨī": 6211,
      "ä¹ĭéĹ´çļĦåħ³ç³»": 6212,
      "Ġstudies": 6213,
      "å·²ç»ıæĪĲä¸º": 6214,
      "Ġ6": 6215,
      "åĽŀå¿Ĩ": 6216,
      "éģİ": 6217,
      "æĶ¯éĵħç¬Ķ": 6218,
      "Ġdire": 6219,
      "Ġactivity": 6220,
      "resent": 6221,
      "è¯¥åħ¬åı¸": 6222,
      "æĪĳä¹Ł": 6223,
      "éĥ½åı¯ä»¥": 6224,
      "Ġfil": 6225,
      "åĪł": 6226,
      "çļĦæ·±": 6227,
      "çļĦæĳĦ": 6228,
      "å¦Ĥæŀľä½łåĸľæ¬¢": 6229,
      "éĻ¤ä»¥": 6230,
      "æĹłäºº": 6231,
      "æĿ¥å®ŀçİ°": 6232,
      "Ġaddition": 6233,
      "èıľåįķ": 6234,
      "è¿Ł": 6235,
      "Ġconcerns": 6236,
      "ä¸ĢåĢĭ": 6237,
      "Ġcarbon": 6238,
      "çļĦæ½ľ": 6239,
      "éĻª": 6240,
      "Ġdepend": 6241,
      "è·¯çº¿": 6242,
      "æ´ª": 6243,
      "Ġassoci": 6244,
      "æııç»ĺ": 6245,
      "Ġfeelings": 6246,
      "Ġcosts": 6247,
      "Ġanother": 6248,
      "Ġbecause": 6249,
      "æĽ´æľī": 6250,
      "èģļä¼ļ": 6251,
      "hens": 6252,
      "Ġadapt": 6253,
      "äºĴçĽ¸": 6254,
      "é¸Łç±»": 6255,
      "æİĴåĪĹ": 6256,
      "çļĦçĪ±æĥħ": 6257,
      "èĴĻ": 6258,
      "ode": 6259,
      "ffic": 6260,
      "åľ°çĲĥçļĦ": 6261,
      "æĮĤ": 6262,
      "ç¤¼çī©": 6263,
      "Ġcomput": 6264,
      "Ġpay": 6265,
      "å°ıé¸Ł": 6266,
      "æĤī": 6267,
      "Ġcareer": 6268,
      "ä¿ĿéĻ©": 6269,
      "Ġfre": 6270,
      "éģĵè·¯": 6271,
      "erson": 6272,
      "äºĮæ°§åĮĸç¢³": 6273,
      "Ġsumm": 6274,
      "åĴĮè°Ĳ": 6275,
      "çļĦæİĴ": 6276,
      "ĠComp": 6277,
      "æĽ´æĸ°": 6278,
      "Ġmeditation": 6279,
      "æ¡ĥ": 6280,
      "Ġmindfulness": 6281,
      "Ġmedical": 6282,
      "æľºåĪ¶": 6283,
      "è´¸": 6284,
      "åĢį": 6285,
      "aching": 6286,
      "åĪĹä¸¾": 6287,
      "),": 6288,
      "Ġlack": 6289,
      "åĭĴ": 6290,
      "Ġvirtual": 6291,
      "ä»¥ä¸ĭéĹ®é¢ĺ": 6292,
      "èĭ±æĸĩ": 6293,
      "ä»ĸæĥ³": 6294,
      "ä»ĭç»įä¸Ģä¸ĭ": 6295,
      "å¯¹åħ¶": 6296,
      "40": 6297,
      "äºĭä¸ļ": 6298,
      "çĻ½èī²": 6299,
      "Ġunder": 6300,
      "--------": 6301,
      "ele": 6302,
      "å®ĹæķĻ": 6303,
      "åį«æĺŁ": 6304,
      "Ġcamp": 6305,
      "Ġefforts": 6306,
      "oose": 6307,
      "èĬĴ": 6308,
      "ger": 6309,
      "è¯»ä¹¦": 6310,
      "åķĨåºĹ": 6311,
      "ä¿ĿæĮģåģ¥åº·": 6312,
      "çļĦä¸į": 6313,
      "ä¸ľäº¬": 6314,
      "Ġlearned": 6315,
      "ä»¿ä½Ľ": 6316,
      "èĥ½åĬĽåĴĮ": 6317,
      "Ġoutcomes": 6318,
      "çİĩåĴĮ": 6319,
      "Ġamount": 6320,
      "åĪĢ": 6321,
      "æģ¢å¤į": 6322,
      "çº½çº¦å¸Ĥ": 6323,
      "ä¸Ģå¼ł": 6324,
      "åľ¨è¿ĻéĩĮ": 6325,
      "æ·ĩ": 6326,
      "Ġbreat": 6327,
      "è®©äººä»¬": 6328,
      "èĻļæĭŁçİ°å®ŀ": 6329,
      "Ġbelieve": 6330,
      "\"ï¼Į": 6331,
      "iveness": 6332,
      "çļĦæŁ": 6333,
      "çļĦæŃ¥": 6334,
      "Ġvalues": 6335,
      "Ġimproved": 6336,
      "éĿ¢æĸĻ": 6337,
      "Ġprovided": 6338,
      "å°½åĬĽ": 6339,
      "åĽ¾ä¹¦é¦Ĩ": 6340,
      "åĲĮäºĭ": 6341,
      "ground": 6342,
      "è¿Ĳè¡Į": 6343,
      "é¢ĨåŁŁä¸Ń": 6344,
      "ä¼¤å®³": 6345,
      "çŃĶæ¡Īæĺ¯": 6346,
      "èĥ¸": 6347,
      "Ġprom": 6348,
      "ç§įæ¤į": 6349,
      "ency": 6350,
      "Ġhy": 6351,
      "Ġenhance": 6352,
      "çļĦå¤ĸ": 6353,
      "æĻ®éģį": 6354,
      "çļĦé«ĺ": 6355,
      "å°ıæľĭåıĭ": 6356,
      "å¦Īå¦Ī": 6357,
      "Ġuser": 6358,
      "ising": 6359,
      "æłĩå¿Ĺ": 6360,
      "ä¸ĢçĽ´åľ¨": 6361,
      "çĭĤ": 6362,
      "chnology": 6363,
      "æĬĵ": 6364,
      "éªĮè¯ģ": 6365,
      "Ġcontribute": 6366,
      "Ġexc": 6367,
      "è¯´è¯Ŀ": 6368,
      "åĵªç§į": 6369,
      "æľºåĻ¨åŃ¦ä¹łç®Ĺæ³ķ": 6370,
      "Ġemissions": 6371,
      "Tom": 6372,
      "èĢĢ": 6373,
      "åıĭå¥½": 6374,
      "Ġgoing": 6375,
      "å£¤": 6376,
      "å¾Īå¥½çļĦ": 6377,
      "ä¸¦": 6378,
      "çļĦåħ³ç³»": 6379,
      "çĬ¹": 6380,
      "ution": 6381,
      "æĺ¯å¤ļå°ĳ": 6382,
      "Ġtype": 6383,
      "ĠEm": 6384,
      "åħīçº¿": 6385,
      "å½ĵä½ł": 6386,
      "åĬĽåŃ¦": 6387,
      "åĪ«äºº": 6388,
      "aj": 6389,
      "éĺĲ": 6390,
      "åĨ°æ·ĩ": 6391,
      "äººå·¥æĻºèĥ½çļĦåıĳå±ķ": 6392,
      "å°ıæĺİå®¶": 6393,
      "Ġadop": 6394,
      "ä½łä¼ļ": 6395,
      "æĻºèĥ½åĮĸ": 6396,
      "çĶ·æĢ§": 6397,
      "å°±åĥı": 6398,
      "ä»ĸä»¬åľ¨": 6399,
      "åĪĽä¸ļ": 6400,
      "åľ°éľĩ": 6401,
      "ä¼ĺæĥł": 6402,
      "æĪĳéĿŀå¸¸": 6403,
      "ared": 6404,
      "åĨ°æ·ĩæ·ĭ": 6405,
      "æ¯ĶèµĽä¸Ń": 6406,
      "ç¾¤ä½ĵ": 6407,
      "æĺ¯ä¸į": 6408,
      "åıªè¦ģ": 6409,
      "ä¸²": 6410,
      "Ġovercome": 6411,
      "Ġç»Ļåĩºä¸Ģä¸ª": 6412,
      "Ġtem": 6413
    },
    "merges": [
      [
        "ä",
        "¸"
      ],
      [
        "ï",
        "¼"
      ],
      [
        "ç",
        "ļ"
      ],
      [
        "çļ",
        "Ħ"
      ],
      [
        "ï¼",
        "Į"
      ],
      [
        "ã",
        "Ģ"
      ],
      [
        "ãĢ",
        "Ĥ"
      ],
      [
        "ä",
        "º"
      ],
      [
        "ä",
        "»"
      ],
      [
        "å",
        "ı"
      ],
      [
        "æ",
        "ľ"
      ],
      [
        "Ġ",
        "t"
      ],
      [
        "Ġ",
        "a"
      ],
      [
        "è",
        "¿"
      ],
      [
        "i",
        "n"
      ],
      [
        "æ",
        "Ī"
      ],
      [
        "å",
        "ħ"
      ],
      [
        "ä",
        "½"
      ],
      [
        "æ",
        "ĺ"
      ],
      [
        "å",
        "¤"
      ],
      [
        "è",
        "¯"
      ],
      [
        "ä¸",
        "Ģ"
      ],
      [
        "æ",
        "ĸ"
      ],
      [
        "å",
        "®"
      ],
      [
        "ç",
        "Ķ"
      ],
      [
        "h",
        "e"
      ],
      [
        "å",
        "Ī"
      ],
      [
        "å",
        "Ĵ"
      ],
      [
        "å",
        "ľ"
      ],
      [
        "åĴ",
        "Į"
      ],
      [
        "r",
        "e"
      ],
      [
        "å",
        "Ĳ"
      ],
      [
        "å",
        "Ĭ"
      ],
      [
        "o",
        "n"
      ],
      [
        "ç",
        "»"
      ],
      [
        "ä",
        "¹"
      ],
      [
        "æĺ",
        "¯"
      ],
      [
        "Ġ",
        "s"
      ],
      [
        "å",
        "°"
      ],
      [
        "a",
        "t"
      ],
      [
        "Ġ",
        "c"
      ],
      [
        "å",
        "Ń"
      ],
      [
        "n",
        "d"
      ],
      [
        "ä¸",
        "ª"
      ],
      [
        "e",
        "r"
      ],
      [
        "ä»",
        "¥"
      ],
      [
        "e",
        "s"
      ],
      [
        "Ġt",
        "he"
      ],
      [
        "è",
        "®"
      ],
      [
        "e",
        "n"
      ],
      [
        "ãĢ",
        "ģ"
      ],
      [
        "æĪ",
        "ĳ"
      ],
      [
        "o",
        "r"
      ],
      [
        "åľ",
        "¨"
      ],
      [
        "i",
        "t"
      ],
      [
        "äº",
        "º"
      ],
      [
        "ĥ",
        "½"
      ],
      [
        "in",
        "g"
      ],
      [
        "æľ",
        "ī"
      ],
      [
        "o",
        "u"
      ],
      [
        "ï¼",
        "ļ"
      ],
      [
        "æ",
        "Ĺ"
      ],
      [
        "Ġ",
        "p"
      ],
      [
        "Ġa",
        "nd"
      ],
      [
        "a",
        "l"
      ],
      [
        "äº",
        "Ĩ"
      ],
      [
        "Ġ",
        "w"
      ],
      [
        "åı",
        "¯"
      ],
      [
        "è¿",
        "Ļ"
      ],
      [
        "å",
        "Ľ"
      ],
      [
        "æ",
        "Ŀ"
      ],
      [
        "å",
        "º"
      ],
      [
        "é",
        "ĩ"
      ],
      [
        "å",
        "¹"
      ],
      [
        "å",
        "¸"
      ],
      [
        "a",
        "n"
      ],
      [
        "ä¸",
        "Ń"
      ],
      [
        "ä",
        "¼"
      ],
      [
        "é",
        "Ģ"
      ],
      [
        "è",
        "¡"
      ],
      [
        "è",
        "ĥ½"
      ],
      [
        "çļĦ",
        "æ"
      ],
      [
        "å",
        "ĩ"
      ],
      [
        "Ġ",
        "o"
      ],
      [
        "Ġ",
        "m"
      ],
      [
        "å",
        "·"
      ],
      [
        "æĸ",
        "ĩ"
      ],
      [
        "Ġt",
        "o"
      ],
      [
        "å",
        "Į"
      ],
      [
        "Ġ",
        "f"
      ],
      [
        "è",
        "¦"
      ],
      [
        "è¦",
        "ģ"
      ],
      [
        "é",
        "¢"
      ],
      [
        "å",
        "¯"
      ],
      [
        "å",
        "¾"
      ],
      [
        "å",
        "Ĩ"
      ],
      [
        "Ġ",
        "in"
      ],
      [
        "ä¸",
        "º"
      ],
      [
        "è",
        "§"
      ],
      [
        "i",
        "s"
      ],
      [
        "å",
        "¥"
      ],
      [
        "i",
        "on"
      ],
      [
        "ç",
        "ī"
      ],
      [
        "ç",
        "§"
      ],
      [
        "ä»",
        "¬"
      ],
      [
        "é",
        "Ĺ"
      ],
      [
        "ç",
        "İ"
      ],
      [
        "Ġ",
        "b"
      ],
      [
        "e",
        "d"
      ],
      [
        "å",
        "¼"
      ],
      [
        "ä¸",
        "į"
      ],
      [
        "çĶ",
        "¨"
      ],
      [
        "æ",
        "ķ"
      ],
      [
        "è",
        "Ģ"
      ],
      [
        "i",
        "c"
      ],
      [
        "å",
        "½"
      ],
      [
        "æ",
        "Ģ"
      ],
      [
        "æ",
        "ŀ"
      ],
      [
        "çĶ",
        "Ł"
      ],
      [
        "ç",
        "Ń"
      ],
      [
        "æ",
        "ı"
      ],
      [
        "æ",
        "ī"
      ],
      [
        "æ",
        "Ń"
      ],
      [
        "åı¯",
        "ä»¥"
      ],
      [
        "Ġo",
        "f"
      ],
      [
        "é",
        "Ŀ"
      ],
      [
        "l",
        "e"
      ],
      [
        "å",
        "į"
      ],
      [
        "ä",
        "¿"
      ],
      [
        "æ",
        "Ĭ"
      ],
      [
        "â",
        "Ģ"
      ],
      [
        "æ",
        "ł"
      ],
      [
        "æ",
        "³"
      ],
      [
        "Ġ",
        "d"
      ],
      [
        "a",
        "r"
      ],
      [
        "ç",
        "Ľ"
      ],
      [
        "æĿ",
        "¥"
      ],
      [
        "r",
        "o"
      ],
      [
        "è",
        "ĩ"
      ],
      [
        "æ",
        "Ħ"
      ],
      [
        "å",
        "ĵ"
      ],
      [
        "en",
        "t"
      ],
      [
        "å",
        "¦"
      ],
      [
        "ä¸",
        "ĭ"
      ],
      [
        "Ġ",
        "e"
      ],
      [
        "ç",
        "Ĳ"
      ],
      [
        "ä¸Ģ",
        "ä¸ª"
      ],
      [
        "æĪ",
        "Ĳ"
      ],
      [
        "å",
        "İ"
      ],
      [
        "æ",
        "ĥ"
      ],
      [
        "æı",
        "Ĳ"
      ],
      [
        "æ",
        "°"
      ],
      [
        "åĪ",
        "°"
      ],
      [
        "ä»",
        "ĸ"
      ],
      [
        "æ",
        "Ľ"
      ],
      [
        "åŃ",
        "¦"
      ],
      [
        "æ",
        "Ļ"
      ],
      [
        "å¦",
        "Ĥ"
      ],
      [
        "v",
        "e"
      ],
      [
        "Ġ",
        "h"
      ],
      [
        "è¡",
        "Į"
      ],
      [
        "åĩ",
        "º"
      ],
      [
        "å",
        "ĳ"
      ],
      [
        "å",
        "¿"
      ],
      [
        "c",
        "t"
      ],
      [
        "æĹ",
        "¶"
      ],
      [
        "å¯",
        "¹"
      ],
      [
        "æ",
        "ĭ"
      ],
      [
        "a",
        "s"
      ],
      [
        "ä½",
        "ł"
      ],
      [
        "åŃ",
        "Ĳ"
      ],
      [
        "Ġ",
        "re"
      ],
      [
        "o",
        "m"
      ],
      [
        "ä",
        "¾"
      ],
      [
        "äº",
        "İ"
      ],
      [
        "æ",
        "İ"
      ],
      [
        "åľ",
        "°"
      ],
      [
        "Ġt",
        "h"
      ],
      [
        "é¢",
        "ĺ"
      ],
      [
        "ä¸",
        "Ĭ"
      ],
      [
        "ç",
        "«"
      ],
      [
        "æ",
        "Ķ"
      ],
      [
        "è",
        "´"
      ],
      [
        "å°",
        "ı"
      ],
      [
        "å¥",
        "½"
      ],
      [
        "ä¼",
        "ļ"
      ],
      [
        "çŃ",
        "ī"
      ],
      [
        "æĸ",
        "¹"
      ],
      [
        "æľ",
        "¬"
      ],
      [
        "èĩ",
        "ª"
      ],
      [
        "åĪ",
        "Ĩ"
      ],
      [
        "æĽ",
        "´"
      ],
      [
        "äº",
        "Ľ"
      ],
      [
        "å¤",
        "ļ"
      ],
      [
        "u",
        "s"
      ],
      [
        "æ",
        "µ"
      ],
      [
        "æ",
        "¯"
      ],
      [
        "è",
        "µ"
      ],
      [
        "å¤",
        "§"
      ],
      [
        "å",
        "±"
      ],
      [
        "æ",
        "į"
      ],
      [
        "ï¼",
        "Ł"
      ],
      [
        "åĬ",
        "¨"
      ],
      [
        "ä½",
        "ľ"
      ],
      [
        "å·",
        "¥"
      ],
      [
        "çī",
        "©"
      ],
      [
        "ç",
        "º"
      ],
      [
        "åħ",
        "³"
      ],
      [
        "è",
        "¾"
      ],
      [
        "å¹",
        "¶"
      ],
      [
        "åı",
        "ĳ"
      ],
      [
        "ç",
        "®"
      ],
      [
        "Ġ",
        "y"
      ],
      [
        "æ",
        "Į"
      ],
      [
        "ç",
        "±"
      ],
      [
        "é",
        "£"
      ],
      [
        "é",
        "ľ"
      ],
      [
        "æĪĳ",
        "ä»¬"
      ],
      [
        "éĿ",
        "¢"
      ],
      [
        "æ",
        "´"
      ],
      [
        "å®",
        "ļ"
      ],
      [
        "Ġy",
        "ou"
      ],
      [
        "æľ",
        "Ģ"
      ],
      [
        "åħ",
        "¶"
      ],
      [
        "i",
        "l"
      ],
      [
        "Ġ",
        "l"
      ],
      [
        "æŀ",
        "ľ"
      ],
      [
        "at",
        "ion"
      ],
      [
        "i",
        "m"
      ],
      [
        "å",
        "Ł"
      ],
      [
        "æ",
        "¬"
      ],
      [
        "ç§",
        "į"
      ],
      [
        "çİ",
        "°"
      ],
      [
        "çļĦ",
        "ç"
      ],
      [
        "è¿",
        "Ľ"
      ],
      [
        "æ³",
        "ķ"
      ],
      [
        "é",
        "Ļ"
      ],
      [
        "è¿",
        "ĩ"
      ],
      [
        "æ",
        "Ĥ"
      ],
      [
        "éĹ",
        "®"
      ],
      [
        "å",
        "ģ"
      ],
      [
        "æ",
        "¸"
      ],
      [
        "ä½",
        "ĵ"
      ],
      [
        "è",
        "ī"
      ],
      [
        "å¤",
        "©"
      ],
      [
        "å®",
        "ĥ"
      ],
      [
        "æį",
        "®"
      ],
      [
        "ç»",
        "Ļ"
      ],
      [
        "åĬ",
        "Ľ"
      ],
      [
        "çĲ",
        "Ĩ"
      ],
      [
        "æĺ",
        "İ"
      ],
      [
        "éľ",
        "Ģ"
      ],
      [
        "æ",
        "²"
      ],
      [
        "å°",
        "Ĩ"
      ],
      [
        "åº",
        "Ķ"
      ],
      [
        "c",
        "e"
      ],
      [
        "åĬ",
        "ł"
      ],
      [
        "ç±",
        "»"
      ],
      [
        "æĸ",
        "°"
      ],
      [
        "é",
        "ģ"
      ],
      [
        "ç",
        "Ĥ"
      ],
      [
        "åĮ",
        "ĸ"
      ],
      [
        "æĢ",
        "§"
      ],
      [
        "ç",
        "Ħ"
      ],
      [
        "é",
        "«"
      ],
      [
        "åĲ",
        "Į"
      ],
      [
        "c",
        "h"
      ],
      [
        "æĪ",
        "ĸ"
      ],
      [
        "ä½",
        "¿"
      ],
      [
        "åĽ",
        "ł"
      ],
      [
        "ä¿",
        "Ŀ"
      ],
      [
        "å¸",
        "¸"
      ],
      [
        "éĩ",
        "į"
      ],
      [
        "ç",
        "ľ"
      ],
      [
        "é«",
        "ĺ"
      ],
      [
        "åı",
        "¥"
      ],
      [
        "i",
        "d"
      ],
      [
        "è",
        "½"
      ],
      [
        "æĦ",
        "Ł"
      ],
      [
        "Ġ",
        "g"
      ],
      [
        "å®",
        "¶"
      ],
      [
        "ä¹",
        "Ł"
      ],
      [
        "e",
        "t"
      ],
      [
        "æľ",
        "º"
      ],
      [
        "è",
        "¶"
      ],
      [
        "å½",
        "±"
      ],
      [
        "æ",
        "±"
      ],
      [
        "ä¸",
        "»"
      ],
      [
        "o",
        "l"
      ],
      [
        "é",
        "Ķ"
      ],
      [
        "é",
        "ĺ"
      ],
      [
        "Ġp",
        "ro"
      ],
      [
        "Ġth",
        "at"
      ],
      [
        "è¯",
        "Ń"
      ],
      [
        "çĦ",
        "¶"
      ],
      [
        "âĢ",
        "Ŀ"
      ],
      [
        "ç«",
        "ł"
      ],
      [
        "e",
        "l"
      ],
      [
        "er",
        "s"
      ],
      [
        "Ġ",
        "I"
      ],
      [
        "å¾",
        "Ĺ"
      ],
      [
        "æķ",
        "°"
      ],
      [
        "Ġ",
        "n"
      ],
      [
        "r",
        "a"
      ],
      [
        "æĸĩ",
        "ç«ł"
      ],
      [
        "âĢ",
        "ľ"
      ],
      [
        "éĢ",
        "ļ"
      ],
      [
        "Ġf",
        "or"
      ],
      [
        "åĵ",
        "ģ"
      ],
      [
        "ç",
        "³"
      ],
      [
        "éľĢ",
        "è¦ģ"
      ],
      [
        "çĶ",
        "µ"
      ],
      [
        "æĬ",
        "Ģ"
      ],
      [
        "æĻ",
        "º"
      ],
      [
        "è",
        "°"
      ],
      [
        "Ġs",
        "t"
      ],
      [
        "è§",
        "£"
      ],
      [
        "Ġ",
        "T"
      ],
      [
        "es",
        "s"
      ],
      [
        "æĸĩ",
        "æľ¬"
      ],
      [
        "ä¹",
        "ĭ"
      ],
      [
        "ä¹",
        "Ī"
      ],
      [
        "æĥ",
        "ħ"
      ],
      [
        "æĤ",
        "¨"
      ],
      [
        "éĹ®",
        "é¢ĺ"
      ],
      [
        "åº",
        "¦"
      ],
      [
        "o",
        "w"
      ],
      [
        "ç",
        "Ł"
      ],
      [
        "èĢ",
        "Į"
      ],
      [
        "å",
        "ī"
      ],
      [
        "æ",
        "ģ"
      ],
      [
        "Ġc",
        "an"
      ],
      [
        "è¡",
        "¨"
      ],
      [
        "ç»",
        "ı"
      ],
      [
        "æĻº",
        "èĥ½"
      ],
      [
        "Ġ",
        "is"
      ],
      [
        "è¯",
        "·"
      ],
      [
        "ç",
        "Ŀ"
      ],
      [
        "å¾",
        "Ī"
      ],
      [
        "éĹ",
        "´"
      ],
      [
        "o",
        "t"
      ],
      [
        "æŃ",
        "¤"
      ],
      [
        "è",
        "Ĭ"
      ],
      [
        "å",
        "ĸ"
      ],
      [
        "Ġ",
        "on"
      ],
      [
        "ç",
        "¾"
      ],
      [
        "Ġb",
        "e"
      ],
      [
        "l",
        "y"
      ],
      [
        "åħ",
        "¬"
      ],
      [
        "å",
        "¢"
      ],
      [
        "éĩ",
        "ı"
      ],
      [
        "åĽ",
        "½"
      ],
      [
        "ç",
        "©"
      ],
      [
        "Ġ",
        "he"
      ],
      [
        "çĤ",
        "¹"
      ],
      [
        "æľ",
        "¯"
      ],
      [
        "ç",
        "¤"
      ],
      [
        "i",
        "g"
      ],
      [
        "i",
        "f"
      ],
      [
        "èī",
        "²"
      ],
      [
        "i",
        "r"
      ],
      [
        "è",
        "Ĥ"
      ],
      [
        "èĢ",
        "ħ"
      ],
      [
        "è¯",
        "į"
      ],
      [
        "å¹",
        "´"
      ],
      [
        "u",
        "l"
      ],
      [
        "å®",
        "ŀ"
      ],
      [
        "æ°",
        "Ķ"
      ],
      [
        "å",
        "»"
      ],
      [
        "a",
        "y"
      ],
      [
        "å",
        "Ģ"
      ],
      [
        "åı",
        "ĸ"
      ],
      [
        "ä¿",
        "¡"
      ],
      [
        "è¿Ļ",
        "ä¸ª"
      ],
      [
        "ä¹",
        "ł"
      ],
      [
        "åĲ",
        "į"
      ],
      [
        "ç",
        "¨"
      ],
      [
        "å¿",
        "ĥ"
      ],
      [
        "ä½",
        "Ĩ"
      ],
      [
        "åĲ",
        "Ī"
      ],
      [
        "æĦ",
        "ı"
      ],
      [
        "è¯",
        "¥"
      ],
      [
        "ä¸",
        "ļ"
      ],
      [
        "ä¾",
        "Ľ"
      ],
      [
        "Ġc",
        "on"
      ],
      [
        "it",
        "h"
      ],
      [
        "ç",
        "ĸ"
      ],
      [
        "s",
        "t"
      ],
      [
        "è®",
        "¡"
      ],
      [
        "Ġe",
        "x"
      ],
      [
        "åĲ",
        "İ"
      ],
      [
        "ç",
        "¡"
      ],
      [
        "é",
        "Ĥ"
      ],
      [
        "äº",
        "ĭ"
      ],
      [
        "æī",
        "Ģ"
      ],
      [
        "ä»¥",
        "ä¸ĭ"
      ],
      [
        "ä»",
        "İ"
      ],
      [
        "è¿",
        "ĺ"
      ],
      [
        "å»",
        "º"
      ],
      [
        "æ",
        "®"
      ],
      [
        "çĽ",
        "¸"
      ],
      [
        "çĿ",
        "Ģ"
      ],
      [
        "m",
        "ent"
      ],
      [
        "çĲ",
        "ĥ"
      ],
      [
        "i",
        "v"
      ],
      [
        "ä¸Ģ",
        "äºĽ"
      ],
      [
        "é",
        "ĥ½"
      ],
      [
        "åĮ",
        "ħ"
      ],
      [
        "æıĲ",
        "ä¾Ľ"
      ],
      [
        "æ´",
        "»"
      ],
      [
        "ä¸",
        "İ"
      ],
      [
        "ç¾",
        "İ"
      ],
      [
        "Ġs",
        "u"
      ],
      [
        "æł",
        "¹"
      ],
      [
        "è¿Ľ",
        "è¡Į"
      ],
      [
        "æ",
        "Ł"
      ],
      [
        "Ġw",
        "ith"
      ],
      [
        "åı¥",
        "åŃĲ"
      ],
      [
        "u",
        "t"
      ],
      [
        "ç",
        "½"
      ],
      [
        "å¼",
        "ı"
      ],
      [
        "i",
        "ve"
      ],
      [
        "é£",
        "Ł"
      ],
      [
        "åħ",
        "¥"
      ],
      [
        "å±",
        "ķ"
      ],
      [
        "åħ",
        "¨"
      ],
      [
        "éĩ",
        "Į"
      ],
      [
        "è¿",
        "°"
      ],
      [
        "äºº",
        "å·¥"
      ],
      [
        "a",
        "m"
      ],
      [
        "é",
        "¡"
      ],
      [
        "å¤",
        "ĸ"
      ],
      [
        "çİ",
        "¯"
      ],
      [
        "ç",
        "ķ"
      ],
      [
        "çī",
        "¹"
      ],
      [
        "ä½¿",
        "çĶ¨"
      ],
      [
        "æĥ",
        "³"
      ],
      [
        "ç",
        "´"
      ],
      [
        "éĿ",
        "ŀ"
      ],
      [
        "è",
        "Ĳ"
      ],
      [
        "é",
        "¦"
      ],
      [
        "äººå·¥",
        "æĻºèĥ½"
      ],
      [
        "ç",
        "¯"
      ],
      [
        "åĨ",
        "ħ"
      ],
      [
        "it",
        "y"
      ],
      [
        "æŃ",
        "£"
      ],
      [
        "æ",
        "¡"
      ],
      [
        "s",
        "e"
      ],
      [
        "é",
        "ļ"
      ],
      [
        "è",
        "¢"
      ],
      [
        "å½",
        "ĵ"
      ],
      [
        "å¼",
        "Ģ"
      ],
      [
        "åİ",
        "»"
      ],
      [
        "é",
        "ķ"
      ],
      [
        "v",
        "er"
      ],
      [
        "æģ",
        "¯"
      ],
      [
        "æł¹",
        "æį®"
      ],
      [
        "æ",
        "·"
      ],
      [
        "æ°",
        "´"
      ],
      [
        "Ġc",
        "om"
      ],
      [
        "æ¯",
        "Ķ"
      ],
      [
        "åı",
        "ĺ"
      ],
      [
        "åĨ",
        "Ļ"
      ],
      [
        "æ®",
        "µ"
      ],
      [
        "æĺ¯",
        "ä¸Ģ"
      ],
      [
        "å",
        "ŀ"
      ],
      [
        "é",
        "ĥ"
      ],
      [
        "a",
        "d"
      ],
      [
        "ç³",
        "»"
      ],
      [
        "è",
        "·"
      ],
      [
        "åĬ",
        "©"
      ],
      [
        "i",
        "es"
      ],
      [
        "è",
        "ģ"
      ],
      [
        "è¯",
        "´"
      ],
      [
        "åŃ¦",
        "ä¹ł"
      ],
      [
        "ç¨",
        "ĭ"
      ],
      [
        "åĪ",
        "¶"
      ],
      [
        "at",
        "e"
      ],
      [
        "åħ",
        "·"
      ],
      [
        "ç¡",
        "®"
      ],
      [
        "u",
        "r"
      ],
      [
        "å¸",
        "Ĥ"
      ],
      [
        "è®",
        "©"
      ],
      [
        "ä»",
        "Ģ"
      ],
      [
        "Ġa",
        "s"
      ],
      [
        "Ġa",
        "n"
      ],
      [
        "u",
        "n"
      ],
      [
        "é",
        "Ľ"
      ],
      [
        "Ġ",
        "or"
      ],
      [
        "æĮ",
        "ģ"
      ],
      [
        "Ġa",
        "re"
      ],
      [
        "Ġ",
        "im"
      ],
      [
        "Ġ",
        "it"
      ],
      [
        "éģ",
        "ĵ"
      ],
      [
        "å",
        "Ŀ"
      ],
      [
        "e",
        "ct"
      ],
      [
        "çľ",
        "ĭ"
      ],
      [
        "ç¯",
        "ĩ"
      ],
      [
        "ç",
        "¼"
      ],
      [
        "g",
        "e"
      ],
      [
        "äº",
        "§"
      ],
      [
        "Ġa",
        "l"
      ],
      [
        "or",
        "t"
      ],
      [
        "Ġm",
        "o"
      ],
      [
        "èµ",
        "·"
      ],
      [
        "ç",
        "ĥ"
      ],
      [
        "a",
        "b"
      ],
      [
        "ç»",
        "ĵ"
      ],
      [
        "å",
        "ķ"
      ],
      [
        "ä»Ģ",
        "ä¹Ī"
      ],
      [
        "æĬĢ",
        "æľ¯"
      ],
      [
        "å¸",
        "®"
      ],
      [
        "è",
        "º"
      ],
      [
        "åı",
        "Ĭ"
      ],
      [
        "éĥ",
        "¨"
      ],
      [
        "è¯",
        "Ŀ"
      ],
      [
        "çĽ",
        "®"
      ],
      [
        "éĤ",
        "£"
      ],
      [
        "è",
        "ĭ"
      ],
      [
        "ç",
        "¬"
      ],
      [
        "ä½",
        "ķ"
      ],
      [
        "éķ",
        "¿"
      ],
      [
        "a",
        "k"
      ],
      [
        "éĿŀ",
        "å¸¸"
      ],
      [
        "u",
        "re"
      ],
      [
        "è",
        "į"
      ],
      [
        "åĬ",
        "¡"
      ],
      [
        "Ġ",
        "A"
      ],
      [
        "p",
        "p"
      ],
      [
        "ç®",
        "Ĺ"
      ],
      [
        "æ¯",
        "ı"
      ],
      [
        "èº",
        "«"
      ],
      [
        "Ġyou",
        "r"
      ],
      [
        "ç",
        "ĭ"
      ],
      [
        "è¢",
        "«"
      ],
      [
        "åģ",
        "¥"
      ],
      [
        "ç§",
        "ĳ"
      ],
      [
        "æĹ",
        "¥"
      ],
      [
        "å°",
        "ĳ"
      ],
      [
        "å·",
        "±"
      ],
      [
        "å",
        "Ļ"
      ],
      [
        "åī",
        "į"
      ],
      [
        "ou",
        "r"
      ],
      [
        "æĭ",
        "¬"
      ],
      [
        "é",
        "ħ"
      ],
      [
        "Ġim",
        "p"
      ],
      [
        "éĢ",
        "Ĥ"
      ],
      [
        "åĸ",
        "ľ"
      ],
      [
        "èĩª",
        "å·±"
      ],
      [
        "i",
        "al"
      ],
      [
        "åľ",
        "º"
      ],
      [
        "å®",
        "¹"
      ],
      [
        "åı",
        "Ĺ"
      ],
      [
        "åı¯",
        "èĥ½"
      ],
      [
        "æĹ",
        "ł"
      ],
      [
        "åĽ",
        "ŀ"
      ],
      [
        "æ¬",
        "¢"
      ],
      [
        "ä¿¡",
        "æģ¯"
      ],
      [
        "Ġw",
        "h"
      ],
      [
        "Ġ",
        "en"
      ],
      [
        "éĢ",
        "ī"
      ],
      [
        "åĻ",
        "¨"
      ],
      [
        "ä»ĸ",
        "ä»¬"
      ],
      [
        "åĮ",
        "»"
      ],
      [
        "äº",
        "¤"
      ],
      [
        "ou",
        "t"
      ],
      [
        "he",
        "r"
      ],
      [
        "å¥½",
        "çļĦ"
      ],
      [
        "ä»",
        "£"
      ],
      [
        "åŀ",
        "ĭ"
      ],
      [
        "u",
        "d"
      ],
      [
        "é¢",
        "Ĩ"
      ],
      [
        "åĪ",
        "«"
      ],
      [
        "è",
        "Ļ"
      ],
      [
        "ç",
        "ł"
      ],
      [
        "å¤",
        "Ħ"
      ],
      [
        "çĶµ",
        "å½±"
      ],
      [
        "o",
        "c"
      ],
      [
        "çŃ",
        "Ķ"
      ],
      [
        "Ġh",
        "a"
      ],
      [
        "è",
        "¨"
      ],
      [
        "o",
        "p"
      ],
      [
        "é",
        "¥"
      ],
      [
        "Ġd",
        "e"
      ],
      [
        "é",
        "ª"
      ],
      [
        "ç",
        "Ī"
      ],
      [
        "t",
        "h"
      ],
      [
        "æ",
        "¶"
      ],
      [
        "Ġ",
        "us"
      ],
      [
        "ä½",
        "į"
      ],
      [
        "åĪ",
        "©"
      ],
      [
        "è´",
        "¨"
      ],
      [
        "æ",
        "»"
      ],
      [
        "è®",
        "®"
      ],
      [
        "é£",
        "İ"
      ],
      [
        "å¹",
        "³"
      ],
      [
        "å¢",
        "ĥ"
      ],
      [
        "ä¸",
        "¤"
      ],
      [
        "æ¡",
        "Ī"
      ],
      [
        "æī",
        "ĭ"
      ],
      [
        "ç",
        "Ĺ"
      ],
      [
        "ĠT",
        "he"
      ],
      [
        "å",
        "§"
      ],
      [
        "ä¾",
        "ĭ"
      ],
      [
        "è¿Ļ",
        "äºĽ"
      ],
      [
        "Ġ",
        "le"
      ],
      [
        "éĢļ",
        "è¿ĩ"
      ],
      [
        "éĩį",
        "è¦ģ"
      ],
      [
        "å¦Ĥ",
        "æŀľ"
      ],
      [
        "ä¸Ń",
        "çļĦ"
      ],
      [
        "é",
        "Ł"
      ],
      [
        "ä»",
        "»"
      ],
      [
        "q",
        "u"
      ],
      [
        "åĵ",
        "į"
      ],
      [
        "ä»",
        "¶"
      ],
      [
        "çĶŁ",
        "æĪĲ"
      ],
      [
        "åĮħ",
        "æĭ¬"
      ],
      [
        "an",
        "t"
      ],
      [
        "è®",
        "º"
      ],
      [
        "åŃ",
        "Ĺ"
      ],
      [
        "åı",
        "¸"
      ],
      [
        "åŁ",
        "Ł"
      ],
      [
        "åıĳ",
        "å±ķ"
      ],
      [
        "è¨",
        "Ģ"
      ],
      [
        "ç",
        "Ļ"
      ],
      [
        "Ġ",
        "v"
      ],
      [
        "åºĶ",
        "çĶ¨"
      ],
      [
        "å°ı",
        "æĺİ"
      ],
      [
        "å°",
        "±"
      ],
      [
        "æł",
        "ĩ"
      ],
      [
        "Ġc",
        "h"
      ],
      [
        "ç®",
        "Ģ"
      ],
      [
        "æ±",
        "Ĥ"
      ],
      [
        "æ²",
        "¡"
      ],
      [
        "åĪ",
        "Ľ"
      ],
      [
        "åį",
        "ķ"
      ],
      [
        "Ġw",
        "or"
      ],
      [
        "Ġ",
        "S"
      ],
      [
        "åĨ",
        "³"
      ],
      [
        "è§",
        "Ĥ"
      ],
      [
        "t",
        "er"
      ],
      [
        "æĶ",
        "¹"
      ],
      [
        "l",
        "d"
      ],
      [
        "æĶ",
        "¾"
      ],
      [
        "Ġ",
        "C"
      ],
      [
        "æİ",
        "¨"
      ],
      [
        "æ¸",
        "¸"
      ],
      [
        "a",
        "c"
      ],
      [
        "e",
        "re"
      ],
      [
        "è",
        "Ī"
      ],
      [
        "ç",
        "ģ"
      ],
      [
        "åı",
        "ª"
      ],
      [
        "æľ",
        "ª"
      ],
      [
        "è®",
        "¾"
      ],
      [
        "å½±",
        "åĵį"
      ],
      [
        "Ġn",
        "e"
      ],
      [
        "çŁ",
        "¥"
      ],
      [
        "us",
        "t"
      ],
      [
        "åº",
        "·"
      ],
      [
        "ç»",
        "Ł"
      ],
      [
        "ä¸",
        "ī"
      ],
      [
        "æĹ¶",
        "éĹ´"
      ],
      [
        "a",
        "in"
      ],
      [
        "å¸®",
        "åĬ©"
      ],
      [
        "æĢ",
        "»"
      ],
      [
        "ç",
        "¥"
      ],
      [
        "Ġthe",
        "ir"
      ],
      [
        "æľ",
        "Ł"
      ],
      [
        "é",
        "»"
      ],
      [
        "å",
        "£"
      ],
      [
        "åĸľ",
        "æ¬¢"
      ],
      [
        "æ",
        "º"
      ],
      [
        "p",
        "l"
      ],
      [
        "ä¹",
        "Ĳ"
      ],
      [
        "èĬ",
        "Ĥ"
      ],
      [
        "åħ¬",
        "åı¸"
      ],
      [
        "æı",
        "ı"
      ],
      [
        "æķ",
        "Ī"
      ],
      [
        "è¯",
        "Ĩ"
      ],
      [
        "åģ¥",
        "åº·"
      ],
      [
        "re",
        "s"
      ],
      [
        "il",
        "l"
      ],
      [
        "æµ",
        "·"
      ],
      [
        "æ",
        "¨"
      ],
      [
        "å¼",
        "º"
      ],
      [
        "å¤",
        "Ł"
      ],
      [
        "è",
        "ĥ"
      ],
      [
        "Ġt",
        "e"
      ],
      [
        "ç»Ļ",
        "å®ļ"
      ],
      [
        "ç¤",
        "¾"
      ],
      [
        "æĸ",
        "Ń"
      ],
      [
        "åĩ",
        "ı"
      ],
      [
        "om",
        "e"
      ],
      [
        "äºº",
        "ç±»"
      ],
      [
        "Ġm",
        "e"
      ],
      [
        "æ",
        "ĳ"
      ],
      [
        "æ³",
        "¨"
      ],
      [
        "æŀ",
        "ģ"
      ],
      [
        "å®",
        "ī"
      ],
      [
        "é¢Ĩ",
        "åŁŁ"
      ],
      [
        "çĶŁ",
        "æ´»"
      ],
      [
        "æ",
        "¼"
      ],
      [
        "o",
        "g"
      ],
      [
        "æľ",
        "į"
      ],
      [
        "è¾",
        "¾"
      ],
      [
        "æ·",
        "±"
      ],
      [
        "çĶ",
        "±"
      ],
      [
        "æł",
        "·"
      ],
      [
        "es",
        "t"
      ],
      [
        "çĸ",
        "Ĺ"
      ],
      [
        "d",
        "u"
      ],
      [
        "åĽł",
        "æŃ¤"
      ],
      [
        "çİ¯",
        "å¢ĥ"
      ],
      [
        "ä¸į",
        "åĲĮ"
      ],
      [
        "æŃ",
        "¥"
      ],
      [
        "å·¥",
        "ä½ľ"
      ],
      [
        "æĺ",
        "Ł"
      ],
      [
        "è",
        "±"
      ],
      [
        "è",
        "Ħ"
      ],
      [
        "é",
        "©"
      ],
      [
        "'",
        "s"
      ],
      [
        "Ġha",
        "ve"
      ],
      [
        "éŁ",
        "³"
      ],
      [
        "å¤",
        "ª"
      ],
      [
        "æķ°",
        "æį®"
      ],
      [
        "æµ",
        "ģ"
      ],
      [
        "å½",
        "¢"
      ],
      [
        "åİ",
        "Ł"
      ],
      [
        "åģ",
        "ļ"
      ],
      [
        "ä¸",
        "ĸ"
      ],
      [
        "Ġin",
        "c"
      ],
      [
        "å·",
        "²"
      ],
      [
        "è",
        "İ"
      ],
      [
        "æıĲ",
        "åıĸ"
      ],
      [
        "i",
        "z"
      ],
      [
        "æĻ",
        "¯"
      ],
      [
        "è½",
        "¦"
      ],
      [
        "a",
        "ct"
      ],
      [
        "åı",
        "ĭ"
      ],
      [
        "æıı",
        "è¿°"
      ],
      [
        "æ²¡",
        "æľī"
      ],
      [
        "å¸",
        "¦"
      ],
      [
        "ion",
        "s"
      ],
      [
        "æĪ",
        "·"
      ],
      [
        "åĽł",
        "ä¸º"
      ],
      [
        "å¯",
        "¼"
      ],
      [
        "o",
        "d"
      ],
      [
        "è¿",
        "Ĳ"
      ],
      [
        "æ¬",
        "¡"
      ],
      [
        "o",
        "s"
      ],
      [
        "is",
        "t"
      ],
      [
        "åĳ",
        "ĺ"
      ],
      [
        "ç",
        "Į"
      ],
      [
        "ç",
        "²"
      ],
      [
        "é",
        "Ĵ"
      ],
      [
        "è",
        "ı"
      ],
      [
        "Ġa",
        "d"
      ],
      [
        "å»º",
        "è®®"
      ],
      [
        "æ¨",
        "¡"
      ],
      [
        "æĸ",
        "Ļ"
      ],
      [
        "f",
        "f"
      ],
      [
        "éĶ",
        "®"
      ],
      [
        "æıĲ",
        "é«ĺ"
      ],
      [
        "è¯",
        "ķ"
      ],
      [
        "èĩª",
        "çĦ¶"
      ],
      [
        "å®ĥ",
        "ä»¬"
      ],
      [
        "l",
        "p"
      ],
      [
        "åŁ",
        "º"
      ],
      [
        "æī",
        "¾"
      ],
      [
        "ãĢ",
        "ĭ"
      ],
      [
        "å¦Ĥ",
        "ä½ķ"
      ],
      [
        "ãĢ",
        "Ĭ"
      ],
      [
        "è®",
        "¤"
      ],
      [
        "Ġhe",
        "lp"
      ],
      [
        "åİ",
        "Ĩ"
      ],
      [
        "ä¹",
        "ī"
      ],
      [
        "Ġmo",
        "re"
      ],
      [
        "æĽ´",
        "åĬł"
      ],
      [
        "åŁ",
        "İ"
      ],
      [
        "å¥",
        "¹"
      ],
      [
        "id",
        "e"
      ],
      [
        "ä¼",
        "ł"
      ],
      [
        "æº",
        "Ĳ"
      ],
      [
        "ig",
        "h"
      ],
      [
        "åĲ",
        "Ħ"
      ],
      [
        "ä¸»",
        "è¦ģ"
      ],
      [
        "a",
        "re"
      ],
      [
        "åħ³",
        "éĶ®"
      ],
      [
        "ç¤",
        "º"
      ],
      [
        "æĬ",
        "¤"
      ],
      [
        "æĭ",
        "©"
      ],
      [
        "æĮ",
        "ĩ"
      ],
      [
        "åºĶ",
        "è¯¥"
      ],
      [
        "åĲ",
        "ĳ"
      ],
      [
        "éĢ",
        "ł"
      ],
      [
        "æł",
        "¼"
      ],
      [
        "ç»",
        "Ħ"
      ],
      [
        "éĢī",
        "æĭ©"
      ],
      [
        "çķ",
        "Į"
      ],
      [
        "åħ",
        "ī"
      ],
      [
        "çļĦæ",
        "ķ"
      ],
      [
        "Ġs",
        "h"
      ],
      [
        "æĸ¹",
        "å¼ı"
      ],
      [
        "æĹ",
        "ħ"
      ],
      [
        "åĲĮ",
        "æĹ¶"
      ],
      [
        "è¿",
        "ĳ"
      ],
      [
        "n",
        "t"
      ],
      [
        "p",
        "er"
      ],
      [
        "2",
        "0"
      ],
      [
        "èĥ½",
        "å¤Ł"
      ],
      [
        "r",
        "i"
      ],
      [
        "ç¯ĩ",
        "æĸĩç«ł"
      ],
      [
        "èĲ",
        "½"
      ],
      [
        "Ġa",
        "b"
      ],
      [
        "ç©",
        "¶"
      ],
      [
        "è",
        "£"
      ],
      [
        "åĨħ",
        "å®¹"
      ],
      [
        "è°",
        "ĥ"
      ],
      [
        "al",
        "l"
      ],
      [
        "äºº",
        "ä»¬"
      ],
      [
        "p",
        "e"
      ],
      [
        "åı",
        "£"
      ],
      [
        "çĪ",
        "±"
      ],
      [
        "ï¼",
        "Ľ"
      ],
      [
        "è¯Ń",
        "è¨Ģ"
      ],
      [
        "è§",
        "Ĩ"
      ],
      [
        "ç©",
        "º"
      ],
      [
        "åĳ",
        "³"
      ],
      [
        "çº",
        "¢"
      ],
      [
        "åĮ",
        "º"
      ],
      [
        "èĢ",
        "ĥ"
      ],
      [
        "ä»",
        "·"
      ],
      [
        "åĲ",
        "Ĺ"
      ],
      [
        "åħ³",
        "äºİ"
      ],
      [
        "ç",
        "Ĭ"
      ],
      [
        "ç½",
        "ĳ"
      ],
      [
        "èĬ",
        "±"
      ],
      [
        "åĳ",
        "Ĭ"
      ],
      [
        "æĺ¯",
        "ä¸Ģä¸ª"
      ],
      [
        "ä¾ĭ",
        "å¦Ĥ"
      ],
      [
        "æľª",
        "æĿ¥"
      ],
      [
        "çĹ",
        "ħ"
      ],
      [
        "é",
        "¤"
      ],
      [
        "è®¡",
        "ç®Ĺ"
      ],
      [
        "å¿",
        "«"
      ],
      [
        "å¹",
        "¿"
      ],
      [
        "æľº",
        "åĻ¨"
      ],
      [
        "æĸ¹",
        "æ³ķ"
      ],
      [
        "ç®",
        "¡"
      ],
      [
        "æĸ¹",
        "éĿ¢"
      ],
      [
        "ab",
        "le"
      ],
      [
        "é¢",
        "Ħ"
      ],
      [
        "å¢",
        "ŀ"
      ],
      [
        "ï¼",
        "ī"
      ],
      [
        "éª",
        "Į"
      ],
      [
        "åķ",
        "Ĩ"
      ],
      [
        "é¤",
        "Ĳ"
      ],
      [
        "æĢ",
        "Ŀ"
      ],
      [
        "Ķ",
        "ç©¶"
      ],
      [
        "ç",
        "¦"
      ],
      [
        "ä¹",
        "¦"
      ],
      [
        "ä¸",
        "Ķ"
      ],
      [
        "ar",
        "t"
      ],
      [
        "ation",
        "s"
      ],
      [
        "Ġ",
        "r"
      ],
      [
        "åĩ",
        "Ĩ"
      ],
      [
        "å®",
        "Į"
      ],
      [
        "åĩ",
        "ł"
      ],
      [
        "é¦",
        "ĸ"
      ],
      [
        "Ġw",
        "e"
      ],
      [
        "ou",
        "ld"
      ],
      [
        "é",
        "ĵ"
      ],
      [
        "å®",
        "¢"
      ],
      [
        "åĪ°",
        "äºĨ"
      ],
      [
        "éĶ",
        "Ļ"
      ],
      [
        "é¡",
        "¹"
      ],
      [
        "e",
        "m"
      ],
      [
        "Ġh",
        "as"
      ],
      [
        "åħ¶",
        "ä»ĸ"
      ],
      [
        "ä¼",
        "ĺ"
      ],
      [
        "ic",
        "al"
      ],
      [
        "or",
        "m"
      ],
      [
        "è¶",
        "Ĭ"
      ],
      [
        "ä»¥",
        "åıĬ"
      ],
      [
        "ä¸»",
        "é¢ĺ"
      ],
      [
        "an",
        "ce"
      ],
      [
        "r",
        "it"
      ],
      [
        "é",
        "¸"
      ],
      [
        "å¼",
        "ķ"
      ],
      [
        "éĩ",
        "ĳ"
      ],
      [
        "è®",
        "¸"
      ],
      [
        "è¯",
        "Ħ"
      ],
      [
        "a",
        "ge"
      ],
      [
        "æ",
        "ļ"
      ],
      [
        "Ġ",
        "H"
      ],
      [
        "æ¸",
        "ħ"
      ],
      [
        "åħ",
        "Ī"
      ],
      [
        "c",
        "c"
      ],
      [
        "åĬ",
        "Ł"
      ],
      [
        "ç´",
        "ł"
      ],
      [
        "æ",
        "£"
      ],
      [
        "Ġwor",
        "k"
      ],
      [
        "å¤",
        "ĩ"
      ],
      [
        "è½",
        "»"
      ],
      [
        "en",
        "ce"
      ],
      [
        "æİ",
        "¥"
      ],
      [
        "è§",
        "ī"
      ],
      [
        "Ġcom",
        "p"
      ],
      [
        "ï¼",
        "Ī"
      ],
      [
        "åĪ",
        "Ĺ"
      ],
      [
        "Ġ",
        "W"
      ],
      [
        "è¯",
        "»"
      ],
      [
        "èµ",
        "Ħ"
      ],
      [
        "æĪ",
        "ĺ"
      ],
      [
        "ro",
        "m"
      ],
      [
        "ul",
        "t"
      ],
      [
        "è",
        "Į"
      ],
      [
        "r",
        "ou"
      ],
      [
        "Ġm",
        "y"
      ],
      [
        "åĪĨ",
        "ç±»"
      ],
      [
        "å§",
        "ĭ"
      ],
      [
        "ä»",
        "Ĭ"
      ],
      [
        "Ġpro",
        "v"
      ],
      [
        "Ġ",
        "M"
      ],
      [
        "ä¸ª",
        "äºº"
      ],
      [
        "éĺ",
        "³"
      ],
      [
        "çŁ",
        "Ń"
      ],
      [
        "èĩ",
        "´"
      ],
      [
        "åŃ",
        "ĺ"
      ],
      [
        "åĵ",
        "ª"
      ],
      [
        "æµ",
        "ĭ"
      ],
      [
        "Ġw",
        "as"
      ],
      [
        "æķ",
        "Ļ"
      ],
      [
        "p",
        "t"
      ],
      [
        "Ġ",
        "P"
      ],
      [
        "æĢ",
        "ģ"
      ],
      [
        "Ġ",
        "B"
      ],
      [
        "Ġre",
        "s"
      ],
      [
        "Ġs",
        "e"
      ],
      [
        "ç»",
        "Ń"
      ],
      [
        "æ¸",
        "©"
      ],
      [
        "t",
        "her"
      ],
      [
        "åĢ",
        "Ļ"
      ],
      [
        "f",
        "orm"
      ],
      [
        "ï¼",
        "ģ"
      ],
      [
        "ak",
        "e"
      ],
      [
        "æŀ",
        "Ĳ"
      ],
      [
        "æľ",
        "ĭ"
      ],
      [
        "ç¼",
        "ĸ"
      ],
      [
        "a",
        "nd"
      ],
      [
        "ä¸ĸ",
        "çķĮ"
      ],
      [
        "åħ",
        "±"
      ],
      [
        "ä½Ĩ",
        "æĺ¯"
      ],
      [
        "åĲ",
        "«"
      ],
      [
        "æľ",
        "Ī"
      ],
      [
        "Ġf",
        "e"
      ],
      [
        "c",
        "es"
      ],
      [
        "èı",
        "ľ"
      ],
      [
        "æľĭ",
        "åıĭ"
      ],
      [
        "Ġe",
        "m"
      ],
      [
        "çº",
        "¦"
      ],
      [
        "åħ",
        "ĭ"
      ],
      [
        "re",
        "at"
      ],
      [
        "Ġb",
        "y"
      ],
      [
        "ç«",
        "ĭ"
      ],
      [
        "ç§",
        "¯"
      ],
      [
        "if",
        "ic"
      ],
      [
        "çİ",
        "ĩ"
      ],
      [
        "Ġ",
        "u"
      ],
      [
        "ve",
        "l"
      ],
      [
        "åĽŀ",
        "çŃĶ"
      ],
      [
        "æĸĩ",
        "åĮĸ"
      ],
      [
        "åĪĨ",
        "æŀĲ"
      ],
      [
        "å¤Ħ",
        "çĲĨ"
      ],
      [
        "åı",
        "²"
      ],
      [
        "ç»",
        "Ĩ"
      ],
      [
        "çļĦæ",
        "ĥ"
      ],
      [
        "ĠT",
        "h"
      ],
      [
        "Ġp",
        "l"
      ],
      [
        "u",
        "m"
      ],
      [
        "ä¸Ģ",
        "ä¸ĭ"
      ],
      [
        "s",
        "o"
      ],
      [
        "i",
        "p"
      ],
      [
        "æĶ",
        "¯"
      ],
      [
        "åĩı",
        "å°ĳ"
      ],
      [
        "åŁİ",
        "å¸Ĥ"
      ],
      [
        "è±",
        "¡"
      ],
      [
        "å±",
        "±"
      ],
      [
        "ä¹ĭ",
        "ä¸Ģ"
      ],
      [
        "a",
        "g"
      ],
      [
        "è¶",
        "³"
      ],
      [
        "è¿Ļ",
        "ç¯ĩæĸĩç«ł"
      ],
      [
        "1",
        "0"
      ],
      [
        "ä¸Ń",
        "åĽ½"
      ],
      [
        "æķ",
        "´"
      ],
      [
        "åĲ",
        "¦"
      ],
      [
        "ig",
        "n"
      ],
      [
        "å¤",
        "į"
      ],
      [
        "ç¬",
        "¬"
      ],
      [
        "Ġ",
        "è¯·"
      ],
      [
        "åĪ",
        "Ļ"
      ],
      [
        "æ»",
        "¡"
      ],
      [
        "åĨ",
        "µ"
      ],
      [
        "Ġin",
        "t"
      ],
      [
        "ä¿Ŀ",
        "æĬ¤"
      ],
      [
        "çł",
        "Ķç©¶"
      ],
      [
        "ĺ",
        "è¦ģ"
      ],
      [
        "k",
        "e"
      ],
      [
        "è",
        "ĳ"
      ],
      [
        "al",
        "th"
      ],
      [
        "åħ",
        "ĥ"
      ],
      [
        "è§",
        "Ĵ"
      ],
      [
        "ç¥",
        "ŀ"
      ],
      [
        "é¥",
        "®"
      ],
      [
        "å·²",
        "ç»ı"
      ],
      [
        "å",
        "ĥ"
      ],
      [
        "Ġf",
        "rom"
      ],
      [
        "in",
        "e"
      ],
      [
        "æľ",
        "Ľ"
      ],
      [
        "è®¸",
        "å¤ļ"
      ],
      [
        "æİ",
        "¢"
      ],
      [
        "äºĨ",
        "ä¸Ģ"
      ],
      [
        "èĩªå·±",
        "çļĦ"
      ],
      [
        "ä¸¤",
        "ä¸ª"
      ],
      [
        "res",
        "s"
      ],
      [
        "g",
        "h"
      ],
      [
        "ç³",
        "ĸ"
      ],
      [
        "i",
        "e"
      ],
      [
        "éĩ",
        "ĩ"
      ],
      [
        "u",
        "al"
      ],
      [
        "ç",
        "¿"
      ],
      [
        "åı",
        "į"
      ],
      [
        "è°",
        "¢"
      ],
      [
        "èĢ",
        "ģ"
      ],
      [
        "äº§",
        "åĵģ"
      ],
      [
        "çº",
        "¿"
      ],
      [
        "åĪ",
        "Ĵ"
      ],
      [
        "Ġal",
        "so"
      ],
      [
        "è¾",
        "ĵ"
      ],
      [
        "çľ",
        "Ł"
      ],
      [
        "Ġs",
        "ome"
      ],
      [
        "åĮ»",
        "çĸĹ"
      ],
      [
        "Ġcom",
        "m"
      ],
      [
        "æŃ¤",
        "å¤ĸ"
      ],
      [
        "çĭ",
        "Ĺ"
      ],
      [
        "ç³»",
        "ç»Ł"
      ],
      [
        "Ġ",
        "E"
      ],
      [
        "æĽ´",
        "å¤ļ"
      ],
      [
        "è§",
        "Ħ"
      ],
      [
        "å°",
        "½"
      ],
      [
        "éĢ",
        "Ł"
      ],
      [
        "å",
        "Ķ"
      ],
      [
        "ç",
        "ħ"
      ],
      [
        "ion",
        "al"
      ],
      [
        "è¶",
        "£"
      ],
      [
        "è·",
        "¯"
      ],
      [
        "éĻ",
        "©"
      ],
      [
        "å¥",
        "³"
      ],
      [
        "åı",
        "Ĥ"
      ],
      [
        "ch",
        "n"
      ],
      [
        "igh",
        "t"
      ],
      [
        "çļĦ",
        "äºº"
      ],
      [
        "èģ",
        "Ķ"
      ],
      [
        "åĲ",
        "ĥ"
      ],
      [
        "ä»",
        "½"
      ],
      [
        "ä¿Ŀ",
        "æĮģ"
      ],
      [
        "Ġ",
        "\""
      ],
      [
        "æĸ",
        "¯"
      ],
      [
        "è",
        "¥"
      ],
      [
        "in",
        "d"
      ],
      [
        "åħ¨",
        "çĲĥ"
      ],
      [
        "æĺ¯ä¸Ģ",
        "ç§į"
      ],
      [
        "æĬ",
        "¥"
      ],
      [
        "æĺ",
        "ĵ"
      ],
      [
        "çĽ",
        "´"
      ],
      [
        "Ġcon",
        "t"
      ],
      [
        "åĬ¨",
        "çī©"
      ],
      [
        "Â",
        "·"
      ],
      [
        "çĻ",
        "½"
      ],
      [
        "æľį",
        "åĬ¡"
      ],
      [
        "åĢ",
        "¼"
      ],
      [
        "å¤",
        "´"
      ],
      [
        "ol",
        "og"
      ],
      [
        "è¥",
        "¿"
      ],
      [
        "æĸ",
        "½"
      ],
      [
        "è§£",
        "åĨ³"
      ],
      [
        "æİ",
        "Ĵ"
      ],
      [
        "æĪĲ",
        "ä¸º"
      ],
      [
        "el",
        "l"
      ],
      [
        "åĨ",
        "į"
      ],
      [
        "ħ",
        "äºĭ"
      ],
      [
        "Ġ",
        "j"
      ],
      [
        "Ġa",
        "t"
      ],
      [
        "åĥ",
        "ı"
      ],
      [
        "çĥ",
        "Ń"
      ],
      [
        "çİ¯",
        "ä¿Ŀ"
      ],
      [
        "ä»",
        "ĭ"
      ],
      [
        "åĽ",
        "¾"
      ],
      [
        "æ´»",
        "åĬ¨"
      ],
      [
        "å",
        "²"
      ],
      [
        "Ġin",
        "d"
      ],
      [
        "éļ",
        "¾"
      ],
      [
        "ä¹",
        "°"
      ],
      [
        "ä¾",
        "¿"
      ],
      [
        "Ġ",
        "F"
      ],
      [
        "Ġhe",
        "alth"
      ],
      [
        "r",
        "u"
      ],
      [
        "åĳ",
        "¨"
      ],
      [
        "Ġab",
        "out"
      ],
      [
        "æĪĸ",
        "èĢħ"
      ],
      [
        "çļĦ",
        "ä¸Ģ"
      ],
      [
        "æŁ",
        "¥"
      ],
      [
        "èİ",
        "·"
      ],
      [
        "è¾",
        "ĥ"
      ],
      [
        "èĻ",
        "ĳ"
      ],
      [
        "æŀ",
        "Ħ"
      ],
      [
        "æĿ",
        "¡"
      ],
      [
        "ç¤¾",
        "ä¼ļ"
      ],
      [
        "å®ī",
        "åħ¨"
      ],
      [
        "è¿Ĳ",
        "åĬ¨"
      ],
      [
        "è§",
        "ģ"
      ],
      [
        "çī",
        "ĩ"
      ],
      [
        "pp",
        "ort"
      ],
      [
        "åĲ",
        "¬"
      ],
      [
        "èº«",
        "ä½ĵ"
      ],
      [
        "Ġh",
        "ow"
      ],
      [
        "ç»Ļ",
        "æĪĳ"
      ],
      [
        "ĠTh",
        "is"
      ],
      [
        "è¯",
        "Ĺ"
      ],
      [
        "åıĳ",
        "çİ°"
      ],
      [
        "èĩ",
        "³"
      ],
      [
        "æ",
        "Ĳ"
      ],
      [
        "çļĦæĥ",
        "ħ"
      ],
      [
        "æ¼",
        "Ķ"
      ],
      [
        "éħ",
        "į"
      ],
      [
        "éļ",
        "ı"
      ],
      [
        "Ġd",
        "is"
      ],
      [
        "it",
        "ies"
      ],
      [
        "Ġo",
        "ther"
      ],
      [
        "åıĺ",
        "åĮĸ"
      ],
      [
        "ent",
        "s"
      ],
      [
        "çİ°",
        "åľ¨"
      ],
      [
        "ãĢĤ",
        "âĢĿ"
      ],
      [
        "æī",
        "ĵ"
      ],
      [
        "ic",
        "h"
      ],
      [
        "ç§ĳ",
        "æĬĢ"
      ],
      [
        "ç»",
        "ĥ"
      ],
      [
        "åħ¶",
        "ä¸Ń"
      ],
      [
        "Ġte",
        "chn"
      ],
      [
        "åº",
        "ı"
      ],
      [
        "ar",
        "d"
      ],
      [
        "æĶ",
        "¶"
      ],
      [
        "çĬ",
        "¶"
      ],
      [
        "è®¤",
        "ä¸º"
      ],
      [
        "å¼",
        "ł"
      ],
      [
        "èĤ",
        "²"
      ],
      [
        "ä¸",
        "½"
      ],
      [
        "å¤©",
        "æ°Ķ"
      ],
      [
        "ç´",
        "¢"
      ],
      [
        "éĤ£",
        "ä¹Ī"
      ],
      [
        "æĪĳä»¬",
        "çļĦ"
      ],
      [
        "åĳ",
        "½"
      ],
      [
        "ä¹ĭ",
        "éĹ´"
      ],
      [
        "äº",
        "«"
      ],
      [
        "æĬ",
        "Ĭ"
      ],
      [
        "ç²",
        "¾"
      ],
      [
        "è®",
        "°"
      ],
      [
        "æ¶",
        "Ī"
      ],
      [
        "¹",
        "æŀľ"
      ],
      [
        "æ",
        "ħ"
      ],
      [
        "åħ",
        "ħ"
      ],
      [
        "Ġsu",
        "ch"
      ],
      [
        "èĥ½",
        "åĬĽ"
      ],
      [
        "çĽ¸",
        "åħ³"
      ],
      [
        "äº",
        "Į"
      ],
      [
        "ä½ł",
        "çļĦ"
      ],
      [
        "èĭ",
        "¹æŀľ"
      ],
      [
        "åİĨ",
        "åı²"
      ],
      [
        "Ġe",
        "ff"
      ],
      [
        "æĶ",
        "¿"
      ],
      [
        "åĲ",
        "¸"
      ],
      [
        "å¾Ī",
        "å¤ļ"
      ],
      [
        "åı",
        "¤"
      ],
      [
        "Ġinc",
        "l"
      ],
      [
        "çŃ",
        "ĸ"
      ],
      [
        "Ġ",
        "our"
      ],
      [
        "å",
        "¡"
      ],
      [
        "å¸¦",
        "æĿ¥"
      ],
      [
        "ç",
        "ı"
      ],
      [
        "æ",
        "¤"
      ],
      [
        "ac",
        "k"
      ],
      [
        "i",
        "b"
      ],
      [
        "æĳ",
        "ĺè¦ģ"
      ],
      [
        "åĽ",
        "Ń"
      ],
      [
        "åħ·",
        "æľī"
      ],
      [
        "è´",
        "Ń"
      ],
      [
        "ç",
        "¢"
      ],
      [
        "an",
        "s"
      ],
      [
        "åħ",
        "´"
      ],
      [
        "f",
        "ul"
      ],
      [
        "éĺ",
        "Ł"
      ],
      [
        "å¸",
        "Ī"
      ],
      [
        "a",
        "ch"
      ],
      [
        "ä½",
        "İ"
      ],
      [
        "å¤",
        "±"
      ],
      [
        "Ġn",
        "ot"
      ],
      [
        "éĹ",
        "¨"
      ],
      [
        "çĮ",
        "«"
      ],
      [
        "im",
        "e"
      ],
      [
        "ic",
        "e"
      ],
      [
        "Ġp",
        "ers"
      ],
      [
        "æ¬",
        "¾"
      ],
      [
        "Ġt",
        "ra"
      ],
      [
        "ç»",
        "´"
      ],
      [
        "ou",
        "s"
      ],
      [
        "æ²",
        "»"
      ],
      [
        "o",
        "re"
      ],
      [
        "åį",
        "³"
      ],
      [
        "ç»Ļå®ļ",
        "çļĦ"
      ],
      [
        "éĹ",
        "»"
      ],
      [
        "ç§ĳ",
        "åŃ¦"
      ],
      [
        "ç§",
        "°"
      ],
      [
        "å¸",
        "ĥ"
      ],
      [
        "æ",
        "¢"
      ],
      [
        "Ġ",
        "R"
      ],
      [
        "çĭ",
        "¬"
      ],
      [
        "åħ",
        "į"
      ],
      [
        "Ġex",
        "per"
      ],
      [
        "æŃ",
        "Į"
      ],
      [
        "Ġs",
        "pe"
      ],
      [
        "è¯",
        "ī"
      ],
      [
        "Ġg",
        "o"
      ],
      [
        "Ġth",
        "is"
      ],
      [
        "äº",
        "Ĵ"
      ],
      [
        "å",
        "ĭ"
      ],
      [
        "éĩ",
        "Ĭ"
      ],
      [
        "Ġm",
        "an"
      ],
      [
        "èį",
        "Ĳ"
      ],
      [
        "Ġs",
        "oc"
      ],
      [
        "éŁ³",
        "ä¹Ĳ"
      ],
      [
        "ç»Ļ",
        "åĩº"
      ],
      [
        "å°",
        "Ŀ"
      ],
      [
        "a",
        "il"
      ],
      [
        "çļĦæ",
        "Ħ"
      ],
      [
        "¦",
        "Ĥ"
      ],
      [
        "çŃĶ",
        "æ¡Ī"
      ],
      [
        "æī",
        "į"
      ],
      [
        "Ġal",
        "l"
      ],
      [
        "æĿ",
        "Ĳ"
      ],
      [
        "è¿Ļ",
        "ç§į"
      ],
      [
        "è®¾",
        "è®¡"
      ],
      [
        "ç§¯",
        "æŀģ"
      ],
      [
        "ç»",
        "į"
      ],
      [
        "å¼Ģ",
        "å§ĭ"
      ],
      [
        "ä»»",
        "åĬ¡"
      ],
      [
        "Ġ",
        "D"
      ],
      [
        "èĲ",
        "¥"
      ],
      [
        "äºĨ",
        "è§£"
      ],
      [
        "d",
        "it"
      ],
      [
        "æĿ",
        "¾"
      ],
      [
        "éĽ",
        "Ĩ"
      ],
      [
        "è¡¨",
        "è¾¾"
      ],
      [
        "Ġwh",
        "ich"
      ],
      [
        "ä»ĭ",
        "ç»į"
      ],
      [
        "Ġex",
        "am"
      ],
      [
        "ä¸Ń",
        "æıĲåıĸ"
      ],
      [
        "åı¥",
        "è¯Ŀ"
      ],
      [
        "çļĦ",
        "å½±åĵį"
      ],
      [
        "Ġa",
        "pp"
      ],
      [
        "å¯¼",
        "èĩ´"
      ],
      [
        "å¯",
        "Į"
      ],
      [
        "as",
        "t"
      ],
      [
        "è¯",
        "¯"
      ],
      [
        "åŃ",
        "£"
      ],
      [
        "å¿",
        "ħ"
      ],
      [
        "å",
        "¨"
      ],
      [
        "è",
        "Ľ"
      ],
      [
        "å¯¹",
        "äºİ"
      ],
      [
        "æ¨¡",
        "åŀĭ"
      ],
      [
        "Ġ",
        "Ġ"
      ],
      [
        "åħ·",
        "ä½ĵ"
      ],
      [
        "è®¡ç®Ĺ",
        "æľº"
      ],
      [
        "r",
        "y"
      ],
      [
        "èĭ",
        "±"
      ],
      [
        "Ġc",
        "l"
      ],
      [
        "Ġst",
        "ud"
      ],
      [
        "çĶ",
        "·"
      ],
      [
        "o",
        "o"
      ],
      [
        "æĥħ",
        "æĦŁ"
      ],
      [
        "æľºåĻ¨",
        "åŃ¦ä¹ł"
      ],
      [
        "çĲĨ",
        "è§£"
      ],
      [
        "ar",
        "n"
      ],
      [
        "Ġ",
        "æł¹æį®"
      ],
      [
        "æİ¨",
        "èįĲ"
      ],
      [
        "çļĦæ",
        "Ĭ"
      ],
      [
        "è½",
        "¬"
      ],
      [
        "if",
        "f"
      ],
      [
        "å®ŀ",
        "çİ°"
      ],
      [
        "as",
        "e"
      ],
      [
        "æľĢ",
        "è¿ĳ"
      ],
      [
        "æĸ°",
        "çļĦ"
      ],
      [
        "Ġincl",
        "ud"
      ],
      [
        "æĺ¯",
        "åĲ¦"
      ],
      [
        "éĢļ",
        "å¸¸"
      ],
      [
        "Ġw",
        "he"
      ],
      [
        "åı",
        "·"
      ],
      [
        "Ġcomm",
        "un"
      ],
      [
        "åį",
        "ĩ"
      ],
      [
        "åİ",
        "ĭ"
      ],
      [
        "è®",
        "¨"
      ],
      [
        "é¦",
        "Ļ"
      ],
      [
        "e",
        "nd"
      ],
      [
        "Ġthe",
        "y"
      ],
      [
        "éĻ",
        "¤"
      ],
      [
        "Ġa",
        "cc"
      ],
      [
        "èµ",
        "Ľ"
      ],
      [
        "åĬ",
        "¿"
      ],
      [
        "è®",
        "²"
      ],
      [
        "0",
        "0"
      ],
      [
        "ä¸",
        "ĵ"
      ],
      [
        "ä»Ĭ",
        "å¤©"
      ],
      [
        "Ġw",
        "ill"
      ],
      [
        "æĽ´",
        "å¥½"
      ],
      [
        "èĤ",
        "ī"
      ],
      [
        "é",
        "²"
      ],
      [
        "åĮ",
        "Ĺ"
      ],
      [
        "ä¸į",
        "æĸŃ"
      ],
      [
        "åĲĦ",
        "ç§į"
      ],
      [
        "ä¿",
        "®"
      ],
      [
        "æĿ",
        "İ"
      ],
      [
        "è´",
        "¹"
      ],
      [
        "é»",
        "ĳ"
      ],
      [
        "du",
        "ct"
      ],
      [
        "éĶ",
        "Ģ"
      ],
      [
        "æ°",
        "ĳ"
      ],
      [
        "åľ°",
        "çĲĥ"
      ],
      [
        "Ġimp",
        "act"
      ],
      [
        "è®¡",
        "åĪĴ"
      ],
      [
        "Ġa",
        "r"
      ],
      [
        "å¸Ĥ",
        "åľº"
      ],
      [
        "an",
        "g"
      ],
      [
        "è£",
        "ħ"
      ],
      [
        "a",
        "ce"
      ],
      [
        "åį",
        "İ"
      ],
      [
        "æĪ",
        "ı"
      ],
      [
        "åį",
        "ģ"
      ],
      [
        "åħ³éĶ®",
        "è¯į"
      ],
      [
        "åĳĬ",
        "è¯ī"
      ],
      [
        "è¯",
        "ģ"
      ],
      [
        "on",
        "e"
      ],
      [
        "Ġd",
        "iff"
      ],
      [
        "e",
        "p"
      ],
      [
        "at",
        "ed"
      ],
      [
        "æŁ",
        "ĵ"
      ],
      [
        "åħ",
        "»"
      ],
      [
        "çļĦ",
        "éĹ®é¢ĺ"
      ],
      [
        "æīĢ",
        "æľī"
      ],
      [
        "ä¸Ģ",
        "æ®µ"
      ],
      [
        "ra",
        "ct"
      ],
      [
        "é©",
        "¬"
      ],
      [
        "olog",
        "y"
      ],
      [
        "è",
        "ħ"
      ],
      [
        "ĠI",
        "t"
      ],
      [
        "on",
        "g"
      ],
      [
        "åĸ",
        "Ħ"
      ],
      [
        "åĽ",
        "´"
      ],
      [
        "æīĢ",
        "ä»¥"
      ],
      [
        "çĶ¨",
        "æĪ·"
      ],
      [
        "æ³¨",
        "æĦı"
      ],
      [
        "Ġthe",
        "m"
      ],
      [
        "èī",
        "º"
      ],
      [
        "Ġ",
        "-"
      ],
      [
        "i",
        "ence"
      ],
      [
        "æĪĳ",
        "çļĦ"
      ],
      [
        "æĻ",
        "ļ"
      ],
      [
        "ç»",
        "Ī"
      ],
      [
        "vel",
        "op"
      ],
      [
        "Ġ",
        "un"
      ],
      [
        "åįķ",
        "è¯į"
      ],
      [
        "è¯Ĩ",
        "åĪ«"
      ],
      [
        "å¯",
        "»"
      ],
      [
        "éĢĤ",
        "åĲĪ"
      ],
      [
        "Ġe",
        "v"
      ],
      [
        "å¤",
        "ı"
      ],
      [
        "ä¸Ģ",
        "èµ·"
      ],
      [
        "æİ",
        "§"
      ],
      [
        "Ġus",
        "e"
      ],
      [
        "ç¦",
        "»"
      ],
      [
        "å¸",
        "Į"
      ],
      [
        "æŃ£",
        "åľ¨"
      ],
      [
        "ç",
        "ª"
      ],
      [
        "Ġ",
        "qu"
      ],
      [
        "æĪĳä»¬",
        "åı¯ä»¥"
      ],
      [
        "èĳ",
        "Ĺ"
      ],
      [
        "å¾",
        "ĭ"
      ],
      [
        "éĻ",
        "ħ"
      ],
      [
        "éĺ",
        "²"
      ],
      [
        "ĠI",
        "n"
      ],
      [
        "Ġprov",
        "ide"
      ],
      [
        "æĸ°",
        "éĹ»"
      ],
      [
        "æ¯Ķ",
        "å¦Ĥ"
      ],
      [
        "Ġ",
        "ess"
      ],
      [
        "Ġp",
        "e"
      ],
      [
        "è¶",
        "ħ"
      ],
      [
        "ä»ĸ",
        "çļĦ"
      ],
      [
        "Ġ",
        "k"
      ],
      [
        "åĽ",
        "Ľ"
      ],
      [
        "è¿",
        "ľ"
      ],
      [
        "å¤ª",
        "éĺ³"
      ],
      [
        "åŃ",
        "©"
      ],
      [
        "Ġt",
        "ime"
      ],
      [
        "è¦ģ",
        "æ±Ĥ"
      ],
      [
        "Ġw",
        "ay"
      ],
      [
        "çŁ¥",
        "éģĵ"
      ],
      [
        "Ġo",
        "ver"
      ],
      [
        "çļĦ",
        "æĺ¯"
      ],
      [
        "æĹł",
        "æ³ķ"
      ],
      [
        "å°",
        "Ķ"
      ],
      [
        "Ġ",
        "out"
      ],
      [
        "å¹¶",
        "ä¸Ķ"
      ],
      [
        "ä¸Ģ",
        "ç§į"
      ],
      [
        "å·",
        "§"
      ],
      [
        "æĦŁ",
        "åĪ°"
      ],
      [
        "æŀ",
        "Ĺ"
      ],
      [
        "æ³",
        "Ľ"
      ],
      [
        "æ",
        "Ĵ"
      ],
      [
        "å£",
        "°"
      ],
      [
        "Ġm",
        "ed"
      ],
      [
        "èµ",
        "°"
      ],
      [
        "åĳ",
        "¢"
      ],
      [
        "åħ³",
        "ç³»"
      ],
      [
        "æŁ",
        "Ĳ"
      ],
      [
        "å°ı",
        "è¯´"
      ],
      [
        "çĦ¶",
        "åĲİ"
      ],
      [
        "åı",
        "¦"
      ],
      [
        "k",
        "s"
      ],
      [
        "ment",
        "s"
      ],
      [
        "ä»",
        "ħ"
      ],
      [
        "ï¼ļ",
        "âĢľ"
      ],
      [
        "è´",
        "Ł"
      ],
      [
        "æĹħ",
        "æ¸¸"
      ],
      [
        "è¿ĩ",
        "ç¨ĭ"
      ],
      [
        "åį",
        "Ĺ"
      ],
      [
        "å£",
        "«"
      ],
      [
        "æ¯ı",
        "ä¸ª"
      ],
      [
        "ç½",
        "®"
      ],
      [
        "åŃĺ",
        "åľ¨"
      ],
      [
        "æĢ»",
        "ç»ĵ"
      ],
      [
        "å¤§",
        "çļĦ"
      ],
      [
        "åİ",
        "ħ"
      ],
      [
        "A",
        "I"
      ],
      [
        "èģ",
        "Į"
      ],
      [
        "è§£",
        "éĩĬ"
      ],
      [
        "èĢĥ",
        "èĻĳ"
      ],
      [
        "å¾",
        "·"
      ],
      [
        "Ġwh",
        "o"
      ],
      [
        "æĪĲ",
        "åĬŁ"
      ],
      [
        "æĭ",
        "ī"
      ],
      [
        "è´¨",
        "éĩı"
      ],
      [
        "è¾",
        "¹"
      ],
      [
        "o",
        "y"
      ],
      [
        "æĹ",
        "©"
      ],
      [
        "çļĦæ",
        "°"
      ],
      [
        "ç®¡",
        "çĲĨ"
      ],
      [
        "Ġle",
        "arn"
      ],
      [
        "el",
        "f"
      ],
      [
        "i",
        "a"
      ],
      [
        "éĻ",
        "į"
      ],
      [
        "èĽ",
        "ĭ"
      ],
      [
        "çļĦæ",
        "Ģ"
      ],
      [
        "Ġa",
        "ct"
      ],
      [
        "åŃ¦",
        "çĶŁ"
      ],
      [
        "u",
        "e"
      ],
      [
        "Ġne",
        "w"
      ],
      [
        "æĺ",
        "¾"
      ],
      [
        "ĳ",
        "æĪĺ"
      ],
      [
        "å",
        "Ħ"
      ],
      [
        "æĪ",
[...]
