{
  "version": "1.0",
  "truncation": null,
  "padding": null,
  "added_tokens": [
    {
      "id": 0,
      "content": "</s>",
      "single_word": false,
      "lstrip": false,
      "rstrip": false,
      "normalized": false,
      "special": true
    },
    {
      "id": 1,
      "content": "<pad>",
      "single_word": false,
      "lstrip": false,
      "rstrip": false,
      "normalized": false,
      "special": true
    },
    {
      "id": 2,
      "content": "<unk>",
      "single_word": false,
      "lstrip": false,
      "rstrip": false,
      "normalized": false,
      "special": true
    },
    {
      "id": 3,
      "content": "<user>",
      "single_word": false,
      "lstrip": false,
      "rstrip": false,
      "normalized": false,
      "special": true
    },
    {
      "id": 4,
      "content": "<assistant>",
      "single_word": false,
      "lstrip": false,
      "rstrip": false,
      "normalized": false,
      "special": true
    },
    {
      "id": 5,
      "content": "<think>",
      "single_word": false,
      "lstrip": false,
      "rstrip": false,
      "normalized": false,
      "special": true
    },
    {
      "id": 6,
      "content": "</think>",
      "single_word": false,
      "lstrip": false,
      "rstrip": false,
      "normalized": false,
      "special": true
    },
    {
      "id": 7,
      "content": "<answer>",
      "single_word": false,
      "lstrip": false,
      "rstrip": false,
      "normalized": false,
      "special": true
    },
    {
      "id": 8,
      "content": "</answer>",
      "single_word": false,
      "lstrip": false,
      "rstrip": false,
      "normalized": false,
      "special": true
    },
    {
      "id": 9,
      "content": "<system>",
      "single_word": false,
      "lstrip": false,
      "rstrip": false,
      "normalized": false,
      "special": true
    },
    {
      "id": 10,
      "content": "<image>",
      "single_word": false,
      "lstrip": false,
      "rstrip": false,
      "normalized": false,
      "special": true
    },
    {
      "id": 11,
      "content": "<tool>",
      "single_word": false,
      "lstrip": false,
      "rstrip": false,
      "normalized": false,
      "special": true
    },
    {
      "id": 12,
      "content": "</tool>",
      "single_word": false,
      "lstrip": false,
      "rstrip": false,
      "normalized": false,
      "special": true
    }
  ],
  "normalizer": null,
  "pre_tokenizer": {
    "type": "ByteLevel",
    "add_prefix_space": false,
    "trim_offsets": true,
    "use_regex": true
  },
  "post_processor": null,
  "decoder": {
    "type": "ByteLevel",
    "add_prefix_space": true,
    "trim_offsets": true,
    "use_regex": true
  },
  "model": {
    "type": "BPE",
    "dropout": null,
    "unk_token": null,
    "continuing_subword_prefix": null,
    "end_of_word_suffix": null,
    "fuse_unk": false,
    "byte_fallback": false,
    "ignore_merges": false,
    "vocab": {
      "</s>": 0,
      "<pad>": 1,
      "<unk>": 2,
      "<user>": 3,
      "<assistant>": 4,
      "<think>": 5,
      "</think>": 6,
      "<answer>": 7,
      "</answer>": 8,
      "<system>": 9,
      "<image>": 10,
      "<tool>": 11,
      "</tool>": 12,
      "!": 13,
      "\"": 14,
      "#": 15,
      "$": 16,
      "%": 17,
      "&": 18,
      "'": 19,
      "(": 20,
      ")": 21,
      "*": 22,
      "+": 23,
      ",": 24,
      "-": 25,
      ".": 26,
      "/": 27,
      "0": 28,
      "1": 29,
      "2": 30,
      "3": 31,
      "4": 32,
      "5": 33,
      "6": 34,
      "7": 35,
      "8": 36,
      "9": 37,
      ":": 38,
      ";": 39,
      "<": 40,
      "=": 41,
      ">": 42,
      "?": 43,
      "@": 44,
      "A": 45,
      "B": 46,
      "C": 47,
      "D": 48,
      "E": 49,
      "F": 50,
      "G": 51,
      "H": 52,
      "I": 53,
      "J": 54,
      "K": 55,
      "L": 56,
      "M": 57,
      "N": 58,
      "O": 59,
      "P": 60,
      "Q": 61,
      "R": 62,
      "S": 63,
      "T": 64,
      "U": 65,
      "V": 66,
      "W": 67,
      "X": 68,
      "Y": 69,
      "Z": 70,
      "[": 71,
      "\\": 72,
      "]": 73,
      "^": 74,
      "_": 75,
      "`": 76,
      "a": 77,
      "b": 78,
      "c": 79,
      "d": 80,
      "e": 81,
      "f": 82,
      "g": 83,
      "h": 84,
      "i": 85,
      "j": 86,
      "k": 87,
      "l": 88,
      "m": 89,
      "n": 90,
      "o": 91,
      "p": 92,
      "q": 93,
      "r": 94,
      "s": 95,
      "t": 96,
      "u": 97,
      "v": 98,
      "w": 99,
      "x": 100,
      "y": 101,
      "z": 102,
      "{": 103,
      "|": 104,
      "}": 105,
      "~": 106,
      "¡": 107,
      "¢": 108,
      "£": 109,
      "¤": 110,
      "¥": 111,
      "¦": 112,
      "§": 113,
      "¨": 114,
      "©": 115,
      "ª": 116,
      "«": 117,
      "¬": 118,
      "®": 119,
      "¯": 120,
      "°": 121,
      "±": 122,
      "²": 123,
      "³": 124,
      "´": 125,
      "µ": 126,
      "¶": 127,
      "·": 128,
      "¸": 129,
      "¹": 130,
      "º": 131,
      "»": 132,
      "¼": 133,
      "½": 134,
      "¾": 135,
      "¿": 136,
      "À": 137,
      "Á": 138,
      "Â": 139,
      "Ã": 140,
      "Ä": 141,
      "Å": 142,
      "Æ": 143,
      "Ç": 144,
      "È": 145,
      "É": 146,
      "Ê": 147,
      "Ë": 148,
      "Ì": 149,
      "Í": 150,
      "Î": 151,
      "Ï": 152,
      "Ð": 153,
      "Ñ": 154,
      "Ò": 155,
      "Ó": 156,
      "Ô": 157,
      "Õ": 158,
      "Ö": 159,
      "×": 160,
      "Ø": 161,
      "Ù": 162,
      "Ú": 163,
      "Û": 164,
      "Ü": 165,
      "Ý": 166,
      "Þ": 167,
      "ß": 168,
      "à": 169,
      "á": 170,
      "â": 171,
      "ã": 172,
      "ä": 173,
      "å": 174,
      "æ": 175,
      "ç": 176,
      "è": 177,
      "é": 178,
      "ê": 179,
      "ë": 180,
      "ì": 181,
      "í": 182,
      "î": 183,
      "ï": 184,
      "ð": 185,
      "ñ": 186,
      "ò": 187,
      "ó": 188,
      "ô": 189,
      "õ": 190,
      "ö": 191,
      "÷": 192,
      "ø": 193,
      "ù": 194,
      "ú": 195,
      "û": 196,
      "ü": 197,
      "ý": 198,
      "þ": 199,
      "ÿ": 200,
      "Ā": 201,
      "ā": 202,
      "Ă": 203,
      "ă": 204,
      "Ą": 205,
      "ą": 206,
      "Ć": 207,
      "ć": 208,
      "Ĉ": 209,
      "ĉ": 210,
      "Ċ": 211,
      "ċ": 212,
      "Č": 213,
      "č": 214,
      "Ď": 215,
      "ď": 216,
      "Đ": 217,
      "đ": 218,
      "Ē": 219,
      "ē": 220,
      "Ĕ": 221,
      "ĕ": 222,
      "Ė": 223,
      "ė": 224,
      "Ę": 225,
      "ę": 226,
      "Ě": 227,
      "ě": 228,
      "Ĝ": 229,
      "ĝ": 230,
      "Ğ": 231,
      "ğ": 232,
      "Ġ": 233,
      "ġ": 234,
      "Ģ": 235,
      "ģ": 236,
      "Ĥ": 237,
      "ĥ": 238,
      "Ħ": 239,
      "ħ": 240,
      "Ĩ": 241,
      "ĩ": 242,
      "Ī": 243,
      "ī": 244,
      "Ĭ": 245,
      "ĭ": 246,
      "Į": 247,
      "į": 248,
      "İ": 249,
      "ı": 250,
      "Ĳ": 251,
      "ĳ": 252,
      "Ĵ": 253,
      "ĵ": 254,
      "Ķ": 255,
      "ķ": 256,
      "ĸ": 257,
      "Ĺ": 258,
      "ĺ": 259,
      "Ļ": 260,
      "ļ": 261,
      "Ľ": 262,
      "ľ": 263,
      "Ŀ": 264,
      "ŀ": 265,
      "Ł": 266,
      "ł": 267,
      "Ń": 268,
      "ä¸": 269,
      "ï¼": 270,
      "çļ": 271,
      "çļĦ": 272,
      "ï¼Į": 273,
      "ãĢ": 274,
      "ãĢĤ": 275,
      "äº": 276,
      "ä»": 277,
      "åı": 278,
      "æľ": 279,
      "è¿": 280,
      "æĪ": 281,
      "åħ": 282,
      "ä½": 283,
      "æĺ": 284,
      "å¤": 285,
      "è¯": 286,
      "ä¸Ģ": 287,
      "æĸ": 288,
      "å®": 289,
      "çĶ": 290,
      "åĪ": 291,
      "åĴ": 292,
      "åľ": 293,
      "åĴĮ": 294,
      "åĲ": 295,
      "åĬ": 296,
      "ç»": 297,
      "ä¹": 298,
      "æĺ¯": 299,
      "å°": 300,
      "åŃ": 301,
      "ä¸ª": 302,
      "ä»¥": 303,
      "è®": 304,
      "ãĢģ": 305,
      "æĪĳ": 306,
      "åľ¨": 307,
      "äºº": 308,
      "ĥ½": 309,
      "æľī": 310,
      "ï¼ļ": 311,
      "æĹ": 312,
      "äºĨ": 313,
      "åı¯": 314,
      "è¿Ļ": 315,
      "åĽ": 316,
      "æĿ": 317,
      "åº": 318,
      "éĩ": 319,
      "å¹": 320,
      "å¸": 321,
      "ä¸Ń": 322,
      "ä¼": 323,
      "éĢ": 324,
      "è¡": 325,
      "èĥ½": 326,
      "çļĦæ": 327,
      "åĩ": 328,
      "å·": 329,
      "æĸĩ": 330,
      "åĮ": 331,
      "è¦": 332,
      "è¦ģ": 333,
      "é¢": 334,
      "å¯": 335,
      "å¾": 336,
      "åĨ": 337,
      "ä¸º": 338,
      "è§": 339,
      "å¥": 340,
      "çī": 341,
      "ç§": 342,
      "ä»¬": 343,
      "éĹ": 344,
      "çİ": 345,
      "å¼": 346,
      "ä¸į": 347,
      "çĶ¨": 348,
      "æķ": 349,
      "èĢ": 350,
      "å½": 351,
      "æĢ": 352,
      "æŀ": 353,
      "çĶŁ": 354,
      "çŃ": 355,
      "æı": 356,
      "æī": 357,
      "æŃ": 358,
      "åı¯ä»¥": 359,
      "éĿ": 360,
      "åį": 361,
      "ä¿": 362,
      "æĬ": 363,
      "æł": 364,
      "æ³": 365,
      "çĽ": 366,
      "âĢ": 367,
      "æĿ¥": 368,
      "èĩ": 369,
      "æĦ": 370,
      "åĵ": 371,
      "å¦": 372,
      "ä¸ĭ": 373,
      "çĲ": 374,
      "ä¸Ģä¸ª": 375,
      "æĪĲ": 376,
      "åİ": 377,
      "æĥ": 378,
      "æıĲ": 379,
      "æ°": 380,
      "åĪ°": 381,
      "ä»ĸ": 382,
      "æĽ": 383,
      "åŃ¦": 384,
      "æĻ": 385,
      "å¦Ĥ": 386,
      "è¡Į": 387,
      "åĩº": 388,
      "åĳ": 389,
      "å¿": 390,
      "æĹ¶": 391,
      "å¯¹": 392,
      "æĭ": 393,
      "ä½ł": 394,
      "åŃĲ": 395,
      "ä¾": 396,
      "äºİ": 397,
      "æİ": 398,
      "åľ°": 399,
      "é¢ĺ": 400,
      "ä¸Ĭ": 401,
      "ç«": 402,
      "æĶ": 403,
      "è´": 404,
      "å°ı": 405,
      "å¥½": 406,
      "ä¼ļ": 407,
      "çŃī": 408,
      "æĸ¹": 409,
      "æľ¬": 410,
      "èĩª": 411,
      "åĪĨ": 412,
      "æĽ´": 413,
      "äºĽ": 414,
      "å¤ļ": 415,
      "æµ": 416,
      "æ¯": 417,
      "èµ": 418,
      "å¤§": 419,
      "å±": 420,
      "æį": 421,
      "ï¼Ł": 422,
      "åĬ¨": 423,
      "ä½ľ": 424,
      "å·¥": 425,
      "çī©": 426,
      "çº": 427,
      "åħ³": 428,
      "è¾": 429,
      "å¹¶": 430,
      "åıĳ": 431,
      "ç®": 432,
      "æĮ": 433,
      "ç±": 434,
      "é£": 435,
      "éľ": 436,
      "æĪĳä»¬": 437,
      "éĿ¢": 438,
      "æ´": 439,
      "å®ļ": 440,
      "æľĢ": 441,
      "åħ¶": 442,
      "æŀľ": 443,
      "åŁ": 444,
      "æ¬": 445,
      "ç§į": 446,
      "çİ°": 447,
      "çļĦç": 448,
      "è¿Ľ": 449,
      "æ³ķ": 450,
      "éĻ": 451,
      "è¿ĩ": 452,
      "æĤ": 453,
      "éĹ®": 454,
      "åģ": 455,
      "æ¸": 456,
      "ä½ĵ": 457,
      "èī": 458,
      "å¤©": 459,
      "å®ĥ": 460,
      "æį®": 461,
      "ç»Ļ": 462,
      "åĬĽ": 463,
      "çĲĨ": 464,
      "æĺİ": 465,
      "éľĢ": 466,
      "æ²": 467,
      "å°Ĩ": 468,
      "åºĶ": 469,
      "åĬł": 470,
      "ç±»": 471,
      "æĸ°": 472,
      "éģ": 473,
      "çĤ": 474,
      "åĮĸ": 475,
      "æĢ§": 476,
      "çĦ": 477,
      "é«": 478,
      "åĲĮ": 479,
      "æĪĸ": 480,
      "ä½¿": 481,
      "åĽł": 482,
      "ä¿Ŀ": 483,
      "å¸¸": 484,
      "éĩį": 485,
      "çľ": 486,
      "é«ĺ": 487,
      "åı¥": 488,
      "è½": 489,
      "æĦŁ": 490,
      "å®¶": 491,
      "ä¹Ł": 492,
      "æľº": 493,
      "å½±": 494,
      "è¶": 495,
      "æ±": 496,
      "ä¸»": 497,
      "éĶ": 498,
      "éĺ": 499,
      "è¯Ń": 500,
      "çĦ¶": 501,
      "ç«ł": 502,
      "å¾Ĺ": 503,
      "âĢĿ": 504,
      "æķ°": 505,
      "æĸĩç«ł": 506,
      "éĢļ": 507,
      "åĵģ": 508,
      "âĢľ": 509,
      "ç³": 510,
      "éľĢè¦ģ": 511,
      "çĶµ": 512,
      "æĬĢ": 513,
      "æĻº": 514,
      "è°": 515,
      "è§£": 516,
      "æĸĩæľ¬": 517,
      "ä¹ĭ": 518,
      "ä¹Ī": 519,
      "æĥħ": 520,
      "æĤ¨": 521,
      "éĹ®é¢ĺ": 522,
      "åº¦": 523,
      "çŁ": 524,
      "èĢĮ": 525,
      "åī": 526,
      "æģ": 527,
      "è¡¨": 528,
      "ç»ı": 529,
      "æĻºèĥ½": 530,
      "è¯·": 531,
      "çĿ": 532,
      "å¾Ī": 533,
      "éĹ´": 534,
      "æŃ¤": 535,
      "èĬ": 536,
      "åĸ": 537,
      "ç¾": 538,
      "åħ¬": 539,
      "å¢": 540,
      "éĩı": 541,
      "åĽ½": 542,
      "ç©": 543,
      "çĤ¹": 544,
      "æľ¯": 545,
      "ç¤": 546,
      "èī²": 547,
      "èĤ": 548,
      "èĢħ": 549,
      "è¯į": 550,
      "å¹´": 551,
      "å®ŀ": 552,
      "æ°Ķ": 553,
      "å»": 554,
      "åĢ": 555,
      "åıĸ": 556,
      "ä¿¡": 557,
      "è¿Ļä¸ª": 558,
      "ä¹ł": 559,
      "åĲį": 560,
      "ç¨": 561,
      "å¿ĥ": 562,
      "ä½Ĩ": 563,
      "åĲĪ": 564,
      "æĦı": 565,
      "è¯¥": 566,
      "ä¸ļ": 567,
      "ä¾Ľ": 568,
      "çĸ": 569,
      "è®¡": 570,
      "åĲİ": 571,
      "ç¡": 572,
      "éĤ": 573,
      "äºĭ": 574,
      "æīĢ": 575,
      "ä»¥ä¸ĭ": 576,
      "ä»İ": 577,
      "è¿ĺ": 578,
      "å»º": 579,
      "æ®": 580,
      "çĽ¸": 581,
      "çĿĢ": 582,
      "çĲĥ": 583,
      "ä¸ĢäºĽ": 584,
      "éĥ½": 585,
      "åĮħ": 586,
      "æıĲä¾Ľ": 587,
      "æ´»": 588,
      "ä¸İ": 589,
      "ç¾İ": 590,
      "æł¹": 591,
      "è¿Ľè¡Į": 592,
      "æŁ": 593,
      "åı¥åŃĲ": 594,
      "ç½": 595,
      "å¼ı": 596,
      "é£Ł": 597,
      "åħ¥": 598,
      "å±ķ": 599,
      "åħ¨": 600,
      "éĩĮ": 601,
      "è¿°": 602,
      "äººå·¥": 603,
      "å¤ĸ": 604,
      "çİ¯": 605,
      "é¡": 606,
      "çķ": 607,
      "çī¹": 608,
      "ä½¿çĶ¨": 609,
      "æĥ³": 610,
      "ç´": 611,
      "éĿŀ": 612,
      "èĲ": 613,
      "é¦": 614,
      "äººå·¥æĻºèĥ½": 615,
      "ç¯": 616,
      "åĨħ": 617,
      "æŃ£": 618,
      "æ¡": 619,
      "è¢": 620,
      "éļ": 621,
      "å½ĵ": 622,
      "å¼Ģ": 623,
      "åİ»": 624,
      "éķ": 625,
      "æģ¯": 626,
      "æł¹æį®": 627,
      "æ°´": 628,
      "æ·": 629,
      "æ¯Ķ": 630,
      "åıĺ": 631,
      "åĨĻ": 632,
      "æ®µ": 633,
      "æĺ¯ä¸Ģ": 634,
      "åŀ": 635,
      "éĥ": 636,
      "ç³»": 637,
      "è·": 638,
      "åĬ©": 639,
      "èģ": 640,
      "è¯´": 641,
      "åŃ¦ä¹ł": 642,
      "ç¨ĭ": 643,
      "åĪ¶": 644,
      "åħ·": 645,
      "ç¡®": 646,
      "å¸Ĥ": 647,
      "è®©": 648,
      "ä»Ģ": 649,
      "éĽ": 650,
      "æĮģ": 651,
      "éģĵ": 652,
      "åĿ": 653,
      "çľĭ": 654,
      "ç¯ĩ": 655,
      "ç¼": 656,
      "äº§": 657,
      "èµ·": 658,
      "çĥ": 659,
      "ç»ĵ": 660,
      "åķ": 661,
      "ä»Ģä¹Ī": 662,
      "æĬĢæľ¯": 663,
      "å¸®": 664,
      "èº": 665,
      "åıĬ": 666,
      "è¯Ŀ": 667,
      "éĥ¨": 668,
      "çĽ®": 669,
      "éĤ£": 670,
      "èĭ": 671,
      "ç¬": 672,
      "ä½ķ": 673,
      "éķ¿": 674,
      "éĿŀå¸¸": 675,
      "èį": 676,
      "åĬ¡": 677,
      "ç®Ĺ": 678,
      "æ¯ı": 679,
      "èº«": 680,
      "çĭ": 681,
      "è¢«": 682,
      "åģ¥": 683,
      "ç§ĳ": 684,
      "æĹ¥": 685,
      "å°ĳ": 686,
      "å·±": 687,
      "åīį": 688,
      "åĻ": 689,
      "æĭ¬": 690,
      "éħ": 691,
      "éĢĤ": 692,
      "åĸľ": 693,
      "èĩªå·±": 694,
      "åľº": 695,
      "å®¹": 696,
      "åıĹ": 697,
      "åı¯èĥ½": 698,
      "æĹł": 699,
      "åĽŀ": 700,
      "æ¬¢": 701,
      "ä¿¡æģ¯": 702,
      "éĢī": 703,
      "ä»ĸä»¬": 704,
      "åĻ¨": 705,
      "åĮ»": 706,
      "äº¤": 707,
      "å¥½çļĦ": 708,
      "ä»£": 709,
      "åŀĭ": 710,
      "é¢Ĩ": 711,
      "åĪ«": 712,
      "èĻ": 713,
      "çł": 714,
      "å¤Ħ": 715,
      "çĶµå½±": 716,
      "çŃĶ": 717,
      "è¨": 718,
      "é¥": 719,
      "çĪ": 720,
      "éª": 721,
      "æ¶": 722,
      "ä½į": 723,
      "åĪ©": 724,
      "è´¨": 725,
      "æ»": 726,
      "è®®": 727,
      "é£İ": 728,
      "å¢ĥ": 729,
      "å¹³": 730,
      "ä¸¤": 731,
      "æ¡Ī": 732,
      "æīĭ": 733,
      "çĹ": 734,
      "å§": 735,
      "ä¾ĭ": 736,
      "è¿ĻäºĽ": 737,
      "éĩįè¦ģ": 738,
      "éĢļè¿ĩ": 739,
      "å¦Ĥæŀľ": 740,
      "ä¸ŃçļĦ": 741,
      "éŁ": 742,
      "ä»»": 743,
      "åĵį": 744,
      "ä»¶": 745,
      "çĶŁæĪĲ": 746,
      "åĮħæĭ¬": 747,
      "è®º": 748,
      "åŃĹ": 749,
      "åı¸": 750,
      "åŁŁ": 751,
      "åıĳå±ķ": 752,
      "è¨Ģ": 753,
      "çĻ": 754,
      "åºĶçĶ¨": 755,
      "å°ıæĺİ": 756,
      "å°±": 757,
      "æłĩ": 758,
      "ç®Ģ": 759,
      "æ±Ĥ": 760,
      "æ²¡": 761,
      "åĪĽ": 762,
      "åįķ": 763,
      "åĨ³": 764,
      "è§Ĥ": 765,
      "æĶ¹": 766,
      "æĶ¾": 767,
      "æİ¨": 768,
      "æ¸¸": 769,
      "èĪ": 770,
      "çģ": 771,
      "åıª": 772,
      "æľª": 773,
      "è®¾": 774,
      "å½±åĵį": 775,
      "çŁ¥": 776,
      "åº·": 777,
      "ç»Ł": 778,
      "æĹ¶éĹ´": 779,
      "ä¸ī": 780,
      "æĢ»": 781,
      "å¸®åĬ©": 782,
      "ç¥": 783,
      "æľŁ": 784,
      "é»": 785,
      "å£": 786,
      "åĸľæ¬¢": 787,
      "æº": 788,
      "ä¹Ĳ": 789,
      "èĬĤ": 790,
      "åħ¬åı¸": 791,
      "æıı": 792,
      "æķĪ": 793,
      "è¯Ĩ": 794,
      "åģ¥åº·": 795,
      "æµ·": 796,
      "æ¨": 797,
      "å¼º": 798,
      "å¤Ł": 799,
      "èĥ": 800,
      "ç»Ļå®ļ": 801,
      "ç¤¾": 802,
      "æĸŃ": 803,
      "åĩı": 804,
      "äººç±»": 805,
      "æĳ": 806,
      "æ³¨": 807,
      "æŀģ": 808,
      "å®ī": 809,
      "é¢ĨåŁŁ": 810,
      "çĶŁæ´»": 811,
      "æ¼": 812,
      "æľį": 813,
      "è¾¾": 814,
      "æ·±": 815,
      "çĶ±": 816,
      "æł·": 817,
      "çĸĹ": 818,
      "åĽłæŃ¤": 819,
      "çİ¯å¢ĥ": 820,
      "ä¸įåĲĮ": 821,
      "æŃ¥": 822,
      "å·¥ä½ľ": 823,
      "æĺŁ": 824,
      "è±": 825,
      "èĦ": 826,
      "é©": 827,
      "éŁ³": 828,
      "å¤ª": 829,
      "æķ°æį®": 830,
      "æµģ": 831,
      "å½¢": 832,
      "åİŁ": 833,
      "åģļ": 834,
      "ä¸ĸ": 835,
      "å·²": 836,
      "èİ": 837,
      "æıĲåıĸ": 838,
      "æĻ¯": 839,
      "è½¦": 840,
      "åıĭ": 841,
      "æııè¿°": 842,
      "æ²¡æľī": 843,
      "å¸¦": 844,
      "æĪ·": 845,
      "åĽłä¸º": 846,
      "å¯¼": 847,
      "è¿Ĳ": 848,
      "æ¬¡": 849,
      "åĳĺ": 850,
      "çĮ": 851,
      "ç²": 852,
      "éĴ": 853,
      "èı": 854,
      "å»ºè®®": 855,
      "æ¨¡": 856,
      "æĸĻ": 857,
      "éĶ®": 858,
      "æıĲé«ĺ": 859,
      "è¯ķ": 860,
      "èĩªçĦ¶": 861,
      "å®ĥä»¬": 862,
      "æī¾": 863,
      "ãĢĭ": 864,
      "åŁº": 865,
      "ãĢĬ": 866,
      "å¦Ĥä½ķ": 867,
      "è®¤": 868,
      "åİĨ": 869,
      "ä¹ī": 870,
      "åŁİ": 871,
      "æĽ´åĬł": 872,
      "å¥¹": 873,
      "ä¼ł": 874,
      "æºĲ": 875,
      "ä¸»è¦ģ": 876,
      "åĲĦ": 877,
      "åħ³éĶ®": 878,
      "ç¤º": 879,
      "æĬ¤": 880,
      "æĭ©": 881,
      "æĮĩ": 882,
      "åºĶè¯¥": 883,
      "åĲĳ": 884,
      "éĢł": 885,
      "æł¼": 886,
      "ç»Ħ": 887,
      "éĢīæĭ©": 888,
      "çķĮ": 889,
      "åħī": 890,
      "çļĦæķ": 891,
      "æĸ¹å¼ı": 892,
      "æĹħ": 893,
      "åĲĮæĹ¶": 894,
      "è¿ĳ": 895,
      "èĥ½å¤Ł": 896,
      "ç¯ĩæĸĩç«ł": 897,
      "èĲ½": 898,
      "ç©¶": 899,
      "è£": 900,
      "åĨħå®¹": 901,
      "è°ĥ": 902,
      "äººä»¬": 903,
      "åı£": 904,
      "çĪ±": 905,
      "ï¼Ľ": 906,
      "è¯Ńè¨Ģ": 907,
      "è§Ĩ": 908,
      "åĳ³": 909,
      "ç©º": 910,
      "çº¢": 911,
      "åĮº": 912,
      "èĢĥ": 913,
      "ä»·": 914,
      "åĲĹ": 915,
      "åħ³äºİ": 916,
      "çĬ": 917,
      "ç½ĳ": 918,
      "èĬ±": 919,
      "åĳĬ": 920,
      "æĺ¯ä¸Ģä¸ª": 921,
      "ä¾ĭå¦Ĥ": 922,
      "æľªæĿ¥": 923,
      "çĹħ": 924,
      "é¤": 925,
      "è®¡ç®Ĺ": 926,
      "å¿«": 927,
      "å¹¿": 928,
      "æľºåĻ¨": 929,
      "ç®¡": 930,
      "æĸ¹æ³ķ": 931,
      "æĸ¹éĿ¢": 932,
      "é¢Ħ": 933,
      "å¢ŀ": 934,
      "ï¼ī": 935,
      "åķĨ": 936,
      "éªĮ": 937,
      "é¤Ĳ": 938,
      "æĢĿ": 939,
      "Ķç©¶": 940,
      "ç¦": 941,
      "ä¹¦": 942,
      "ä¸Ķ": 943,
      "åĩĨ": 944,
      "å®Į": 945,
      "åĩł": 946,
      "é¦ĸ": 947,
      "éĵ": 948,
      "å®¢": 949,
      "éĶĻ": 950,
      "åĪ°äºĨ": 951,
      "é¡¹": 952,
      "åħ¶ä»ĸ": 953,
      "ä¼ĺ": 954,
      "è¶Ĭ": 955,
      "ä»¥åıĬ": 956,
      "ä¸»é¢ĺ": 957,
      "é¸": 958,
      "å¼ķ": 959,
      "éĩĳ": 960,
      "è®¸": 961,
      "è¯Ħ": 962,
      "æļ": 963,
      "æ¸ħ": 964,
      "åħĪ": 965,
      "ç´ł": 966,
      "åĬŁ": 967,
      "æ£": 968,
      "å¤ĩ": 969,
      "è½»": 970,
      "æİ¥": 971,
      "è§ī": 972,
      "åĪĹ": 973,
      "ï¼Ī": 974,
      "è¯»": 975,
      "èµĦ": 976,
      "æĪĺ": 977,
      "èĮ": 978,
      "åĪĨç±»": 979,
      "å§ĭ": 980,
      "ä»Ĭ": 981,
      "ä¸ªäºº": 982,
      "éĺ³": 983,
      "çŁŃ": 984,
      "èĩ´": 985,
      "åŃĺ": 986,
      "åĵª": 987,
      "æµĭ": 988,
      "æķĻ": 989,
      "æĢģ": 990,
      "æ¸©": 991,
      "ç»Ń": 992,
      "åĢĻ": 993,
      "ï¼ģ": 994,
      "æľĭ": 995,
      "æŀĲ": 996,
      "ç¼ĸ": 997,
      "ä¸ĸçķĮ": 998,
      "åħ±": 999,
      "ä½Ĩæĺ¯": 1000,
      "åĲ«": 1001,
      "æľĪ": 1002,
      "èıľ": 1003,
      "æľĭåıĭ": 1004,
      "çº¦": 1005,
      "åħĭ": 1006,
      "ç§¯": 1007,
      "ç«ĭ": 1008,
      "çİĩ": 1009,
      "åĽŀçŃĶ": 1010,
      "æĸĩåĮĸ": 1011,
      "åĪĨæŀĲ": 1012,
      "å¤ĦçĲĨ": 1013,
      "åı²": 1014,
      "ç»Ĩ": 1015,
      "çļĦæĥ": 1016,
      "ä¸Ģä¸ĭ": 1017,
      "æĶ¯": 1018,
      "åĩıå°ĳ": 1019,
      "åŁİå¸Ĥ": 1020,
      "è±¡": 1021,
      "å±±": 1022,
      "ä¹ĭä¸Ģ": 1023,
      "è¶³": 1024,
      "è¿Ļç¯ĩæĸĩç«ł": 1025,
      "ä¸ŃåĽ½": 1026,
      "æķ´": 1027,
      "åĲ¦": 1028,
      "å¤į": 1029,
      "ç¬¬": 1030,
      "Ġè¯·": 1031,
      "åĪĻ": 1032,
      "æ»¡": 1033,
      "åĨµ": 1034,
      "ä¿ĿæĬ¤": 1035,
      "çłĶç©¶": 1036,
      "ĺè¦ģ": 1037,
      "èĳ": 1038,
      "åħĥ": 1039,
      "è§Ĵ": 1040,
      "ç¥ŀ": 1041,
      "é¥®": 1042,
      "20": 1043,
      "å·²ç»ı": 1044,
      "åĥ": 1045,
      "æľĽ": 1046,
      "è®¸å¤ļ": 1047,
      "æİ¢": 1048,
      "äºĨä¸Ģ": 1049,
      "èĩªå·±çļĦ": 1050,
      "ä¸¤ä¸ª": 1051,
      "ç³ĸ": 1052,
      "éĩĩ": 1053,
      "åıį": 1054,
      "ç¿": 1055,
      "è°¢": 1056,
      "èĢģ": 1057,
      "äº§åĵģ": 1058,
      "çº¿": 1059,
      "åĪĴ": 1060,
      "è¾ĵ": 1061,
      "çľŁ": 1062,
      "åĮ»çĸĹ": 1063,
      "æŃ¤å¤ĸ": 1064,
      "çĭĹ": 1065,
      "ç³»ç»Ł": 1066,
      "æĽ´å¤ļ": 1067,
      "è§Ħ": 1068,
      "å°½": 1069,
      "éĢŁ": 1070,
      "åĶ": 1071,
      "çħ": 1072,
      "è¶£": 1073,
      "è·¯": 1074,
      "éĻ©": 1075,
      "å¥³": 1076,
      "åıĤ": 1077,
      "çļĦäºº": 1078,
      "èģĶ": 1079,
      "åĲĥ": 1080,
      "ä¿ĿæĮģ": 1081,
      "ä»½": 1082,
      "æĸ¯": 1083,
      "è¥": 1084,
      "åħ¨çĲĥ": 1085,
      "æĺ¯ä¸Ģç§į": 1086,
      "æĬ¥": 1087,
      "æĺĵ": 1088,
      "çĽ´": 1089,
      "åĬ¨çī©": 1090,
      "Â·": 1091,
      "æľįåĬ¡": 1092,
      "çĻ½": 1093,
      "å¤´": 1094,
      "åĢ¼": 1095,
      "è¥¿": 1096,
      "æĸ½": 1097,
      "è§£åĨ³": 1098,
      "æİĴ": 1099,
      "æĪĲä¸º": 1100,
      "ħäºĭ": 1101,
      "åĨį": 1102,
      "åĥı": 1103,
      "çĥŃ": 1104,
      "çİ¯ä¿Ŀ": 1105,
      "ä»ĭ": 1106,
      "åĽ¾": 1107,
      "æ´»åĬ¨": 1108,
      "å²": 1109,
      "éļ¾": 1110,
      "ä¹°": 1111,
      "ä¾¿": 1112,
      "åĳ¨": 1113,
      "çļĦä¸Ģ": 1114,
      "æŁ¥": 1115,
      "æĪĸèĢħ": 1116,
      "èİ·": 1117,
      "è¾ĥ": 1118,
      "èĻĳ": 1119,
      "æŀĦ": 1120,
      "æĿ¡": 1121,
      "ç¤¾ä¼ļ": 1122,
      "å®īåħ¨": 1123,
      "10": 1124,
      "è¿ĲåĬ¨": 1125,
      "è§ģ": 1126,
      "çīĩ": 1127,
      "åĲ¬": 1128,
      "èº«ä½ĵ": 1129,
      "ç»ĻæĪĳ": 1130,
      "è¯Ĺ": 1131,
      "åıĳçİ°": 1132,
      "èĩ³": 1133,
      "æĲ": 1134,
      "çļĦæĥħ": 1135,
      "æ¼Ķ": 1136,
      "éħį": 1137,
      "éļı": 1138,
      "åıĺåĮĸ": 1139,
      "çİ°åľ¨": 1140,
      "ãĢĤâĢĿ": 1141,
      "æīĵ": 1142,
      "ç§ĳæĬĢ": 1143,
      "åħ¶ä¸Ń": 1144,
      "ç»ĥ": 1145,
      "åºı": 1146,
      "æĶ¶": 1147,
      "çĬ¶": 1148,
      "è®¤ä¸º": 1149,
      "å¼ł": 1150,
      "èĤ²": 1151,
      "å¤©æ°Ķ": 1152,
      "ä¸½": 1153,
      "ç´¢": 1154,
      "éĤ£ä¹Ī": 1155,
      "æĪĳä»¬çļĦ": 1156,
      "åĳ½": 1157,
      "ä¹ĭéĹ´": 1158,
      "äº«": 1159,
      "æĬĬ": 1160,
      "ç²¾": 1161,
      "è®°": 1162,
      "æ¶Ī": 1163,
      "¹æŀľ": 1164,
      "æħ": 1165,
      "åħħ": 1166,
      "èĥ½åĬĽ": 1167,
      "çĽ¸åħ³": 1168,
      "èĭ¹æŀľ": 1169,
      "äºĮ": 1170,
      "ä½łçļĦ": 1171,
      "åİĨåı²": 1172,
      "æĶ¿": 1173,
      "åĲ¸": 1174,
      "å¾Īå¤ļ": 1175,
      "åı¤": 1176,
      "çŃĸ": 1177,
      "å¡": 1178,
      "å¸¦æĿ¥": 1179,
      "çı": 1180,
      "æ¤": 1181,
      "æĳĺè¦ģ": 1182,
      "åĽŃ": 1183,
      "åħ·æľī": 1184,
      "è´Ń": 1185,
      "ç¢": 1186,
      "åħ´": 1187,
      "éĺŁ": 1188,
      "å¸Ī": 1189,
      "ä½İ": 1190,
      "çĮ«": 1191,
      "å¤±": 1192,
      "éĹ¨": 1193,
      "æ¬¾": 1194,
      "ç»´": 1195,
      "æ²»": 1196,
      "åį³": 1197,
      "ç»Ļå®ļçļĦ": 1198,
      "éĹ»": 1199,
      "ç§ĳåŃ¦": 1200,
      "ç§°": 1201,
      "å¸ĥ": 1202,
      "æ¢": 1203,
      "çĭ¬": 1204,
      "åħį": 1205,
      "æŃĮ": 1206,
      "è¯ī": 1207,
      "éĩĬ": 1208,
      "äºĴ": 1209,
      "èįĲ": 1210,
      "åĭ": 1211,
      "éŁ³ä¹Ĳ": 1212,
      "ç»Ļåĩº": 1213,
      "å°Ŀ": 1214,
      "çļĦæĦ": 1215,
      "¦Ĥ": 1216,
      "çŃĶæ¡Ī": 1217,
      "æīį": 1218,
      "æĿĲ": 1219,
      "è¿Ļç§į": 1220,
      "è®¾è®¡": 1221,
      "ç§¯æŀģ": 1222,
      "ç»į": 1223,
      "å¼Ģå§ĭ": 1224,
      "ä»»åĬ¡": 1225,
      "èĲ¥": 1226,
      "æĿ¾": 1227,
      "äºĨè§£": 1228,
      "éĽĨ": 1229,
      "è¡¨è¾¾": 1230,
      "ä»ĭç»į": 1231,
      "ä¸ŃæıĲåıĸ": 1232,
      "åı¥è¯Ŀ": 1233,
      "çļĦå½±åĵį": 1234,
      "å¯¼èĩ´": 1235,
      "å¯Į": 1236,
      "è¯¯": 1237,
      "åŃ£": 1238,
      "å¿ħ": 1239,
      "å¨": 1240,
      "èĽ": 1241,
      "å¯¹äºİ": 1242,
      "æ¨¡åŀĭ": 1243,
      "åħ·ä½ĵ": 1244,
      "è®¡ç®Ĺæľº": 1245,
      "èĭ±": 1246,
      "çĶ·": 1247,
      "æĥħæĦŁ": 1248,
      "æľºåĻ¨åŃ¦ä¹ł": 1249,
      "çĲĨè§£": 1250,
      "Ġæł¹æį®": 1251,
      "æİ¨èįĲ": 1252,
      "çļĦæĬ": 1253,
      "è½¬": 1254,
      "å®ŀçİ°": 1255,
      "æľĢè¿ĳ": 1256,
      "æĸ°çļĦ": 1257,
      "æĺ¯åĲ¦": 1258,
      "éĢļå¸¸": 1259,
      "åı·": 1260,
      "åįĩ": 1261,
      "åİĭ": 1262,
      "è®¨": 1263,
      "é¦Ļ": 1264,
      "éĻ¤": 1265,
      "èµĽ": 1266,
      "è®²": 1267,
      "åĬ¿": 1268,
      "ä¸ĵ": 1269,
      "ä»Ĭå¤©": 1270,
      "æĽ´å¥½": 1271,
      "èĤī": 1272,
      "é²": 1273,
      "åĮĹ": 1274,
      "ä¸įæĸŃ": 1275,
      "åĲĦç§į": 1276,
      "ä¿®": 1277,
      "æĿİ": 1278,
      "è´¹": 1279,
      "é»ĳ": 1280,
      "éĶĢ": 1281,
      "æ°ĳ": 1282,
      "åľ°çĲĥ": 1283,
      "è®¡åĪĴ": 1284,
      "å¸Ĥåľº": 1285,
      "è£ħ": 1286,
      "åįİ": 1287,
      "æĪı": 1288,
      "åįģ": 1289,
      "åħ³éĶ®è¯į": 1290,
      "åĳĬè¯ī": 1291,
      "è¯ģ": 1292,
      "æŁĵ": 1293,
      "åħ»": 1294,
      "çļĦéĹ®é¢ĺ": 1295,
      "æīĢæľī": 1296,
      "ä¸Ģæ®µ": 1297,
      "é©¬": 1298,
      "èħ": 1299,
      "åĸĦ": 1300,
      "åĽ´": 1301,
      "æīĢä»¥": 1302,
      "çĶ¨æĪ·": 1303,
      "æ³¨æĦı": 1304,
      "èīº": 1305,
      "æĻļ": 1306,
      "ç»Ī": 1307,
      "æĪĳçļĦ": 1308,
      "åįķè¯į": 1309,
      "å¯»": 1310,
      "è¯ĨåĪ«": 1311,
      "éĢĤåĲĪ": 1312,
      "å¤ı": 1313,
      "ä¸Ģèµ·": 1314,
      "æİ§": 1315,
      "ç¦»": 1316,
      "å¸Į": 1317,
      "æŃ£åľ¨": 1318,
      "çª": 1319,
      "AI": 1320,
      "æĪĳä»¬åı¯ä»¥": 1321,
      "èĳĹ": 1322,
      "å¾ĭ": 1323,
      "éĻħ": 1324,
      "éĺ²": 1325,
      "æĸ°éĹ»": 1326,
      "æ¯Ķå¦Ĥ": 1327,
      "è¶ħ": 1328,
      "ä»ĸçļĦ": 1329,
      "åĽĽ": 1330,
      "è¿ľ": 1331,
      "å¤ªéĺ³": 1332,
      "åŃ©": 1333,
      "è¦ģæ±Ĥ": 1334,
      "çŁ¥éģĵ": 1335,
      "çļĦæĺ¯": 1336,
      "æĹłæ³ķ": 1337,
      "å°Ķ": 1338,
      "å¹¶ä¸Ķ": 1339,
      "ä¸Ģç§į": 1340,
      "å·§": 1341,
      "æĦŁåĪ°": 1342,
      "æŀĹ": 1343,
      "æ³Ľ": 1344,
      "å£°": 1345,
      "æĴ": 1346,
      "èµ°": 1347,
      "åĳ¢": 1348,
      "åħ³ç³»": 1349,
      "æŁĲ": 1350,
      "å°ıè¯´": 1351,
      "çĦ¶åĲİ": 1352,
      "åı¦": 1353,
      "ä»ħ": 1354,
      "ï¼ļâĢľ": 1355,
      "è´Ł": 1356,
      "æĹħæ¸¸": 1357,
      "è¿ĩç¨ĭ": 1358,
      "åįĹ": 1359,
      "æ¯ıä¸ª": 1360,
      "å£«": 1361,
      "ç½®": 1362,
      "åŃĺåľ¨": 1363,
      "æĢ»ç»ĵ": 1364,
      "å¤§çļĦ": 1365,
      "åİħ": 1366,
      "èģĮ": 1367,
      "è§£éĩĬ": 1368,
      "èĢĥèĻĳ": 1369,
      "å¾·": 1370,
      "æĪĲåĬŁ": 1371,
      "æĭī": 1372,
      "è´¨éĩı": 1373,
      "è¾¹": 1374,
      "æĹ©": 1375,
      "çļĦæ°": 1376,
      "ç®¡çĲĨ": 1377,
      "éĻį": 1378,
      "èĽĭ": 1379,
      "çļĦæĢ": 1380,
      "åŃ¦çĶŁ": 1381,
      "æĺ¾": 1382,
      "ĳæĪĺ": 1383,
      "åĦ": 1384,
      "æĪ¿": 1385,
      "çŃīçŃī": 1386,
      "èŀ": 1387,
      "ªæĸ½": 1388,
      "æ®µèĲ½": 1389,
      "è¡Įä¸º": 1390,
      "ç¾İåĽ½": 1391,
      "ä¸ľ": 1392,
      "æĪĳæĥ³": 1393,
      "éĶĻè¯¯": 1394,
      "åĮ»çĶŁ": 1395,
      "å¢ŀåĬł": 1396,
      "ä¸Ģç¯ĩ": 1397,
      "è¾ĳ": 1398,
      "çĨ": 1399,
      "ä¼¼": 1400,
      "å°Ŀè¯ķ": 1401,
      "äºĶ": 1402,
      "çħ§": 1403,
      "å¯¹è¯Ŀ": 1404,
      "å®ĮæĪĲ": 1405,
      "æ¦Ĥ": 1406,
      "å¯Ĩ": 1407,
      "çİ©": 1408,
      "æĺ¯ä»Ģä¹Ī": 1409,
      "å¹¿æ³Ľ": 1410,
      "ç±³": 1411,
      "ä¸ĭéĿ¢": 1412,
      "ä½ľä¸º": 1413,
      "åĪ©çĶ¨": 1414,
      "çĶ»": 1415,
      "è¿Ļæ®µ": 1416,
      "ä¸įåĲĮçļĦ": 1417,
      "çģ«": 1418,
      "èĩªåĬ¨": 1419,
      "æľĢåĲİ": 1420,
      "é¥®é£Ł": 1421,
      "æĭ¥": 1422,
      "æļĸ": 1423,
      "çİĭ": 1424,
      "éģ¿": 1425,
      "åĴĸ": 1426,
      "å½ĵçĦ¶": 1427,
      "æ¿": 1428,
      "é£Łçī©": 1429,
      "è®Ń": 1430,
      "çļĦåıĳå±ķ": 1431,
      "å®³": 1432,
      "å¾ĹåĪ°": 1433,
      "æµİ": 1434,
      "åı°": 1435,
      "æĽ´å¥½åľ°": 1436,
      "åĽ¢": 1437,
      "ç¡®ä¿Ŀ": 1438,
      "å¿µ": 1439,
      "åı¯èĥ½ä¼ļ": 1440,
      "çļĦåľ°": 1441,
      "çļĦæķ°": 1442,
      "ä¼ģ": 1443,
      "çļĦä¿¡æģ¯": 1444,
      "ãĢĤ\\": 1445,
      "ä»»ä½ķ": 1446,
      "æ°ĶåĢĻ": 1447,
      "äºļ": 1448,
      "ç®Ĺæ³ķ": 1449,
      "åķ¡": 1450,
      "èŀį": 1451,
      "çļĦåºĶçĶ¨": 1452,
      "äº¬": 1453,
      "ä¸įæĺ¯": 1454,
      "æłĩé¢ĺ": 1455,
      "äº§çĶŁ": 1456,
      "éĻĲ": 1457,
      "æĤ¨çļĦ": 1458,
      "åĴĸåķ¡": 1459,
      "æĥħåĨµ": 1460,
      "æ´ģ": 1461,
      "æĵ": 1462,
      "å®¤": 1463,
      "å¸ĮæľĽ": 1464,
      "æķħäºĭ": 1465,
      "èįī": 1466,
      "èİ·å¾Ĺ": 1467,
      "æį¢": 1468,
      "è¿ĺæľī": 1469,
      "åł": 1470,
      "éĽ¨": 1471,
      "äººçļĦ": 1472,
      "ç»ľ": 1473,
      "äº¤éĢļ": 1474,
      "æĢİ": 1475,
      "å·´": 1476,
      "è¾ĵåħ¥": 1477,
      "çĽ®æłĩ": 1478,
      "åĦ¿": 1479,
      "ç»ıæµİ": 1480,
      "è¿Ļæł·": 1481,
      "çĶŁæĪĲä¸Ģä¸ª": 1482,
      "å¹²": 1483,
      "é»Ħ": 1484,
      "è¡¨ç¤º": 1485,
      "é¦ĸåħĪ": 1486,
      "çĶ¨äºİ": 1487,
      "åı¯ä»¥å¸®åĬ©": 1488,
      "éħĴ": 1489,
      "è¡£": 1490,
      "é£ŀ": 1491,
      "éĥ½æĺ¯": 1492,
      "ç³ĸæŀľ": 1493,
      "ä¼Ĺ": 1494,
      "å¾ģ": 1495,
      "æľīæķĪ": 1496,
      "é¤Ĳåİħ": 1497,
      "çļĦä¸»è¦ģ": 1498,
      "ä½łåı¯ä»¥": 1499,
      "éĺħ": 1500,
      "åĮħåĲ«": 1501,
      "çīĽ": 1502,
      "çļĦæł": 1503,
      "ç©¿": 1504,
      "åºĹ": 1505,
      "æĹħè¡Į": 1506,
      "æī¾åĪ°": 1507,
      "å¾Ģ": 1508,
      "æķĻèĤ²": 1509,
      "å±ŀ": 1510,
      "åºŃ": 1511,
      "ç»ĵæŀľ": 1512,
      "ç®Ģåįķ": 1513,
      "¡æŁĵ": 1514,
      "éľĢæ±Ĥ": 1515,
      "æ¸¸æĪı": 1516,
      "æ¿Ģ": 1517,
      "çļĦéĩįè¦ģ": 1518,
      "éĥ¨åĪĨ": 1519,
      "éº": 1520,
      "åĳĬè¯īæĪĳ": 1521,
      "ä½¿åħ¶": 1522,
      "åĿĩ": 1523,
      "éģ¿åħį": 1524,
      "éĩĩåıĸ": 1525,
      "æ©": 1526,
      "å±ħ": 1527,
      "æ½": 1528,
      "è§ĤçĤ¹": 1529,
      "åĩłä¸ª": 1530,
      "æİªæĸ½": 1531,
      "ç½ĳç»ľ": 1532,
      "åĪ¶ä½ľ": 1533,
      "çīĮ": 1534,
      "åĩĨç¡®": 1535,
      "ä¹Łæĺ¯": 1536,
      "æľīåħ³": 1537,
      "å¾®": 1538,
      "ä»¤": 1539,
      "äºī": 1540,
      "æĮģç»Ń": 1541,
      "æĶ¯æĮģ": 1542,
      "èĥ½æºĲ": 1543,
      "ä¸ĩ": 1544,
      "ä½ĵéªĮ": 1545,
      "åª": 1546,
      "é±": 1547,
      "èµ·æĿ¥": 1548,
      "äºĨä¸Ģä¸ª": 1549,
      "é±¼": 1550,
      "ä½ľçĶ¨": 1551,
      "åī§": 1552,
      "ä¼ģä¸ļ": 1553,
      "è¡¨çİ°": 1554,
      "éĩįè¦ģçļĦ": 1555,
      "ç«Ļ": 1556,
      "ç»¿": 1557,
      "ä¸įèĥ½": 1558,
      "çĽĬ": 1559,
      "é¼": 1560,
      "çĳ": 1561,
      "æłĳ": 1562,
      "åıĳçĶŁ": 1563,
      "ä»ĸä»¬çļĦ": 1564,
      "ä¹Łåı¯ä»¥": 1565,
      "00": 1566,
      "èĵ": 1567,
      "èī¯": 1568,
      "éĺħè¯»": 1569,
      "åĪĩ": 1570,
      "å°ıçº¢": 1571,
      "èĩªçĦ¶è¯Ńè¨Ģ": 1572,
      "æ¤į": 1573,
      "¾çĹħ": 1574,
      "é¾": 1575,
      "çĶ±äºİ": 1576,
      "çİ°ä»£": 1577,
      "ä¸īä¸ª": 1578,
      "å¤ľ": 1579,
      "åĵªäºĽ": 1580,
      "åĪ¤": 1581,
      "ç¤¾äº¤": 1582,
      "å®Ŀ": 1583,
      "å¾ħ": 1584,
      "ç¬¦": 1585,
      "æ²¹": 1586,
      "æĭ¥æľī": 1587,
      "åŁºäºİ": 1588,
      "å¥¶": 1589,
      "âĢĿï¼Į": 1590,
      "æ¹": 1591,
      "åĬłåħ¥": 1592,
      "åħ³æ³¨": 1593,
      "çº§": 1594,
      "å¥ĩ": 1595,
      "è¿ĺæĺ¯": 1596,
      "èī²çļĦ": 1597,
      "ç»ĩ": 1598,
      "è¯Ĭ": 1599,
      "æ±¡æŁĵ": 1600,
      "åıĪ": 1601,
      "å¦Ĥæŀľä½ł": 1602,
      "é¢ľ": 1603,
      "éģĩ": 1604,
      "åĬª": 1605,
      "ä¸¾": 1606,
      "åºľ": 1607,
      "åĿĹ": 1608,
      "é¦Ĩ": 1609,
      "åĩºçİ°": 1610,
      "è¿ŀ": 1611,
      "çļĦæĸĩç«ł": 1612,
      "ä¸°": 1613,
      "é¸¡": 1614,
      "ç±»åŀĭ": 1615,
      "ä»¥ä¸ĭåı¥åŃĲ": 1616,
      "ç¡®å®ļ": 1617,
      "åĪ»": 1618,
      "å®¶åºŃ": 1619,
      "æĮĳæĪĺ": 1620,
      "æĺ¥": 1621,
      "å®¢æĪ·": 1622,
      "èµĦæºĲ": 1623,
      "çļĦæİ": 1624,
      "åĬªåĬĽ": 1625,
      "Ġä»İ": 1626,
      "âĢĿãĢĤ": 1627,
      "åĶ®": 1628,
      "è½¯": 1629,
      "ç¿»": 1630,
      "èĪĴ": 1631,
      "èį¯": 1632,
      "è®Ńç»ĥ": 1633,
      "æİ§åĪ¶": 1634,
      "èĻ½": 1635,
      "æľīè¶£": 1636,
      "éĿĻ": 1637,
      "æĢ§åĴĮ": 1638,
      "æķ£": 1639,
      "è¿½": 1640,
      "Ġå°Ĩ": 1641,
      "åĬŁèĥ½": 1642,
      "è¿Ļæĺ¯": 1643,
      "ä»İèĢĮ": 1644,
      "èĦĳ": 1645,
      "çļĦæĬĢ": 1646,
      "æŃ£ç¡®": 1647,
      "åıĹåĪ°": 1648,
      "æĸ¹æ¡Ī": 1649,
      "çļĦåı¥åŃĲ": 1650,
      "çļĦæĻ": 1651,
      "ä¸ºäºĨ": 1652,
      "ç§ĭ": 1653,
      "é¸Ł": 1654,
      "æ£Ģ": 1655,
      "ä¸¥": 1656,
      "æĬķ": 1657,
      "éŃ": 1658,
      "èŃ": 1659,
      "è§Ĵèī²": 1660,
      "æ²»çĸĹ": 1661,
      "æĤ¨åı¯ä»¥": 1662,
      "åħ¸": 1663,
      "çĸ¾çĹħ": 1664,
      "é¢Ħæµĭ": 1665,
      "èīºæľ¯": 1666,
      "å±Ĥ": 1667,
      "æ²Ļ": 1668,
      "çļĦç¾": 1669,
      "å½Ĵ": 1670,
      "åİĭåĬĽ": 1671,
      "ç¨ĭåºı": 1672,
      "æ¯Ķè¾ĥ": 1673,
      "æķĪçİĩ": 1674,
      "æİ¢ç´¢": 1675,
      "åģĩ": 1676,
      "äºĳ": 1677,
      "è¯¦": 1678,
      "äººå·¥æĻºèĥ½æĬĢæľ¯": 1679,
      "äºĭä»¶": 1680,
      "èĮĥ": 1681,
      "èĶ": 1682,
      "ä¸ĬçļĦ": 1683,
      "æĤ£": 1684,
      "æĿ¯": 1685,
      "è´Ńä¹°": 1686,
      "ä¼łç»Ł": 1687,
      "æĿĤ": 1688,
      "çļĦæĦı": 1689,
      "çŁ³": 1690,
      "èĻ½çĦ¶": 1691,
      "éĻ¢": 1692,
      "æľĢç»Ī": 1693,
      "éĨ": 1694,
      "ä¸įä»ħ": 1695,
      "æĿ¥è¶Ĭ": 1696,
      "æ°ĶåĢĻåıĺåĮĸ": 1697,
      "çĶŁçī©": 1698,
      "çĶŁåĳ½": 1699,
      "é²ľ": 1700,
      "è¶ĬæĿ¥è¶Ĭ": 1701,
      "æĮī": 1702,
      "ç¦ı": 1703,
      "çĶµåŃĲ": 1704,
      "æīįèĥ½": 1705,
      "æµª": 1706,
      "æĪĳä»¬éľĢè¦ģ": 1707,
      "éļıçĿĢ": 1708,
      "é£İéĻ©": 1709,
      "æ¥": 1710,
      "å°±æĺ¯": 1711,
      "Ġåľ¨": 1712,
      "æĽ²": 1713,
      "ä¸Ģä»½": 1714,
      "æ´ĭ": 1715,
      "è¯Ħè®º": 1716,
      "çķ¥": 1717,
      "æ±½": 1718,
      "åªĴ": 1719,
      "çĥ¤": 1720,
      "ä¸´": 1721,
      "ç¼º": 1722,
      "åĽ°": 1723,
      "ä¸Ģä½į": 1724,
      "åį¡": 1725,
      "è·ĳ": 1726,
      "æĿ¥è¯´": 1727,
      "çĵ": 1728,
      "èĥĮ": 1729,
      "åı¶": 1730,
      "åĨ°": 1731,
      "æĢİä¹Ī": 1732,
      "å»ºç«ĭ": 1733,
      "ç¼ĸè¾ĳ": 1734,
      "ä¸°å¯Į": 1735,
      "åĪĽéĢł": 1736,
      "æĶ¿åºľ": 1737,
      "åİŁåĽł": 1738,
      "æĻ®": 1739,
      "å½©": 1740,
      "ä»·åĢ¼": 1741,
      "èĩªçĦ¶è¯Ńè¨Ģå¤ĦçĲĨ": 1742,
      "è¯¦ç»Ĩ": 1743,
      "æĿĥ": 1744,
      "åĿļ": 1745,
      "èĵĿ": 1746,
      "æł¡": 1747,
      "çļĦæī": 1748,
      "æ°´æŀľ": 1749,
      "æ¯ĶèµĽ": 1750,
      "åĳ¼": 1751,
      "æĽ´å¤ļçļĦ": 1752,
      "çļĦç¾İ": 1753,
      "åĽłç´ł": 1754,
      "çĶŁæĢģ": 1755,
      "è¡¨æĺİ": 1756,
      "å¤ļå°ĳ": 1757,
      "ä½ľèĢħ": 1758,
      "è¯Ńæ³ķ": 1759,
      "äº²": 1760,
      "èľ": 1761,
      "æĸĩæ¡Ī": 1762,
      "æĹ¶åĢĻ": 1763,
      "ä¹ĭéĹ´çļĦ": 1764,
      "è¯ĬæĸŃ": 1765,
      "ç¬Ķ": 1766,
      "æĶ¹åıĺ": 1767,
      "æĹı": 1768,
      "ç»Ħç»ĩ": 1769,
      "åħ¬åĽŃ": 1770,
      "åĩĨå¤ĩ": 1771,
      "ä»¥ä¸ĭæĸĩæľ¬": 1772,
      "è¿ĺåı¯ä»¥": 1773,
      "åĬŀ": 1774,
      "å³": 1775,
      "èĴ": 1776,
      "æľºä¼ļ": 1777,
      "é¢ĺçĽ®": 1778,
      "ä½ı": 1779,
      "ä¿ĥ": 1780,
      "é¢Ĺ": 1781,
      "çļĦæĥħæĦŁ": 1782,
      "çªģ": 1783,
      "æĿĲæĸĻ": 1784,
      "çĶŁäº§": 1785,
      "çĽĳ": 1786,
      "ç¼ĵ": 1787,
      "éĴŁ": 1788,
      "åĲįç§°": 1789,
      "è¿İ": 1790,
      "é£İæł¼": 1791,
      "ç»ĵæŀĦ": 1792,
      "çķĻ": 1793,
      "å°¼": 1794,
      "çĻ¾": 1795,
      "çļĦæĸ¹æ³ķ": 1796,
      "å½ĵåľ°": 1797,
      "å¹´è½»": 1798,
      "ç»ıéªĮ": 1799,
      "å®ĥçļĦ": 1800,
      "çī¹å¾ģ": 1801,
      "åıĺå¾Ĺ": 1802,
      "çĸ«": 1803,
      "æ³¢": 1804,
      "äº®": 1805,
      "çłģ": 1806,
      "é£Łåĵģ": 1807,
      "çĤ¼": 1808,
      "è¡Įä¸ļ": 1809,
      "åķĨåĵģ": 1810,
      "äº«åıĹ": 1811,
      "å¤§éĩı": 1812,
      "é¢ľèī²": 1813,
      "å¯»æī¾": 1814,
      "åªĴä½ĵ": 1815,
      "å¦ĤæŀľæĤ¨": 1816,
      "è¡¡": 1817,
      "å¼Ĥ": 1818,
      "å¿ĥçĲĨ": 1819,
      "çļĦæµ": 1820,
      "ç½Ĺ": 1821,
      "çļĦæĸĩæľ¬": 1822,
      "éĿĴ": 1823,
      "æĭŁ": 1824,
      "æľ¨": 1825,
      "ĠæĪĳ": 1826,
      "åĤ": 1827,
      "è®¨è®º": 1828,
      "è¡ĮåĬ¨": 1829,
      "è´£": 1830,
      "çļ®": 1831,
      "æ´²": 1832,
      "åĲ§": 1833,
      "é¡»": 1834,
      "è´ŁéĿ¢": 1835,
      "ä¸Ģå®ļ": 1836,
      "åħħæ»¡": 1837,
      "åıĤåĬł": 1838,
      "å¨ģ": 1839,
      "ä¸ºä»Ģä¹Ī": 1840,
      "ĥåľ": 1841,
      "å¼Ģåıĳ": 1842,
      "è¯ĳ": 1843,
      "åľ¨è¿Ļä¸ª": 1844,
      "èĳĹåĲį": 1845,
      "ä»·æł¼": 1846,
      "æ¯ıä¸ªäºº": 1847,
      "åŀĥåľ": 1848,
      "åŀĥåľ¾": 1849,
      "ä¼¤": 1850,
      "éĥ¨çĶµå½±": 1851,
      "æ¯ıå¤©": 1852,
      "ä¸Ńå¿ĥ": 1853,
      "å·¥åħ·": 1854,
      "ĊĊ": 1855,
      "çŁ¥è¯Ĩ": 1856,
      "ãĢĤ\"": 1857,
      "æ±½è½¦": 1858,
      "ä¸ĢæŃ¥": 1859,
      "è®¾å¤ĩ": 1860,
      "æ¯į": 1861,
      "ç¾¤": 1862,
      "æ»©": 1863,
      "åħ´è¶£": 1864,
      "åĩºäºĨ": 1865,
      "èĶ¬": 1866,
      "ç´§": 1867,
      "åĮĹäº¬": 1868,
      "åľºæĻ¯": 1869,
      "ä½ľåĵģ": 1870,
      "åĵģçīĮ": 1871,
      "ä¸ĵä¸ļ": 1872,
      "ä»į": 1873,
      "æĶ¹åĸĦ": 1874,
      "åľŁ": 1875,
      "éĤ®": 1876,
      "è¿Ļä¸ªéĹ®é¢ĺ": 1877,
      "çļĦæ¸": 1878,
      "æĽ¿": 1879,
      "çļĦæķħäºĭ": 1880,
      "è®²è¿°": 1881,
      "è¿Ļåı¥è¯Ŀ": 1882,
      "ç¾İä¸½": 1883,
      "çļĦæŃ": 1884,
      "çļĦæĶ": 1885,
      "å¸®æĪĳ": 1886,
      "éĩİ": 1887,
      "èĪĴéĢĤ": 1888,
      "åĪĽæĸ°": 1889,
      "éĺ¿": 1890,
      "çľł": 1891,
      "ä¸ĢçĽ´": 1892,
      "æīĭæľº": 1893,
      "ç§ĺ": 1894,
      "åº§": 1895,
      "æ¼«": 1896,
      "æ·±åº¦": 1897,
      "è¯¢": 1898,
      "æĪĳä¼ļ": 1899,
      "åĩ»": 1900,
      "çļĦçĶµå½±": 1901,
      "æĶ¾æĿ¾": 1902,
      "é¡¹çĽ®": 1903,
      "åŃ©åŃĲ": 1904,
      "èĥľ": 1905,
      "çģµ": 1906,
      "çŃĳ": 1907,
      "éĢłæĪĲ": 1908,
      "æħ¢": 1909,
      "éĢĲ": 1910,
      "å·ŀ": 1911,
      "è¶ĭ": 1912,
      "éĩįæĸ°": 1913,
      "19": 1914,
      "éĩĳèŀį": 1915,
      "è§īå¾Ĺ": 1916,
      "å·¨": 1917,
      "ä¼ĳ": 1918,
      "çł´": 1919,
      "ä»¥ä¸ĭæĺ¯": 1920,
      "çĩ": 1921,
      "äºĭæĥħ": 1922,
      "åĲ¸å¼ķ": 1923,
      "åĪ¤æĸŃ": 1924,
      "åĨ³å®ļ": 1925,
      "èģĬ": 1926,
      "èĶ¬èıľ": 1927,
      "éĢģ": 1928,
      "å½ķ": 1929,
      "æ¤įçī©": 1930,
      "çļĦçŁ": 1931,
      "çĹĩ": 1932,
      "èĢĮä¸Ķ": 1933,
      "çĿ¡": 1934,
      "ä¸ŃæıĲåıĸåĩº": 1935,
      "è¯·éĹ®": 1936,
      "èŃ¦": 1937,
      "æķ°åŃĹ": 1938,
      "åį°": 1939,
      "åĨĽ": 1940,
      "éĶ»": 1941,
      "åįı": 1942,
      "å·®": 1943,
      "åī©": 1944,
      "åı¦å¤ĸ": 1945,
      "éļĲ": 1946,
      "éĶ»çĤ¼": 1947,
      "ä½³": 1948,
      "æŃ¢": 1949,
      "é©¶": 1950,
      "ä¸Ģæ¬¡": 1951,
      "æ¸Ĳ": 1952,
      "æĢ§çļĦ": 1953,
      "çľĭåĪ°": 1954,
      "å»ºçŃĳ": 1955,
      "ç¿»è¯ĳ": 1956,
      "å°Ĭ": 1957,
      "éĩĩçĶ¨": 1958,
      "Ġ\"": 1959,
      "æľīä»Ģä¹Ī": 1960,
      "æ²³": 1961,
      "éĶĢåĶ®": 1962,
      "æĪĳåı¯ä»¥": 1963,
      "åı¯æĮģç»Ń": 1964,
      "çºª": 1965,
      "æĩ": 1966,
      "çľ¼": 1967,
      "è¶ĭåĬ¿": 1968,
      "å¿ħé¡»": 1969,
      "èª": 1970,
      "é¢ĳ": 1971,
      "æ°§": 1972,
      "ç®Ģæ´ģ": 1973,
      "æĸĩç«łä¸Ń": 1974,
      "å°Ĩåħ¶": 1975,
      "æ¢¦": 1976,
      "Ġå¥½çļĦ": 1977,
      "åĽ¢éĺŁ": 1978,
      "æĺ¨": 1979,
      "ä¸įä¼ļ": 1980,
      "éĴ±": 1981,
      "æĿ¿": 1982,
      "é©¾": 1983,
      "ç»ª": 1984,
      "ç§ģ": 1985,
      "åĪ¶å®ļ": 1986,
      "ä»¥ä¸Ĭ": 1987,
      "åĬ©äºİ": 1988,
      "åį«": 1989,
      "åĵĪ": 1990,
      "å¤įæĿĤ": 1991,
      "åĪĿ": 1992,
      "çļĦçł": 1993,
      "å¿«éĢŁ": 1994,
      "åĬ±": 1995,
      "åľ°åĮº": 1996,
      "çī¹çĤ¹": 1997,
      "èĩªçĶ±": 1998,
      "æķ°åŃ¦": 1999,
      "è¿Ļæ®µæĸĩæľ¬": 2000,
      "çī¹åĪ«": 2001,
      "æ¶ī": 2002,
      "ä¸Ģåıª": 2003,
      "éĥ½æľī": 2004,
      "ä»£è¡¨": 2005,
      "å±ŀäºİ": 2006,
      "çĦ¶èĢĮ": 2007,
      "æĥ³è¦ģ": 2008,
      "åĨľ": 2009,
      "çļĦæĳ": 2010,
      "æĺ¯åľ¨": 2011,
      "æĸĩåŃĹ": 2012,
      "æĳĦ": 2013,
      "èģĮä¸ļ": 2014,
      "æĥ¯": 2015,
      "çļĦæ²": 2016,
      "è´¢": 2017,
      "å¿Ĺ": 2018,
      "è¡Ģ": 2019,
      "çĽ®åīį": 2020,
      "èĹ": 2021,
      "ä¸ºæĤ¨": 2022,
      "è¯Ħä»·": 2023,
      "çĸĳ": 2024,
      "å®ŀä½ĵ": 2025,
      "æĲŃ": 2026,
      "ä¼¦": 2027,
      "ä¾Ŀ": 2028,
      "éĻįä½İ": 2029,
      "åĨ·": 2030,
      "éĴĪ": 2031,
      "å°ļ": 2032,
      "éĺ³åħī": 2033,
      "ç»ıåİĨ": 2034,
      "å²ģ": 2035,
      "å°½ç®¡": 2036,
      "åºķ": 2037,
      "åĲĪä½ľ": 2038,
      "å©": 2039,
      "æĬ¥éģĵ": 2040,
      "åħ¬åı¸çļĦ": 2041,
      "å¾Īå¥½": 2042,
      "åı¯ä»¥éĢļè¿ĩ": 2043,
      "çļĦçĶŁæ´»": 2044,
      "æ·»": 2045,
      "ä¸įè¦ģ": 2046,
      "éĤ®ä»¶": 2047,
      "æĺ¯æĮĩ": 2048,
      "ç²ī": 2049,
      "çļĦæĮ": 2050,
      "äººå·¥æĻºèĥ½åľ¨": 2051,
      "åĬłå¼º": 2052,
      "çĽĸ": 2053,
      "ç»§": 2054,
      "åįļ": 2055,
      "ç®ĢçŁŃ": 2056,
      "æķ°éĩı": 2057,
      "çī©è´¨": 2058,
      "ç¼ĸåĨĻ": 2059,
      "ä¿ĥè¿Ľ": 2060,
      "ä½łèĥ½": 2061,
      "æĥĬ": 2062,
      "çīĪ": 2063,
      "åħ±åĲĮ": 2064,
      "çļĦæĦŁ": 2065,
      "ç¾İé£Ł": 2066,
      "è®©æĪĳ": 2067,
      "å¼ºè°ĥ": 2068,
      "è¿ĻéĩĮ": 2069,
      "çļĦå»ºè®®": 2070,
      "ç»Ļå®ļçļĦæĸĩæľ¬": 2071,
      "æ±ĩ": 2072,
      "æľīåĬ©äºİ": 2073,
      "ä¸ĬæľĢ": 2074,
      "è¿Ļéĥ¨çĶµå½±": 2075,
      "å¹¸": 2076,
      "åĪļ": 2077,
      "å°Ħ": 2078,
      "çļĦæ¯": 2079,
      "æĹ¨": 2080,
      "ä¹łæĥ¯": 2081,
      "åŁºç¡": 2082,
      "è°¢è°¢": 2083,
      "åŁºç¡Ģ": 2084,
      "éĩįåĨĻ": 2085,
      "åıĮ": 2086,
      "æľīå¾Īå¤ļ": 2087,
      "ç¤¼": 2088,
      "èģĶç½ĳ": 2089,
      "æľīäºĽ": 2090,
      "èĻļ": 2091,
      "æķ´ä¸ª": 2092,
      "ä¸ĢåĲį": 2093,
      "ç§»": 2094,
      "ä½¿å¾Ĺ": 2095,
      "èĪŀ": 2096,
      "åĨ³çŃĸ": 2097,
      "éĵģ": 2098,
      "åĬĽåĴĮ": 2099,
      "åį´": 2100,
      "åĮ»åŃ¦": 2101,
      "Ġç»Ļå®ļ": 2102,
      "äº¤æµģ": 2103,
      "å½¢å¼ı": 2104,
      "åį±": 2105,
      "ä¸įéĶĻ": 2106,
      "å±Ģ": 2107,
      "çļĦæķ°æį®": 2108,
      "æĬĢèĥ½": 2109,
      "å¡ĳ": 2110,
      "âĢĶ": 2111,
      "åįĪ": 2112,
      "èĮ¶": 2113,
      "è¿Ļæĺ¯ä¸Ģ": 2114,
      "æĤ£èĢħ": 2115,
      "ç¥¨": 2116,
      "å®ĩ": 2117,
      "åŁºæľ¬": 2118,
      "æľ¬æĸĩ": 2119,
      "Ġ-": 2120,
      "æĬĢå·§": 2121,
      "æľºåĻ¨äºº": 2122,
      "å¯Ł": 2123,
      "å¹»": 2124,
      "çļĦæı": 2125,
      "æ¯Ĵ": 2126,
      "èģĶç³»": 2127,
      "çļĦç¤": 2128,
      "è¯´æĺİ": 2129,
      "çī¹å®ļ": 2130,
      "åı«": 2131,
      "çŃīæĸ¹éĿ¢": 2132,
      "èķ": 2133,
      "ä»¤äºº": 2134,
      "æĭħ": 2135,
      "æİ¢è®¨": 2136,
      "åķĬ": 2137,
      "å¢ŀå¼º": 2138,
      "é¥Ń": 2139,
      "åĪĨéĴŁ": 2140,
      "æĢĿèĢĥ": 2141,
      "è¿ĩç¨ĭä¸Ń": 2142,
      "ç¹": 2143,
      "åįĥ": 2144,
      "æ¯Ľ": 2145,
      "åĸĿ": 2146,
      "çĭ¬çī¹": 2147,
      "è®©äºº": 2148,
      "æıĲåĪ°": 2149,
      "ä¸ªèĭ¹æŀľ": 2150,
      "å®£": 2151,
      "ä½įç½®": 2152,
      "èĢģå¸Ī": 2153,
      "å³°": 2154,
      "ç«ŀ": 2155,
      "è±Ĩ": 2156,
      "çº³": 2157,
      "æ¬¢è¿İ": 2158,
      "è¯ŃéŁ³": 2159,
      "èĸ": 2160,
      "ç¬¬äºĮ": 2161,
      "éŀ": 2162,
      "æĬ½": 2163,
      "ä»ĺ": 2164,
      "å¥¥": 2165,
      "æ©Ļ": 2166,
      "åıªæľī": 2167,
      "åĿĲ": 2168,
      "éĢŁåº¦": 2169,
      "ä»¥ä¾¿": 2170,
      "è¡ĮæĺŁ": 2171,
      "ç«¯": 2172,
      "ç»Ŀ": 2173,
      "æĸĩåŃ¦": 2174,
      "éĢı": 2175,
      "è¿Ľä¸ĢæŃ¥": 2176,
      "èģļ": 2177,
      "æĦŁè§ī": 2178,
      "è·Ł": 2179,
      "è¯¾": 2180,
      "è¾ĵåĩº": 2181,
      "å®¹æĺĵ": 2182,
      "æĦŁè°¢": 2183,
      "ç¤¾äº¤åªĴä½ĵ": 2184,
      "å½¢æĪĲ": 2185,
      "æī§": 2186,
      "çģ¾": 2187,
      "æŃ£éĿ¢": 2188,
      "ä¹ħ": 2189,
      "çļĦæ°´": 2190,
      "ä½Ļ": 2191,
      "é¡º": 2192,
      "çļĦçľ": 2193,
      "æĦ¿": 2194,
      "çĦ¦": 2195,
      "é¹": 2196,
      "é©¾é©¶": 2197,
      "çĮ®": 2198,
      "ç»ĦæĪĲ": 2199,
      "ç¬ĳ": 2200,
      "è¿Ļæĺ¯ä¸Ģä¸ª": 2201,
      "å®ŀéĻħ": 2202,
      "æ¶īåıĬ": 2203,
      "çıŃ": 2204,
      "å¤§åĪ©": 2205,
      "æ·±åº¦åŃ¦ä¹ł": 2206,
      "çĥĪ": 2207,
      "åĪĽæĦı": 2208,
      "çļĦæĬĢæľ¯": 2209,
      "è¿Ļä¸Ģ": 2210,
      "åģ¥èº«": 2211,
      "èĪ¬": 2212,
      "èĪª": 2213,
      "æ¦Ĥæĭ¬": 2214,
      "åįĬ": 2215,
      "ç»ĥä¹ł": 2216,
      "åģļåĩº": 2217,
      "åŃ¦æł¡": 2218,
      "é¾Ļ": 2219,
      "çļĦä¸»é¢ĺ": 2220,
      "ä¸įåı¯": 2221,
      "æĿ¡ä»¶": 2222,
      "åıĺæļĸ": 2223,
      "äººåĳĺ": 2224,
      "åĲįåŃĹ": 2225,
      "é¼ĵ": 2226,
      "æıĲä¾ĽäºĨ": 2227,
      "èĲ¥åħ»": 2228,
      "ç»§ç»Ń": 2229,
      "çļĦæĹ¶éĹ´": 2230,
      "ç¼ĸç¨ĭ": 2231,
      "åĳĺå·¥": 2232,
      "åĲįè¯į": 2233,
      "çİĽ": 2234,
      "æĦıè¯Ĩ": 2235,
      "åı¯ä»¥åľ¨": 2236,
      "éĵ¾": 2237,
      "æķħ": 2238,
      "ç»ıå¸¸": 2239,
      "é«ĺçļĦ": 2240,
      "æĸ¹åĲĳ": 2241,
      "è´Ńçī©": 2242,
      "èĥĮæĻ¯": 2243,
      "èĩªæĪĳ": 2244,
      "åĨ¬": 2245,
      "éĢĤå½ĵ": 2246,
      "æĦıä¹ī": 2247,
      "éĵ¶": 2248,
      "æ°´å¹³": 2249,
      "å¤ļä¸ª": 2250,
      "èĮĥåĽ´": 2251,
      "é¢Ŀ": 2252,
      "çļĦå¤©æ°Ķ": 2253,
      "æĭ¿": 2254,
      "å¤ļç§į": 2255,
      "è¯ĹæŃĮ": 2256,
      "Ġä¸º": 2257,
      "åĽ¾åĥı": 2258,
      "Ġç»ĻæĪĳ": 2259,
      "åħ°": 2260,
      "ä¸¥éĩį": 2261,
      "å®ĺ": 2262,
      "åĳ¼åĲ¸": 2263,
      "çī©åĵģ": 2264,
      "ä¼´": 2265,
      "æĮīçħ§": 2266,
      "éŀĭ": 2267,
      "å¦Ĥä¸ĭ": 2268,
      "åºĶå¯¹": 2269,
      "è¿·": 2270,
      "çļĦå°ı": 2271,
      "å®ł": 2272,
      "èĲ¨": 2273,
      "å¸¸è§ģ": 2274,
      "å¤ıå¤©": 2275,
      "æ¸ħæĻ": 2276,
      "æ»¡è¶³": 2277,
      "ç¢³": 2278,
      "åĲĮæĹ¶ä¹Ł": 2279,
      "è½¯ä»¶": 2280,
      "å¹³è¡¡": 2281,
      "æ´ŀ": 2282,
      "å¯¹è¯ĿåĨħå®¹": 2283,
      "æľ«": 2284,
      "é¡¾": 2285,
      "çŁŃè¯Ń": 2286,
      "æĬ±": 2287,
      "åİ»äºĨ": 2288,
      "ä¼ļè®®": 2289,
      "ä¼°": 2290,
      "éª¤": 2291,
      "ç±»åĪ«": 2292,
      "æ£ĢæŁ¥": 2293,
      "çļĦçĪ": 2294,
      "åĢĭ": 2295,
      "åĭĩ": 2296,
      "ä¸ĭæĿ¥": 2297,
      "15": 2298,
      "æĽ¾": 2299,
      "çĨŁ": 2300,
      "ç»ıåħ¸": 2301,
      "éĽª": 2302,
      "çºł": 2303,
      "æľ¬ä¹¦": 2304,
      "ç¹ģ": 2305,
      "èµı": 2306,
      "æĲľ": 2307,
      "å¼ķèµ·": 2308,
      "æıĲåĪ°äºĨ": 2309,
      "äºĭå®ŀ": 2310,
      "ç©ºæ°Ķ": 2311,
      "æľĹ": 2312,
      "çļĦæłĩ": 2313,
      "ä½įäºİ": 2314,
      "åŃ¤": 2315,
      "åģı": 2316,
      "åıĤä¸İ": 2317,
      "åĿı": 2318,
      "è¸": 2319,
      "æ´Ĺ": 2320,
      "è¯»èĢħ": 2321,
      "åħĥç´ł": 2322,
      "éŃĶ": 2323,
      "çļĦåħ³éĶ®": 2324,
      "æĬķèµĦ": 2325,
      "çĶµè§Ĩ": 2326,
      "æĦī": 2327,
      "å½ĵçĦ¶åı¯ä»¥": 2328,
      "ä»Ģä¹Īæĺ¯": 2329,
      "æ³³": 2330,
      "åķĨä¸ļ": 2331,
      "æĹ¥å¸¸": 2332,
      "ç¨³": 2333,
      "æĽ´å¥½çļĦ": 2334,
      "æĺ¨å¤©": 2335,
      "è°Ī": 2336,
      "åĪĨäº«": 2337,
      "ç§ĳåŃ¦å®¶": 2338,
      "éĿ¢ä¸´": 2339,
      "çľģ": 2340,
      "åĩºæĿ¥": 2341,
      "çļĦçłĶç©¶": 2342,
      "æŁĶ": 2343,
      "çķħ": 2344,
      "å§Ĩ": 2345,
      "åĢ¼å¾Ĺ": 2346,
      "çļĦæĸ¹å¼ı": 2347,
      "æ¸©åº¦": 2348,
      "çĶľ": 2349,
      "æ²ī": 2350,
      "è·Ŀ": 2351,
      "åģľ": 2352,
      "æİĴæĶ¾": 2353,
      "è´µ": 2354,
      "éĢĶ": 2355,
      "æ·»åĬł": 2356,
      "è¿ĩåİ»": 2357,
      "å®łçī©": 2358,
      "åĬĽéĩı": 2359,
      "éĢīé¡¹": 2360,
      "é¥°": 2361,
      "æľīçĿĢ": 2362,
      "çĨĬ": 2363,
      "éħ±": 2364,
      "è¶ħè¿ĩ": 2365,
      "æķĪæŀľ": 2366,
      "èĤ¡": 2367,
      "è°ģ": 2368,
      "çİ°å®ŀ": 2369,
      "å²Ľ": 2370,
      "åı£æĦŁ": 2371,
      "éħ¸": 2372,
      "å°Ĩä¼ļ": 2373,
      "éĻĪ": 2374,
      "ç³»åĪĹ": 2375,
      "åĽ½å®¶": 2376,
      "çļĦå·¥ä½ľ": 2377,
      "çļĦç¬": 2378,
      "ç¾İåĳ³": 2379,
      "ä¼½": 2380,
      "ï¼ĮâĢľ": 2381,
      "æŃ»": 2382,
      "å¹³åĿĩ": 2383,
      "å¥ĸ": 2384,
      "æĴŃ": 2385,
      "è¿ĽæŃ¥": 2386,
      "éľ²": 2387,
      "å¤«": 2388,
      "åĸľæ¬¢çļĦ": 2389,
      "éĿł": 2390,
      "æ¬§": 2391,
      "ç³ķ": 2392,
      "æ£®": 2393,
      "å¿ĺ": 2394,
      "å¤§åŃ¦": 2395,
      "äººçī©": 2396,
      "æİĮ": 2397,
      "å®Ļ": 2398,
      "ç¥ŀç»ı": 2399,
      "çļĦæ®": 2400,
      "åĪĽå»º": 2401,
      "åħ¨çĲĥåıĺæļĸ": 2402,
      "éĢĤåºĶ": 2403,
      "èĨ": 2404,
      "çŃīé¢ĨåŁŁ": 2405,
      "éĴĪå¯¹": 2406,
      "æĺİå¤©": 2407,
      "åŁ¹": 2408,
      "å¿Ĩ": 2409,
      "è´§": 2410,
      "12": 2411,
      "çļĦæĥħåĨµ": 2412,
      "äºĴèģĶç½ĳ": 2413,
      "æľīä¸Ģä¸ª": 2414,
      "ä¹īè¯į": 2415,
      "è°ĥæķ´": 2416,
      "çļĦæľĢ": 2417,
      "å¥Ĺ": 2418,
      "å®ĩå®Ļ": 2419,
      "åĨĻä½ľ": 2420,
      "ä¹³": 2421,
      "éĿ©": 2422,
      "çĽ¸åĲĮ": 2423,
      "è¿Ļä¸ªåı¥åŃĲ": 2424,
      "åıĸå¾Ĺ": 2425,
      "çļĦåľ°æĸ¹": 2426,
      "æĸĩæľ¬ä¸Ń": 2427,
      "åĲĪéĢĤ": 2428,
      "ľä¼½": 2429,
      "ä¿®æĶ¹": 2430,
      "30": 2431,
      "çļĦæ´": 2432,
      "è§Ĩè§ī": 2433,
      "è®©æĪĳä»¬": 2434,
      "æ¸ħæĻ°": 2435,
      "æĪĳä»¬åºĶè¯¥": 2436,
      "çĪ±æĥħ": 2437,
      "åī©ä¸ĭ": 2438,
      "æ¥¼": 2439,
      "çº½": 2440,
      "å°ıæĹ¶": 2441,
      "æ³ķå¾ĭ": 2442,
      "éģĹ": 2443,
      "æĥħèĬĤ": 2444,
      "ä¸Ģé¦ĸ": 2445,
      "é«ĺæķĪ": 2446,
      "è¯·ä½ł": 2447,
      "æ·±åħ¥": 2448,
      "Ġæııè¿°": 2449,
      "æļĹ": 2450,
      "å½¢å®¹": 2451,
      "æı¡": 2452,
      "æī¿": 2453,
      "èĲ¥éĶĢ": 2454,
      "æ··": 2455,
      "åĽłä¸ºå®ĥ": 2456,
      "åĨĴ": 2457,
      "åĪĽä½ľ": 2458,
      "è·³": 2459,
      "åĽ°éļ¾": 2460,
      "æĹ¥æľ¬": 2461,
      "åĢĴ": 2462,
      "ä¸ªç³ĸæŀľ": 2463,
      "åľ°çĤ¹": 2464,
      "ç§Ģ": 2465,
      "èĹı": 2466,
      "æµ·æ´ĭ": 2467,
      "ä»ĭç»įäºĨ": 2468,
      "åºĬ": 2469,
      "æ±Ł": 2470,
      "çŃĸçķ¥": 2471,
      "çļĦæ®µ": 2472,
      "æ½ľ": 2473,
      "éļĲç§ģ": 2474,
      "è¶³å¤Ł": 2475,
      "è¯įæ±ĩ": 2476,
      "çĽ¸ä¼¼": 2477,
      "æĹ¶å°ļ": 2478,
      "æ±ī": 2479,
      "æĹ¥æľŁ": 2480,
      "ç£": 2481,
      "å·§åħĭ": 2482,
      "éģĵå¾·": 2483,
      "å¡ĳæĸĻ": 2484,
      "èĭ±è¯Ń": 2485,
      "çļĦçĥ": 2486,
      "çļĦå¤§": 2487,
      "ç½ĳç«Ļ": 2488,
      "æ±¤": 2489,
      "æ£Ĵ": 2490,
      "å·¦": 2491,
      "ä¼ĺåĮĸ": 2492,
      "100": 2493,
      "çļĦæ°Ķ": 2494,
      "çļĦæ®µèĲ½": 2495,
      "å¿«ä¹Ĳ": 2496,
      "çļĦç¤¾": 2497,
      "ç»ĨèĬĤ": 2498,
      "çļĦè¯Ŀ": 2499,
      "æĵį": 2500,
      "ä¾ĭåŃĲ": 2501,
      "å¹¶åľ¨": 2502,
      "éĨĴ": 2503,
      "æ¸¸æ³³": 2504,
      "å®Ī": 2505,
      "ç»¿èī²": 2506,
      "çĦ¦èĻĳ": 2507,
      "æļ´": 2508,
      "èį¯çī©": 2509,
      "å®ĥä»¬çļĦ": 2510,
      "åĪĨç±»ä¸º": 2511,
      "éļľ": 2512,
      "çĻ»": 2513,
      "è´£ä»»": 2514,
      "è¢ĭ": 2515,
      "æľĿ": 2516,
      "æĺ¯çļĦ": 2517,
      "æıĲåĩº": 2518,
      "åŃ£èĬĤ": 2519,
      "ä¿Ŀåģ¥": 2520,
      "æĹłè®º": 2521,
      "æ¶Īè´¹": 2522,
      "é¡¿": 2523,
      "ä»įçĦ¶": 2524,
      "ä¸Ģç¯ĩæĸĩç«ł": 2525,
      "Ġç»Ļåĩº": 2526,
      "çļĦæĹ¶åĢĻ": 2527,
      "æĬ¥åĳĬ": 2528,
      "æĶ¿çŃĸ": 2529,
      "å¹¿åĳĬ": 2530,
      "äººå·¥æĻºèĥ½çļĦ": 2531,
      "çģ¯": 2532,
      "ä»¥ä¸ĭæĺ¯ä¸Ģ": 2533,
      "å¹³åı°": 2534,
      "åĲĪçĲĨ": 2535,
      "åı³": 2536,
      "çļĦéĩįè¦ģæĢ§": 2537,
      "ç»ŃåĨĻ": 2538,
      "æĪĳåĸľæ¬¢": 2539,
      "å¤ļæł·": 2540,
      "æ¨¡å¼ı": 2541,
      "å°ģ": 2542,
      "å·§åħĭåĬĽ": 2543,
      "çļĦå¥½": 2544,
      "ç¥ŀç§ĺ": 2545,
      "åĹ": 2546,
      "ŁéĢļ": 2547,
      "åĮĸçļĦ": 2548,
      "è¡Ĺ": 2549,
      "å¢ŀéķ¿": 2550,
      "..": 2551,
      "çĬ¯": 2552,
      "ç®±": 2553,
      "åľ¨å®¶": 2554,
      "æµĵ": 2555,
      "åıįåºĶ": 2556,
      "ä¸įè¿ĩ": 2557,
      "çĹĽ": 2558,
      "ä¸Ģæł·": 2559,
      "åľĨ": 2560,
      "å°ıæĺİæľī": 2561,
      "èĢĲ": 2562,
      "å¹¸ç¦ı": 2563,
      "æĮ¥": 2564,
      "æĬĺ": 2565,
      "å¸¦æĿ¥äºĨ": 2566,
      "æĭ¼": 2567,
      "åĺ": 2568,
      "Ġå¯¹": 2569,
      "ç¬¦åĲĪ": 2570,
      "èĦĤ": 2571,
      "æĶ¹è¿Ľ": 2572,
      "çĳľä¼½": 2573,
      "å¡Ķ": 2574,
      "æĲľç´¢": 2575,
      "çĬ¶æĢģ": 2576,
      "åĨ²": 2577,
      "åı£åĳ³": 2578,
      "åĪ¶éĢł": 2579,
      "çļĦæµ·": 2580,
      "çĶµèĦĳ": 2581,
      "å¿ħè¦ģ": 2582,
      "ç¼ĵè§£": 2583,
      "50": 2584,
      "ä¹İ": 2585,
      "æķĳ": 2586,
      "æĦŁåıĹ": 2587,
      "æĬĹ": 2588,
      "çº½çº¦": 2589,
      "çī©çĲĨ": 2590,
      "Ġ=": 2591,
      "è£¤": 2592,
      "çº¸": 2593,
      "æĺİç¡®": 2594,
      "äººåĲį": 2595,
      "è¯įè¯Ń": 2596,
      "æŃ£ç¡®çļĦ": 2597,
      "çļĦæĳĺè¦ģ": 2598,
      "åħ¶æ¬¡": 2599,
      "ä¸Ĭåįĩ": 2600,
      "èĦļ": 2601,
      "é¼ĵåĬ±": 2602,
      "ç«ŀäºī": 2603,
      "ç«¥": 2604,
      "åį³åı¯": 2605,
      "æĢ»æĺ¯": 2606,
      "éĹ²": 2607,
      "åľ°æĸ¹": 2608,
      "åĬ¨ä½ľ": 2609,
      "çļĦä¸»": 2610,
      "æĥħç»ª": 2611,
      "æł¸": 2612,
      "å·¥ç¨ĭ": 2613,
      "åĪĨç»Ļ": 2614,
      "ç±į": 2615,
      "æıĲä¾Ľä¸Ģä¸ª": 2616,
      "æ½®": 2617,
      "éĢĲæ¸Ĳ": 2618,
      "çİ°è±¡": 2619,
      "åıĹæ¬¢è¿İ": 2620,
      "åĽ½éĻħ": 2621,
      "è¿½æ±Ĥ": 2622,
      "éĻĲåĪ¶": 2623,
      "å®¶å±ħ": 2624,
      "é»İ": 2625,
      "æŁĲäºĽ": 2626,
      "ä¹ĭåīį": 2627,
      "åĩıè½»": 2628,
      "è¾Ĩ": 2629,
      "æ¬£": 2630,
      "è´¡": 2631,
      "æ°¸": 2632,
      "ä¸ĸçºª": 2633,
      "çħ®": 2634,
      "æµĭè¯ķ": 2635,
      "çĽĲ": 2636,
      "åĳ³éģĵ": 2637,
      "è·Ŀç¦»": 2638,
      "æĻ¯çĤ¹": 2639,
      "æıĲåįĩ": 2640,
      "ä¸Ģåı¥è¯Ŀ": 2641,
      "èĿ": 2642,
      "18": 2643,
      "å¤ªç©º": 2644,
      "èĤ¤": 2645,
      "åºĶçĶ¨äºİ": 2646,
      "ä¸Ŀ": 2647,
      "çĶŁæĢģç³»ç»Ł": 2648,
      "æĲŃéħį": 2649,
      "è°·": 2650,
      "ä¸ĸçķĮä¸ĬæľĢ": 2651,
      "çļĦé£Łçī©": 2652,
      "±ä¹Ĳ": 2653,
      "çĤº": 2654,
      "åħ¬åħ±": 2655,
      "æİ¨åĬ¨": 2656,
      "ä¸ĭæĸĩ": 2657,
      "è®©ä½ł": 2658,
      "ä»¿": 2659,
      "éĶħ": 2660,
      "å®ŀéªĮ": 2661,
      "åº¦åĴĮ": 2662,
      "éĸ": 2663,
      "åĵªä¸ª": 2664,
      "ç»¼": 2665,
      "ç¥Ŀ": 2666,
      "æĻļä¸Ĭ": 2667,
      "ä¸Ģå®¶": 2668,
      "ä¸ªæĢ§": 2669,
      "ä½¿åħ¶æĽ´åĬł": 2670,
      "çº¢èī²": 2671,
      "ç©ºéĹ´": 2672,
      "å¼łä¸ī": 2673,
      "çĶ¨æĿ¥": 2674,
      "è§£åĨ³æĸ¹æ¡Ī": 2675,
      "åĢĳ": 2676,
      "æ±ł": 2677,
      "æ©ĻåŃĲ": 2678,
      "å¤ıåŃ£": 2679,
      "æĪĲéķ¿": 2680,
      "å¸ģ": 2681,
      "æĦıæĢĿ": 2682,
      "æĿĳ": 2683,
      "çļĦåĨħå®¹": 2684,
      "è´¡çĮ®": 2685,
      "æĺ¯çĶ±": 2686,
      "éĵħ": 2687,
      "æ¹ĸ": 2688,
      "çļĦæ³": 2689,
      "çĽĺ": 2690,
      "å±ķç¤º": 2691,
      "çīĽå¥¶": 2692,
      "ä¹ĺ": 2693,
      "è¯Ħä¼°": 2694,
      "èµŀ": 2695,
      "åĲ«ä¹ī": 2696,
      "ä¸¤ä¸ªåı¥åŃĲ": 2697,
      "æ°Ķä½ĵ": 2698,
      "å¿Ļ": 2699,
      "è²": 2700,
      "æľºæŀĦ": 2701,
      "æŃ§": 2702,
      "æĹ©ä¸Ĭ": 2703,
      "__": 2704,
      "æľªæĿ¥çļĦ": 2705,
      "åİŁå§ĭ": 2706,
      "åĬ³": 2707,
      "å¥³æĢ§": 2708,
      "çĬ¶åĨµ": 2709,
      "å®«": 2710,
      "å®Įåħ¨": 2711,
      "æ±ģ": 2712,
      "åĴĮåħ¶ä»ĸ": 2713,
      "æī©": 2714,
      "çļĦåİĨåı²": 2715,
      "ä¸ĢèĪ¬": 2716,
      "åİļ": 2717,
      "è°ĥæŁ¥": 2718,
      "èİ·åıĸ": 2719,
      "æķ£æŃ¥": 2720,
      "åľ¨çº¿": 2721,
      "å¥ĭ": 2722,
      "å°Ĭéĩį": 2723,
      "æĿ¥èĩª": 2724,
      "çĶŁæ´»ä¸Ń": 2725,
      "æĪ·å¤ĸ": 2726,
      "åĤ¨": 2727,
      "è®°å½ķ": 2728,
      "è¿Ļå®¶": 2729,
      "ç¯®": 2730,
      "çĽ¸ä¿¡": 2731,
      "åĮ»çĸĹä¿Ŀåģ¥": 2732,
      "åĲ¯": 2733,
      "ä¸ľè¥¿": 2734,
      "æ»ĳ": 2735,
      "çĽ´æİ¥": 2736,
      "æĪĲæľ¬": 2737,
      "ä¹Łä¼ļ": 2738,
      "åĪĹè¡¨": 2739,
      "åı¯èĥ½æĺ¯": 2740,
      "æĬĢæľ¯çļĦ": 2741,
      "æĦıåĳ³": 2742,
      "æĺł": 2743,
      "å°į": 2744,
      "åħŃ": 2745,
      "è¾¾åĪ°": 2746,
      "çļĦæĢĿ": 2747,
      "åĽŀçŃĶéĹ®é¢ĺ": 2748,
      "ç½ª": 2749,
      "å¥¹çļĦ": 2750,
      "ä¸įçŁ¥éģĵ": 2751,
      "çłĶ": 2752,
      "è®ºæĸĩ": 2753,
      "å¾Ħ": 2754,
      "åºĶçĶ¨ç¨ĭåºı": 2755,
      "æĦıå¤§åĪ©": 2756,
      "ä¸Ĭæµ·": 2757,
      "å¦Ī": 2758,
      "éĵħç¬Ķ": 2759,
      "åĨł": 2760,
      "éĤ£éĩĮ": 2761,
      "æĸ¹ä¾¿": 2762,
      "çİī": 2763,
      "åĪĨåĪ«": 2764,
      "è¡¨è¾¾äºĨ": 2765,
      "ç¼©": 2766,
      "éĢĻ": 2767,
      "çĥ§": 2768,
      "åŃ¦ä¹łåĴĮ": 2769,
      "ç»Ļä½ł": 2770,
      "æĿ°": 2771,
      "æŃ¥éª¤": 2772,
      "æįŁ": 2773,
      "èĳĹåĲįçļĦ": 2774,
      "å·´é»İ": 2775,
      "æ·±åĪ»": 2776,
      "æĢ¥": 2777,
      "éģį": 2778,
      "ç¨³å®ļ": 2779,
      "æ´¾": 2780,
      "éº¦": 2781,
      "èĽĭçĻ½": 2782,
      "è¶³çĲĥ": 2783,
      "åĽº": 2784,
      "èĩ³å°ĳ": 2785,
      "éĩıåŃĲ": 2786,
      "ä¸Ģå¤©": 2787,
      "åĩī": 2788,
      "æĶ¹åĨĻ": 2789,
      "æŀ¶": 2790,
      "åı¯ä»¥ä½¿çĶ¨": 2791,
      "è¿Ļç¯ĩ": 2792,
      "æĸĹ": 2793,
      "çĩĥ": 2794,
      "æĸ°éĹ»æĬ¥éģĵ": 2795,
      "æĦıåĳ³çĿĢ": 2796,
      "æĽ¿æį¢": 2797,
      "åĳĪ": 2798,
      "çİ¯å¢ĥä¿ĿæĬ¤": 2799,
      "é¥¼": 2800,
      "åĪº": 2801,
      "å®½": 2802,
      "çĤĴ": 2803,
      "åıĳå¸ĥ": 2804,
      "åĮĸåŃ¦": 2805,
      "éĻĦ": 2806,
      "æŃī": 2807,
      "è¡¨éĿ¢": 2808,
      "ä½Ľ": 2809,
      "åĿļæĮģ": 2810,
      "å½ĵåīį": 2811,
      "å¤©ç©º": 2812,
      "ç±»ä¼¼": 2813,
      "äººçĶŁ": 2814,
      "åģ¥åº·çļĦ": 2815,
      "éľĩ": 2816,
      "Ġä½ł": 2817,
      "æ°Ķæ¸©": 2818,
      "ä¸Ģç»Ħ": 2819,
      "æģ¶": 2820,
      "æĿŁ": 2821,
      "å¹¶ä¸į": 2822,
      "åı¥åŃĲä¸Ń": 2823,
      "èĩªè¡Į": 2824,
      "æĶ»": 2825,
      "çĽ¸åħ³çļĦ": 2826,
      "ä»¥ç¡®ä¿Ŀ": 2827,
      "åºŁ": 2828,
      "åĶ±": 2829,
      "éĽħ": 2830,
      "ç»©": 2831,
      "on": 2832,
      "å¯Ĵ": 2833,
      "æĤ¦": 2834,
      "ä¿Ŀè¯ģ": 2835,
      "çŃ¾": 2836,
      "çļĦæ´»": 2837,
      "è®¢": 2838,
      "æ¯ıä¸ªæľĭåıĭ": 2839,
      "çļĦä¸Ģä¸ª": 2840,
      "åĪĨåĪ°": 2841,
      "å°¤": 2842,
      "å¹ħ": 2843,
      "æİ¨å¹¿": 2844,
      "çļĦç³": 2845,
      "æ¶¦": 2846,
      "è¡£æľį": 2847,
      "æĪĳå¾Ī": 2848,
      "åºĵ": 2849,
      "çīĻ": 2850,
      "ç»ĺ": 2851,
      "éľĢè¦ģæ³¨æĦı": 2852,
      "¡èĲ": 2853,
      "çľŁæŃ£": 2854,
      "åĬ¨è¯į": 2855,
      "æī§è¡Į": 2856,
      "ä¼ĺåĬ¿": 2857,
      "æİī": 2858,
      "æģĲ": 2859,
      "æĢĿæĥ³": 2860,
      "åı¯ä»¥è¢«": 2861,
      "èĥ½éĩı": 2862,
      "èĤĮ": 2863,
      "èĭ¦": 2864,
      "çĽĽ": 2865,
      "æİ¥åıĹ": 2866,
      "ç§ĳå¹»": 2867,
      "å®ļä¹ī": 2868,
      "æ¤Ĵ": 2869,
      "ĠâĢľ": 2870,
      "æ¨¡æĭŁ": 2871,
      "ä¸Ģä¸ªäºº": 2872,
      "çıį": 2873,
      "çļĦæĸ°": 2874,
      "åı¯æĮģç»Ńåıĳå±ķ": 2875,
      "å¾ª": 2876,
      "éªĳ": 2877,
      "å®īæİĴ": 2878,
      "ä¸ŃæľĢ": 2879,
      "èĢĮä¸įæĺ¯": 2880,
      "å¼ĥ": 2881,
      "ç»ĵåĲĪ": 2882,
      "çļĦæĻº": 2883,
      "çļĦçĭ": 2884,
      "æ£®æŀĹ": 2885,
      "æĺİäºĨ": 2886,
      "åıĳæĮ¥": 2887,
      "åĴĮæĸĩåĮĸ": 2888,
      "è½»æĿ¾": 2889,
      "çļĦçĪ±": 2890,
      "ä¸»ä¹ī": 2891,
      "ä¸ĭåĪĹ": 2892,
      "åĩºèī²": 2893,
      "çļĦæıı": 2894,
      "çĽ¸äºĴ": 2895,
      "çļĦæĦıæĢĿ": 2896,
      "çĿ¡çľł": 2897,
      "å®¶äºº": 2898,
      "æıĲä¾Ľä¸ĢäºĽ": 2899,
      "èĤ¥": 2900,
      "åħ±æľī": 2901,
      "ä¼ĺç§Ģ": 2902,
      "äºĨä¸ĢäºĽ": 2903,
      "å®ļæľŁ": 2904,
      "èĭı": 2905,
      "ï¼īãĢĤ": 2906,
      "å©ļ": 2907,
      "åĪĹåĩº": 2908,
      "äººç±»çļĦ": 2909,
      "è©": 2910,
      "åľ¨ä¸Ģèµ·": 2911,
      "è·µ": 2912,
      "å¨±ä¹Ĳ": 2913,
      "å°¾": 2914,
      "æĵįä½ľ": 2915,
      "çļĦçģ": 2916,
      "è§Ĥä¼Ĺ": 2917,
      "æ³¨éĩį": 2918,
      "çĥŁ": 2919,
      "é«ĺåħ´": 2920,
      "æīĢæľīçļĦ": 2921,
      "æµģè¡Į": 2922,
      "çĽ®çļĦåľ°": 2923,
      "æĺ¯ä¸Ģéĥ¨": 2924,
      "çµ": 2925,
      "å¤§å®¶": 2926,
      "çĶŁåŃĺ": 2927,
      "ä¹Łæľī": 2928,
      "èĽĭç³ķ": 2929,
      "ä½łéľĢè¦ģ": 2930,
      "ç¿°": 2931,
      "çĽ¸å¯¹": 2932,
      "æ¹¿": 2933,
      "èī¯å¥½çļĦ": 2934,
      "çļĦæ¦Ĥ": 2935,
      "åĨĻä¸Ģç¯ĩ": 2936,
      "éĿ¢å¯¹": 2937,
      "ä¹¦ç±į": 2938,
      "é¥®æĸĻ": 2939,
      "èĥģ": 2940,
      "éĢ»": 2941,
      "æĹ¶ä»£": 2942,
      "æĢ»ä¹ĭ": 2943,
      "æĪĳè®¤ä¸º": 2944,
      "åĿ¦": 2945,
      "å®ľ": 2946,
      "ç»ĵè®º": 2947,
      "åĮ»çĸĹé¢ĨåŁŁ": 2948,
      "è·ĳæŃ¥": 2949,
      "è®¿": 2950,
      "èĪ¹": 2951,
      "é¾Ħ": 2952,
      "ç¨ĭåº¦": 2953,
      "ä¾Ĩ": 2954,
      "åı¤è¯Ĺ": 2955,
      "éĢĤéĩı": 2956,
      "æľµ": 2957,
      "çľŁçļĦ": 2958,
      "çļĦäºĭæĥħ": 2959,
      "åıªæĺ¯": 2960,
      "è¯ļ": 2961,
      "åŃ¤çĭ¬": 2962,
      "é¢Ħéĺ²": 2963,
      "åħ¶ä¸ŃçļĦ": 2964,
      "çļĦæĢ»": 2965,
      "æİ¨çĲĨ": 2966,
      "æİĮæı¡": 2967,
      "æĬ½åıĸ": 2968,
      "éĤ£äºĽ": 2969,
      "çĶļ": 2970,
      "åĵº": 2971,
      "è¿Ľåħ¥": 2972,
      "å¨ģèĥģ": 2973,
      "æ³¡": 2974,
      "å¥ı": 2975,
      "å¯»æ±Ĥ": 2976,
      "ä¸ļåĬ¡": 2977,
      "è°±": 2978,
      "åĵ¥": 2979,
      "åīįå¾Ģ": 2980,
      "æľīåĵªäºĽ": 2981,
      "æ¼Ķåĳĺ": 2982,
      "æµģçķħ": 2983,
      "è¿Ľè¡ĮåĪĨç±»": 2984,
      "202": 2985,
      "æĮĩåĩº": 2986,
      "è§ĦåĪĴ": 2987,
      "å®ŀè·µ": 2988,
      "çĭ¬çī¹çļĦ": 2989,
      "åĳ¨åĽ´": 2990,
      "æĪĲè¯Ń": 2991,
      "å¹´çļĦ": 2992,
      "è¾£": 2993,
      "ç»ıè¿ĩ": 2994,
      "æ¸©æļĸ": 2995,
      "ä½ĵèĤ²": 2996,
      "çıł": 2997,
      "éĩįçĤ¹": 2998,
      "æŃ§è§Ĩ": 2999,
      "çİĽä¸½": 3000,
      "å£°éŁ³": 3001,
      "æ¦Ĥå¿µ": 3002,
      "ä»ĸåľ¨": 3003,
      "æ°§åĮĸ": 3004,
      "éĽ¶": 3005,
      "ä¸Ńæĸĩ": 3006,
      "åŃ¸": 3007,
      "å¼ĢæĶ¾": 3008,
      "åįģåĪĨ": 3009,
      "å¾Ĺåĩº": 3010,
      "éĢ»è¾ĳ": 3011,
      "ç²¾ç¥ŀ": 3012,
      "èķī": 3013,
      "æĹ¨åľ¨": 3014,
      "æ¶²": 3015,
      "åĵªéĩĮ": 3016,
      "çļĦçŁŃ": 3017,
      "çº¦ç¿°": 3018,
      "æ³°": 3019,
      "çī©ä½ĵ": 3020,
      "çĹħæ¯Ĵ": 3021,
      "é¸¡èĽĭ": 3022,
      "è¿ŀæİ¥": 3023,
      "å¦Ļ": 3024,
      "å¤ªéĺ³ç³»": 3025,
      "èĩªåĬ¨åĮĸ": 3026,
      "è§ĦåĪĻ": 3027,
      "æľĢä½³": 3028,
      "ä½¿åħ¶æĽ´": 3029,
      "èĻļæĭŁ": 3030,
      "éĥ½ä¼ļ": 3031,
      "çļĦæĥ³": 3032,
      "éķ¿åº¦": 3033,
      "æĢĢ": 3034,
      "ä¸Ģæ¬¾": 3035,
      "èĩªåĬ¨é©¾é©¶": 3036,
      "çļĦæĻ¯": 3037,
      "æıĲåıĸåĩº": 3038,
      "è´Ŀ": 3039,
      "èº«ä½ĵåģ¥åº·": 3040,
      "è½®": 3041,
      "ä¸ĬéĿ¢": 3042,
      "çĲĨè®º": 3043,
      "æķ¬": 3044,
      "èľľ": 3045,
      "åĩĢ": 3046,
      "éģµ": 3047,
      "åĢ¾": 3048,
      "èĵĿèī²": 3049,
      "å´": 3050,
      "é¦Ļèķī": 3051,
      "çļĦé£İéĻ©": 3052,
      "ä¹¡": 3053,
      "äº¡": 3054,
      "200": 3055,
      "æĸ°é²ľ": 3056,
      "æµ·æ»©": 3057,
      "åħ³éĶ®ä¿¡æģ¯": 3058,
      "åĲĦä¸ª": 3059,
      "æĪĲä¸ºäºĨ": 3060,
      "èĭ±åĽ½": 3061,
      "æľīæīĢ": 3062,
      "è¡¥": 3063,
      "ç¾İå¥½çļĦ": 3064,
      "èĦ±": 3065,
      "æ··åĲĪ": 3066,
      "åĵºä¹³": 3067,
      "ä¼ĺçĤ¹": 3068,
      "çĤİ": 3069,
      "åĪĨä¸º": 3070,
      "ï¼īï¼Į": 3071,
      "æĺ¾ç¤º": 3072,
      "è¿Ļæ¬¾": 3073,
      "æĶ¾åľ¨": 3074,
      "å¥³åŃ©": 3075,
      "èĤ¯": 3076,
      "åĨĻä¸Ģä¸ª": 3077,
      "æĬ±æŃī": 3078,
      "çĶ³": 3079,
      "å·¥ä¸ļ": 3080,
      "ä¸»äºº": 3081,
      "ç§¯æŀģçļĦ": 3082,
      "è´¥": 3083,
      "çŁŃæĸĩ": 3084,
      "éĹŃ": 3085,
      "éº¼": 3086,
      "æĺ¯ä¸ŃåĽ½": 3087,
      "åį·": 3088,
      "èªī": 3089,
      "é«ĺåº¦": 3090,
      "çļĦæ´»åĬ¨": 3091,
      "å°ıåŃ¦": 3092,
      "çĬ¬": 3093,
      "æ²ŁéĢļ": 3094,
      "æĸĩåĮĸåĴĮ": 3095,
      "æĩĤ": 3096,
      "ãĢĭãĢģ": 3097,
      "ç¾İä¸½çļĦ": 3098,
      "æ¡Į": 3099,
      "è¿¹": 3100,
      "èĩªè¡Įè½¦": 3101,
      "æĺ¯ä¸Ģä½į": 3102,
      "åħ«": 3103,
      "åľ£": 3104,
      "æ¾": 3105,
      "XX": 3106,
      "éĿ¢åĮħ": 3107,
      "å«": 3108,
      "ç®Ģè¦ģ": 3109,
      "ĠĠ": 3110,
      "æĪĳåľ¨": 3111,
      "è¯ŃéŁ³è¯ĨåĪ«": 3112,
      "éĥģ": 3113,
      "çļĦæııè¿°": 3114,
      "éķĩ": 3115,
      "ç¥ŀç»ıç½ĳç»ľ": 3116,
      "çļĦæīĭ": 3117,
      "æĭį": 3118,
      "éĻĪè¿°": 3119,
      "ä¹ĭåĲİ": 3120,
      "æłĩåĩĨ": 3121,
      "å¹³çŃī": 3122,
      "æĹ¶æľŁ": 3123,
      "çļĦçŃĶæ¡Ī": 3124,
      "èİĵ": 3125,
      "ä¹ı": 3126,
      "è§¦": 3127,
      "åįļçī©": 3128,
      "æĸĩç«łä¸ŃæıĲåıĸ": 3129,
      "èĭĹ": 3130,
      "åģ¥åº·é¥®é£Ł": 3131,
      "æĸĩæľ¬åĨħå®¹": 3132,
      "å»¶": 3133,
      "éŃĶæ³ķ": 3134,
      "åºĨ": 3135,
      "æĹ¶éĹ´åĴĮ": 3136,
      "ç¤¾åĮº": 3137,
      "çļĦæĭ": 3138,
      "æŁĲä¸ª": 3139,
      "ç¬¬ä¸Ģ": 3140,
      "å±ķçİ°": 3141,
      "åĳ¨æľ«": 3142,
      "æķ°æį®éĽĨ": 3143,
      "ä»£çłģ": 3144,
      "è½¬æį¢": 3145,
      "è¯¾ç¨ĭ": 3146,
      "èĢ³": 3147,
      "æī¾åĩº": 3148,
      "å·¦åı³": 3149,
      "éª¨": 3150,
      "é¢Ĩå¯¼": 3151,
      "å¾ĹåĪ°äºĨ": 3152,
      "åīĤ": 3153,
      "ç§°ä¸º": 3154,
      "è³": 3155,
      "åı¤ä»£": 3156,
      "ç®ĢåįķçļĦ": 3157,
      "åĬĽçļĦ": 3158,
      "çļĦæĢ§": 3159,
      "æľŁéĹ´": 3160,
      "å®Ĺ": 3161,
      "æ¬£èµı": 3162,
      "çļĦæİ¨": 3163,
      "åĨįçĶŁ": 3164,
      "åĨ¥": 3165,
      "åĪĨéħį": 3166,
      "ä¼ĳæģ¯": 3167,
      "æĦŁåıĹåĪ°": 3168,
      "è¯Ńè¨Ģæ¨¡åŀĭ": 3169,
      "çļĦæķĪ": 3170,
      "çĴ": 3171,
      "çļĦæĮĳæĪĺ": 3172,
      "è®²è¿°äºĨ": 3173,
      "æĹ§": 3174,
      "äº¿": 3175,
      "æ¸ħæ´ģ": 3176,
      "åĮºåĿĹ": 3177,
      "æħ§": 3178,
      "åĵģè´¨": 3179,
      "å£®": 3180,
      "çĪ±å¥½": 3181,
      "çĶļèĩ³": 3182,
      "ä»Ģéº¼": 3183,
      "æĸĩæľ¬ä¸ŃçļĦ": 3184,
      "çģ¾å®³": 3185,
      "å®ĥåı¯ä»¥": 3186,
      "å®ģ": 3187,
      "è½½": 3188,
      "æĺŁæľŁ": 3189,
      "èĽĭçĻ½è´¨": 3190,
      "åĨĴéĻ©": 3191,
      "èĥ½åĲ¦": 3192,
      "ä¸ĥ": 3193,
      "ªæĺİ": 3194,
      "åłĤ": 3195,
      "å¯¿": 3196,
      "è¡¨æ¼Ķ": 3197,
      "å½Ĵç±»": 3198,
      "åıĬæĹ¶": 3199,
      "æĪ¿éĹ´": 3200,
      "åĮĢ": 3201,
      "å¤§æ°Ķ": 3202,
      "æĸĩç«łä¸ŃæıĲåıĸåĩº": 3203,
      "è¿Ļæľ¬ä¹¦": 3204,
      "çĻĮ": 3205,
      "çĭ¬ç«ĭ": 3206,
      "åľ¨ä¸Ģä¸ª": 3207,
      "æĹĭ": 3208,
      "ãĢĭãĢģãĢĬ": 3209,
      "å°¤åħ¶": 3210,
      "é¼ł": 3211,
      "åħ·ä½ĵçļĦ": 3212,
      "âĢĶâĢĶ": 3213,
      "çĶŁæ´»æĸ¹å¼ı": 3214,
      "ç§įæĹı": 3215,
      "æĢĿç»´": 3216,
      "æĿĢ": 3217,
      "æĥħåĨµä¸ĭ": 3218,
      "çľĭçĶµå½±": 3219,
      "èĤª": 3220,
      "èĦĤèĤª": 3221,
      "èĮĦ": 3222,
      "é»ĺ": 3223,
      "å¼ºè°ĥäºĨ": 3224,
      "çĽ¸åºĶ": 3225,
      "æ®Ĭ": 3226,
      "«èĲ¨": 3227,
      "é¢Ĺç³ĸæŀľ": 3228,
      "åĵºä¹³åĬ¨çī©": 3229,
      "éĻ¤äºĨ": 3230,
      "æľĢå¥½çļĦ": 3231,
      "å®ĥæĺ¯": 3232,
      "å®¾": 3233,
      "å¹¶æıĲä¾Ľ": 3234,
      "æķı": 3235,
      "å½¢å®¹è¯į": 3236,
      "çļĦåİŁåĽł": 3237,
      "è¿ª": 3238,
      "è®¤è¯Ĩ": 3239,
      "è¯º": 3240,
      "é»ĳæ´ŀ": 3241,
      "å®¤æ°Ķä½ĵ": 3242,
      "çĶŁæĪĲåķĨåĵģ": 3243,
      "æ¦": 3244,
      "äºĭçī©": 3245,
      "æĭĮ": 3246,
      "èĳ±": 3247,
      "èļ": 3248,
      "çļĦèĥ½åĬĽ": 3249,
      "ç§įç±»": 3250,
      "åľ¨æľªæĿ¥": 3251,
      "æıĲä¾ĽçļĦ": 3252,
      "æĺĵäºİ": 3253,
      "åĢŁ": 3254,
      "å¼ºçĥĪ": 3255,
      "ä¼ĳéĹ²": 3256,
      "äºĴåĬ¨": 3257,
      "æ¶Īè´¹èĢħ": 3258,
      "å½¼": 3259,
      "æ»¡æĦı": 3260,
      "äºĨä¸Ģç§į": 3261,
      "æľĢæĸ°": 3262,
      "å¼¹": 3263,
      "çļĦç©": 3264,
      "èĦı": 3265,
      "ä½ĨæĪĳ": 3266,
      "éĢĢ": 3267,
      "æİ¢è®¨äºĨ": 3268,
      "ä¹Ŀ": 3269,
      "è°ĵ": 3270,
      "çļĦä¸»è¦ģè§ĤçĤ¹": 3271,
      "è¹": 3272,
      "æľīè¶£çļĦ": 3273,
      "æ¼Ĥ": 3274,
      "äº¤æĺĵ": 3275,
      "æľĢå¥½": 3276,
      "æĹ¢": 3277,
      "å¸Ŀ": 3278,
      "åįļçī©é¦Ĩ": 3279,
      "æ¶Īæŀģ": 3280,
      "æľĥ": 3281,
      "åĴ¨": 3282,
      "å·Ŀ": 3283,
      "è¿ĺéľĢè¦ģ": 3284,
      "æ¯ıä¸ªäººéĥ½": 3285,
      "èĢĹ": 3286,
      "å¹´é¾Ħ": 3287,
      "ç¶": 3288,
      "å®Įæķ´": 3289,
      "çĸ«æĥħ": 3290,
      "æİ¥ä¸ĭæĿ¥": 3291,
      "éĢĴ": 3292,
      "è´ŁéĿ¢å½±åĵį": 3293,
      "å¤ļçļĦ": 3294,
      "çļĦç³ĸ": 3295,
      "è¾ħ": 3296,
      "è¿ħ": 3297,
      "å®£ä¼ł": 3298,
      "çĶŁéķ¿": 3299,
      "è§Ĩé¢ĳ": 3300,
      "è®¨è®ºäºĨ": 3301,
      "é¡¶": 3302,
      "çĪ¶": 3303,
      "èº«å¿ĥ": 3304,
      "çªĹ": 3305,
      "ä¹Łå¾Ī": 3306,
      "çļĦç¬¬": 3307,
      "æĢ§èĥ½": 3308,
      "ä½łå¥½": 3309,
      "æ³ķåĽ½": 3310,
      "çľĭèµ·æĿ¥": 3311,
      "åħħåĪĨ": 3312,
      "çĵľ": 3313,
      "èģĬå¤©": 3314,
      "è¯Ńæ³ķéĶĻè¯¯": 3315,
      "åĴ¨è¯¢": 3316,
      "ç»ķ": 3317,
      "æķ¢": 3318,
      "è§Ī": 3319,
      "ç¿»è¯ĳæĪĲ": 3320,
      "æĺŁçĲĥ": 3321,
      "äºĨè®¸å¤ļ": 3322,
      "éķ¿æľŁ": 3323,
      "ä¸Ĭä¸ĭæĸĩ": 3324,
      "çļĦçİ¯å¢ĥ": 3325,
      "åĲ¬èµ·æĿ¥": 3326,
      "ä¸Ģæľ¬": 3327,
      "èģªæĺİ": 3328,
      "æĢ»ç»Ł": 3329,
      "æĥł": 3330,
      "çĶŁæĹ¥": 3331,
      "ä»¥ä¸ĭæ®µèĲ½": 3332,
      "éĺ¶": 3333,
      "å¿ĥæĥħ": 3334,
      "çļĦçĹ": 3335,
      "æĪĳæĹłæ³ķ": 3336,
      "åĵ²": 3337,
      "è§Ĥå¯Ł": 3338,
      "çļĦç²": 3339,
      "èī²å½©": 3340,
      "çķª": 3341,
      "éº»": 3342,
      "åıĺå¾ĹæĽ´åĬł": 3343,
      "é½": 3344,
      "çļĦæīĢ": 3345,
      "èį£": 3346,
      "å¹´æĿ¥": 3347,
      "ä¼łæĴŃ": 3348,
      "è§£åĨ³éĹ®é¢ĺ": 3349,
      "åĮºåĿĹéĵ¾": 3350,
      "æİ¨åĩº": 3351,
      "ï¼ŁâĢĿ": 3352,
      "çļĦæ¯Ķ": 3353,
      "çļĦçŁ¥": 3354,
      "æĺİæĺ¾": 3355,
      "ç§»åĬ¨": 3356,
      "çļĦæķ°éĩı": 3357,
      "éĻĨ": 3358,
      "éĿŀå¸¸å¥½": 3359,
      "ç»´æĬ¤": 3360,
      "çľĭçľĭ": 3361,
      "é¢ĦæĬ¥": 3362,
      "åĳĪçİ°": 3363,
      "èī¾": 3364,
      "çļĦç¥": 3365,
      "å¹¶æ²¡æľī": 3366,
      "çº¯": 3367,
      "æĪĳéľĢè¦ģ": 3368,
      "éķľ": 3369,
      "å¯¹çİ¯å¢ĥ": 3370,
      "å·¨å¤§": 3371,
      "çĶ²": 3372,
      "æĻºèĥ½å®¶å±ħ": 3373,
      "ä½łä»¬": 3374,
      "å®¡": 3375,
      "çĸ²": 3376,
      "çĺ": 3377,
      "çĽ´åĪ°": 3378,
      "åį±éĻ©": 3379,
      "æĳĦåħ¥": 3380,
      "éĽ·": 3381,
      "ï¼ļãĢĬ": 3382,
      "çªģçĦ¶": 3383,
      "ĠæıĲåıĸ": 3384,
      "åĲĮä¹īè¯į": 3385,
      "çļĦè¡Įä¸º": 3386,
      "Ġ2": 3387,
      "èī¯å¥½": 3388,
      "æĭ¼åĨĻ": 3389,
      "çļĦæ±": 3390,
      "è¸ª": 3391,
      "æľĢåĸľæ¬¢çļĦ": 3392,
      "è¿ĩåº¦": 3393,
      "ç¾İåħĥ": 3394,
      "åĴĮç¤¾ä¼ļ": 3395,
      "åĮºåŁŁ": 3396,
      "å¡«": 3397,
      "è¿Ļç¯ĩæĸĩç«łä¸Ń": 3398,
      "ç¡¬": 3399,
      "è§Ħå¾ĭ": 3400,
      "æĤ¨éľĢè¦ģ": 3401,
      "èĻ«": 3402,
      "éĵ¶è¡Į": 3403,
      "çļĦéĢīæĭ©": 3404,
      "æŃ¦": 3405,
      "åĨ¥æĥ³": 3406,
      "çī¹æ®Ĭ": 3407,
      "æł·çļĦ": 3408,
      "å±ĭ": 3409,
      "éĴ¢": 3410,
      "åĶĲ": 3411,
      "åĽŀå®¶": 3412,
      "çļĦçĥŃ": 3413,
      "æį·": 3414,
      "çĽ®çļĦ": 3415,
      "âĢ¦": 3416,
      "æĶ¯ä»ĺ": 3417,
      "çļĦçĿ": 3418,
      "ä¸°å¯ĮçļĦ": 3419,
      "çļĦç¼": 3420,
      "éļıæĹ¶": 3421,
      "å°ıçĭĹ": 3422,
      "çĶ°": 3423,
      "åīįæĻ¯": 3424,
      "çĵ¶": 3425,
      "åı¯çĪ±": 3426,
      "ãĢĭãĢĤ": 3427,
      "èħ¿": 3428,
      "å»ºè®¾": 3429,
      "çĶŁæĪĲä¸Ģæ®µ": 3430,
      "äººæ°ĳ": 3431,
      "çĶ¨çļĦ": 3432,
      "å¤§èĩªçĦ¶": 3433,
      "Ġ3": 3434,
      "åĽŀæĶ¶": 3435,
      "ä¸ĭåįĪ": 3436,
      "åı¹": 3437,
      "ä»ĸä»¬çļĦå¯¹è¯ĿåĨħå®¹": 3438,
      "å¹ķ": 3439,
      "çļĦæ¸©": 3440,
      "åĦ¿ç«¥": 3441,
      "æµ®": 3442,
      "æ·¡": 3443,
      "åŃĲçļĦ": 3444,
      "åĪĨæĪĲ": 3445,
      "éĩįå¤į": 3446,
      "éĹª": 3447,
      "ä¸ºæĪĳ": 3448,
      "èĦ¸": 3449,
      "åĪ°è¾¾": 3450,
      "æĭĽ": 3451,
      "åŁºåĽł": 3452,
      "å¦ĤæŃ¤": 3453,
      "åĪĽå»ºä¸Ģä¸ª": 3454,
      "ç¾İå¥½": 3455,
      "æĦīå¿«": 3456,
      "æľīæ²¡æľī": 3457,
      "åĵģç§į": 3458,
      "æģ©": 3459,
      "æĶ¾åħ¥": 3460,
      "çļĦç¨": 3461,
      "çļĦæ¸¸": 3462,
      "æ´Ľ": 3463,
      "åı¯åĨįçĶŁ": 3464,
      "æľīè®¸å¤ļ": 3465,
      "çĶµåŃĲéĤ®ä»¶": 3466,
      "æĸ¼": 3467,
      "å¡ŀ": 3468,
      "ç¯®çĲĥ": 3469,
      "æ¶µ": 3470,
      "ç©¿çĿĢ": 3471,
      "è¿Ŀ": 3472,
      "æĪĳä»¬å°Ĩ": 3473,
      "åľ¨äºİ": 3474,
      "çī¹èī²": 3475,
      "æīĺ": 3476,
      "çļĦä¸Ģç§į": 3477,
      "ç§ĭå¤©": 3478,
      "èµ¢": 3479,
      "çļĦæĥ³æ³ķ": 3480,
      "è¢«è®¤ä¸º": 3481,
      "çļĦæ¼": 3482,
      "ĽåĽ´": 3483,
      "çĶŁç´ł": 3484,
      "æľĢå¤§": 3485,
      "ä¿ĿæĬ¤çİ¯å¢ĥ": 3486,
      "éŁ©": 3487,
      "èĥŀ": 3488,
      "è¿Ļé¡¹": 3489,
      "åĵģå°Ŀ": 3490,
      "çļĦæķĻ": 3491,
      "åł¡": 3492,
      "çļĦæīĢæľī": 3493,
      "çļĦçĿ¡": 3494,
      "é£ŁæĿĲ": 3495,
      "å¹³éĿ¢": 3496,
      "Ġæł¹æį®ç»Ļå®ļçļĦ": 3497,
      "äºĪ": 3498,
      "æķ°åŃ¦é¢ĺ": 3499,
      "éļ¾ä»¥": 3500,
      "éĤ£ä¸ª": 3501,
      "çī©ç§į": 3502,
      "æııè¿°äºĨ": 3503,
      "éģĩåĪ°": 3504,
      "åįł": 3505,
      "é£İæĻ¯": 3506,
      "çļĦéŁ³ä¹Ĳ": 3507,
      "æĪĲå°±": 3508,
      "æĻ´": 3509,
      "è®°å¿Ĩ": 3510,
      "æĪĲåĪĨ": 3511,
      "åı¯ä»¥è®©": 3512,
      "çļĦæŃĮ": 3513,
      "çļĦç½": 3514,
      "ä¸ĢæĿ¡": 3515,
      "åįĸ": 3516,
      "çĿĽ": 3517,
      "Ġç¼ĸè¾ĳ": 3518,
      "å°º": 3519,
      "è§Ħæ¨¡": 3520,
      "çļĦæĦŁè§ī": 3521,
      "æª": 3522,
      "åĲ«æľī": 3523,
      "æī¹": 3524,
      "å¸¸è§ģçļĦ": 3525,
      "çĶŁæĪĲåķĨåĵģæĸĩæ¡Ī": 3526,
      "å½Ĵç±»ä¸º": 3527,
      "è¿Ļé¦ĸ": 3528,
      "æĿ¥æºĲ": 3529,
      "çĪĨ": 3530,
      "å»ºè®®æĤ¨": 3531,
      "éĢĥ": 3532,
      "ä¸Ģé¡¹": 3533,
      "ä»Ķ": 3534,
      "è¿ĺåī©ä¸ĭ": 3535,
      "å°½åı¯èĥ½": 3536,
      "ä¸»è¯Ń": 3537,
      "çļĦæłĩé¢ĺ": 3538,
      "çļĦä½¿çĶ¨": 3539,
      "æĹ©é¤Ĳ": 3540,
      "é£ŀè¡Į": 3541,
      "çĹĩçĬ¶": 3542,
      "è¿Ľè¡ĮäºĨ": 3543,
      "çł´åĿı": 3544,
      "çļĦä¸»è¦ģåĨħå®¹": 3545,
      "ç¬¬ä¸ī": 3546,
      "åĨľä¸ļ": 3547,
      "æ·ĭ": 3548,
      "åŃ¦ä¼ļ": 3549,
      "å½¢è±¡": 3550,
      "çļĦçĿ¡çľł": 3551,
      "åĲī": 3552,
      "æľīæķĪåľ°": 3553,
      "ä¼Ĭ": 3554,
      "çļĦç¤¾ä¼ļ": 3555,
      "éĢĤå½ĵçļĦ": 3556,
      "ç¬¦åı·": 3557,
      "ä»ĸäºº": 3558,
      "é¦Ī": 3559,
      "çļĦéľĢæ±Ĥ": 3560,
      "çŀ": 3561,
      "èĤº": 3562,
      "æŃĮæĽ²": 3563,
      "åıĬåħ¶": 3564,
      "æľŁå¾ħ": 3565,
      "åį«çĶŁ": 3566,
      "ä¾¿åĪ©": 3567,
      "æīĢéľĢ": 3568,
      "èľĤ": 3569,
      "æĪ´": 3570,
      "èĭ¥": 3571,
      "äºĶä¸ª": 3572,
      "åī¯": 3573,
      "åħħæ»¡äºĨ": 3574,
      "é»Ħèī²": 3575,
      "åģĩè®¾": 3576,
      "åĴĮæĮĳæĪĺ": 3577,
      "åĬ©æīĭ": 3578,
      "æĦŁåħ´è¶£": 3579,
      "å¼±": 3580,
      "è¯·åĳĬè¯īæĪĳ": 3581,
      "ç¾İçļĦ": 3582,
      "é£ŁçĶ¨": 3583,
      "GP": 3584,
      "åĬŀåħ¬": 3585,
      "æĢķ": 3586,
      "æ±¤å§Ĩ": 3587,
      "ç´¯": 3588,
      "è¿Ľå±ķ": 3589,
      "æĳĺ": 3590,
      "æĪĺäºī": 3591,
      "çļĦç©º": 3592,
      "è§Ħå®ļ": 3593,
      "åºĶè¯¥æĺ¯": 3594,
      "åİŁçĲĨ": 3595,
      "çľĭåĪ°äºĨ": 3596,
      "çļĦæĶ¯": 3597,
      "çĿ£": 3598,
      "çļĦæ·": 3599,
      "åĸľå¥½": 3600,
      "æ¡¥": 3601,
      "æ£Ģæµĭ": 3602,
      "éĿŀå¸¸éĩįè¦ģ": 3603,
      "çĻ¼": 3604,
      "é¡¾å®¢": 3605,
      "çļĦåŁİå¸Ĥ": 3606,
      "æĢ§åĪ«": 3607,
      "æ²Ļæ»©": 3608,
      "æĤ²": 3609,
      "åĲĪéĢĤçļĦ": 3610,
      "åº¦è¿ĩ": 3611,
      "å°±ä¸ļ": 3612,
      "åĵ¦": 3613,
      "åıĺæĪĲ": 3614,
      "éĩĮæľī": 3615,
      "éĩĮçļĦ": 3616,
      "æģĴ": 3617,
      "çļĦçŁ¥è¯Ĩ": 3618,
      "èĸĦ": 3619,
      "ä¹ĭå¤ĸ": 3620,
      "çļĦæĻºèĥ½": 3621,
      "éĿ¢ç§¯": 3622,
      "è¯Ŀé¢ĺ": 3623,
      "åĲ¹": 3624,
      "ä¸ĵæ³¨": 3625,
      "ç¼ºä¹ı": 3626,
      "æĻĤ": 3627,
      "å²¸": 3628,
      "æ¸©å®¤æ°Ķä½ĵ": 3629,
      "åĨħå¿ĥ": 3630,
      "é¢Ħç®Ĺ": 3631,
      "æĺ¯æĪĳ": 3632,
      "éĽĦ": 3633,
      "ä»°": 3634,
      "ä¸ĢæĿ¯": 3635,
      "åŁĥ": 3636,
      "åı¯éĿł": 3637,
      "åı¯ä»¥æıĲé«ĺ": 3638,
      "æĹ¶åħī": 3639,
      "éĻĦè¿ĳ": 3640,
      "åĲ¬è¯´": 3641,
      "è£ħé¥°": 3642,
      "åĴĮæ²»çĸĹ": 3643,
      "æ¡£": 3644,
      "çļĦå®īåħ¨": 3645,
      "å·®å¼Ĥ": 3646,
      "é£ĺ": 3647,
      "è§£éĩĬä¸Ģä¸ĭ": 3648,
      "æ¸¯": 3649,
      "è®¡ç®Ĺæľºç§ĳåŃ¦": 3650,
      "çļĦæĮĩ": 3651,
      "æĦīæĤ¦": 3652,
      "èĬ±åĽŃ": 3653,
      "èĩªä¿¡": 3654,
      "çĸ«èĭĹ": 3655,
      "è®¾æĸ½": 3656,
      "å§ĵ": 3657,
      "å®ŀæĸ½": 3658,
      "æıĲéĨĴ": 3659,
      "åī§æĥħ": 3660,
      "æµªè´¹": 3661,
      "ç»ĦåĲĪ": 3662,
      "ãĢģâĢľ": 3663,
      "åĮĸåĴĮ": 3664,
      "æīĢåľ¨": 3665,
      "èİ«": 3666,
      "è´¢åĬ¡": 3667,
      "ä¸»è§Ĵ": 3668,
      "çĶµè¯Ŀ": 3669,
      "ä¸Ģéĥ¨": 3670,
      "ä¸ªæľĭåıĭ": 3671,
      "åĿĩåĮĢ": 3672,
      "åĴĮä¸į": 3673,
      "in": 3674,
      "çĹħäºº": 3675,
      "æĺ¯ä¸ĢåĲį": 3676,
      "ä¸ŃæĢ§": 3677,
      "éģĩåĪ°äºĨ": 3678,
      "å¤§æķ°æį®": 3679,
      "åĪĨæŀĲåĴĮ": 3680,
      "èİ·å¾ĹäºĨ": 3681,
      "ä¸Ģä¸ªåı¥åŃĲ": 3682,
      "åİ¨": 3683,
      "åıįé¦Ī": 3684,
      "çļĦåģ¥åº·": 3685,
      "éļĶ": 3686,
      "æıĲåĩºäºĨ": 3687,
      "éħĴåºĹ": 3688,
      "çĽĴ": 3689,
      "ç»Ĩèĥŀ": 3690,
      "åľ¨è¿Ļ": 3691,
      "æĪĲåĳĺ": 3692,
      "çĪ¬": 3693,
      "åĨįæ¬¡": 3694,
      "ä¸ĢäºĽåħ³äºİ": 3695,
      "å¿§": 3696,
      "åĴĮä¸Ģä¸ª": 3697,
      "çĨĬçĮ«": 3698,
      "æ°ı": 3699,
      "æł¹æį®ä»¥ä¸ĭ": 3700,
      "ä»¥ä¸ĭæĺ¯ä¸Ģéģĵ": 3701,
      "åħ¨éĿ¢": 3702,
      "çĪ½": 3703,
      "èĦī": 3704,
      "æĶ¶éĽĨ": 3705,
      "Ġè¯·ä»İ": 3706,
      "åĵ²åŃ¦": 3707,
      "å¸¸å¸¸": 3708,
      "ç¦ģ": 3709,
      "èįīèİĵ": 3710,
      "èµĸ": 3711,
      "er": 3712,
      "åı¯åĨįçĶŁèĥ½æºĲ": 3713,
      "æµªæ¼«": 3714,
      "èĳ¡èĲ": 3715,
      "èĳ¡èĲĦ": 3716,
      "ä¼Ł": 3717,
      "ä¸įå¤ª": 3718,
      "è§Ĵåº¦": 3719,
      "åŃĹæ¯į": 3720,
      "åħĶ": 3721,
      "çĲĨè§£åĴĮ": 3722,
      "çķªèĮĦ": 3723,
      "å¤ªéĺ³èĥ½": 3724,
      "å°ıåŃ¦æķ°åŃ¦é¢ĺ": 3725,
      "æĪĲç»©": 3726,
      "çļĦè¯Ńè¨Ģ": 3727,
      "ä»¥ä¸ĭæĺ¯ä¸Ģéģĵå°ıåŃ¦æķ°åŃ¦é¢ĺ": 3728,
      "ä¸Ĭè¿°": 3729,
      "æĬ«èĲ¨": 3730,
      "åº¦åģĩ": 3731,
      "å¯¹äººç±»": 3732,
      "éĺ´": 3733,
      "æķ¦": 3734,
      "çı¾": 3735,
      "ç¦»å¼Ģ": 3736,
      "çķĻä¸ĭ": 3737,
      "å®¤åĨħ": 3738,
      "çĤ¸": 3739,
      "åĴĮåıĳå±ķ": 3740,
      "çļĦåįķè¯į": 3741,
      "æ¶īåıĬåĪ°": 3742,
      "æįķ": 3743,
      "äººåľ¨": 3744,
      "çŃīéĹ®é¢ĺ": 3745,
      "æĻºæħ§": 3746,
      "èĩªä¸»": 3747,
      "éĥ¨éĹ¨": 3748,
      "ç²Ĵ": 3749,
      "çºłéĶĻ": 3750,
      "çļĦæĦıä¹ī": 3751,
      "ä¼łè¾¾": 3752,
      "ç»´çĶŁç´ł": 3753,
      "åħįçĸ«": 3754,
      "èĤ¯å®ļ": 3755,
      "çĶ·åŃ©": 3756,
      "¹é¥": 3757,
      "å¤§å°ı": 3758,
      "åĪĻæĺ¯": 3759,
      "ar": 3760,
      "å½¢çĬ¶": 3761,
      "æĽ¾ç»ı": 3762,
      "çī©çĲĨåŃ¦": 3763,
      "å°Ĩå®ĥä»¬": 3764,
      "æĲħ": 3765,
      "éģŃ": 3766,
      "èı²": 3767,
      "¹é¥ª": 3768,
      "è¯¢éĹ®": 3769,
      "åĶ¯": 3770,
      "æĤł": 3771,
      "ä¹ĭå¤Ħ": 3772,
      "çļĦæł¸": 3773,
      "æĸ°åŀĭ": 3774,
      "æĮĩå®ļ": 3775,
      "æ¬§æ´²": 3776,
      "èĮĥåĽ´åĨħ": 3777,
      "æī°": 3778,
      "æ¸¸å®¢": 3779,
      "çļĦç»ĵæŀľ": 3780,
      "ç´§å¼ł": 3781,
      "åı¦ä¸Ģä¸ª": 3782,
      "ä¼¼ä¹İ": 3783,
      "om": 3784,
      "çļĩ": 3785,
      "èĢĥè¯ķ": 3786,
      "èıľåĵģ": 3787,
      "åĪºæ¿Ģ": 3788,
      "æŀģç«¯": 3789,
      "ä¹±": 3790,
      "ĠéĤ£": 3791,
      "çº·": 3792,
      "è®¾ç½®": 3793,
      "æĸ¹éĿ¢çļĦ": 3794,
      "è·¨": 3795,
      "åĭķ": 3796,
      "çļĦç²¾": 3797,
      "å¿ł": 3798,
      "çļĦæ²»": 3799,
      "å°±åı¯ä»¥": 3800,
      "æī¬": 3801,
      "åĨħéĥ¨": 3802,
      "è·¯ä¸Ĭ": 3803,
      "ç»¼åĲĪ": 3804,
      "æĺ¥å¤©": 3805,
      "ç´«": 3806,
      "25": 3807,
      "11": 3808,
      "å°ıæĺİæīĭ": 3809,
      "åĩºå¤Ħ": 3810,
      "ä¸ŃçļĦåºĶçĶ¨": 3811,
      "çļĦç³ĸæŀľ": 3812,
      "çļĦæ¶": 3813,
      "å¹´è½»çļĦ": 3814,
      "è¿Ķ": 3815,
      "âĢĿãĢģâĢľ": 3816,
      "åıĤè§Ĥ": 3817,
      "ä¹Ķ": 3818,
      "æľīä¸Ģ": 3819,
      "åħĪçĶŁ": 3820,
      "æľīä¸ĢäºĽ": 3821,
      "å¢Ļ": 3822,
      "è¿ħéĢŁ": 3823,
      "éĿŀå¸¸æĦŁè°¢": 3824,
      "è¿Ļä¸¤ä¸ª": 3825,
      "å°Ĩåľ¨": 3826,
      "è´´": 3827,
      "èĥ¡": 3828,
      "çļĦæıĲ": 3829,
      "åĪĨåŃĲ": 3830,
      "è¿Ļå®¶é¤Ĳåİħ": 3831,
      "ä¸ĭéĻį": 3832,
      "æł¹æį®ç»Ļå®ļçļĦ": 3833,
      "èĬĤçº¦": 3834,
      "çģŃ": 3835,
      "æĻ¨": 3836,
      "çļĦä¸Ģæ®µ": 3837,
      "åħ´å¥ĭ": 3838,
      "ä¸ºæĤ¨æıĲä¾Ľ": 3839,
      "çļĦæ¼Ķ": 3840,
      "æľīçĤ¹": 3841,
      "çļĦæŀ": 3842,
      "éĺ²æŃ¢": 3843,
      "èĤ´": 3844,
      "GPT": 3845,
      "çĶµæ±ł": 3846,
      "æĺ¯éĿŀå¸¸": 3847,
      "å¯¹æĸ¹": 3848,
      "è½¦è¾Ĩ": 3849,
      "å·¨å¤§çļĦ": 3850,
      "åħ·å¤ĩ": 3851,
      "é¡ºåºı": 3852,
      "åĬłä¸Ĭ": 3853,
      "èĩªçĦ¶çģ¾å®³": 3854,
      "è¦Ĩ": 3855,
      "è¢ĸ": 3856,
      "åĮ»éĻ¢": 3857,
      "äº§çĶŁäºĨ": 3858,
      "æĲħæĭĮ": 3859,
      "è¯¥æĸĩæľ¬": 3860,
      "åĵĪåĪ©": 3861,
      "æ¬²": 3862,
      "ç¾Ĭ": 3863,
      "çŃīå¾ħ": 3864,
      "è¯Ńæ°Ķ": 3865,
      "å¤§çº¦": 3866,
      "ä¸¾è¡Į": 3867,
      "éĩįè§Ĩ": 3868,
      "å±ħæ°ĳ": 3869,
      "å¾Īæľī": 3870,
      "å¼Ģå¤´": 3871,
      "ä¼ĺè´¨": 3872,
      "æĥ³æ³ķ": 3873,
      "æµ·å¹³éĿ¢": 3874,
      "ä¸»è¦ģè§ĤçĤ¹": 3875,
      "çĶŁæĪĲä¸Ģç¯ĩ": 3876,
      "è®¤çŁ¥": 3877,
      "æľīçļĦ": 3878,
      "èİī": 3879,
      "æīĵå¼Ģ": 3880,
      "æĸĩç«łä¸ŃçļĦ": 3881,
      "èĬ³": 3882,
      "åį³ä½¿": 3883,
      "åħħè¶³": 3884,
      "èĤĮèĤī": 3885,
      "èĴ¸": 3886,
      "åħµ": 3887,
      "çļĦæĬĢèĥ½": 3888,
      "ä¾µ": 3889,
      "æĪĲè¯Ńåĩºå¤Ħ": 3890,
      "æī®": 3891,
      "æĿ¥è§£åĨ³": 3892,
      "å°ıæĿİ": 3893,
      "æĹ¶åĪ»": 3894,
      "æ½ľåľ¨": 3895,
      "çļĦä¸Ģéĥ¨åĪĨ": 3896,
      "åįģå¹´": 3897,
      "çĮİ": 3898,
      "ĠéĤ£ä¹Ī": 3899,
      "ç»Łè®¡": 3900,
      "è²Į": 3901,
      "ä¸Ģåľº": 3902,
      "æĮĩå¯¼": 3903,
      "é»ĳèī²": 3904,
      "å¿½": 3905,
      "é¤Ĳé¦Ĩ": 3906,
      "åŃĲéĩĮ": 3907,
      "åį°è±¡": 3908,
      "Jo": 3909,
      "è¢«å¹¿æ³Ľ": 3910,
      "åĩĨç¡®åľ°": 3911,
      "hon": 3912,
      "äººåı£": 3913,
      "å½¼æŃ¤": 3914,
      "å½±åĥı": 3915,
      "åħĭæľį": 3916,
      "åĪĨå¸ĥ": 3917,
      "çİ¯å¢ĥæ±¡æŁĵ": 3918,
      "çľŁå®ŀ": 3919,
      "éĽĨä¸Ń": 3920,
      "ä½¿çĶ¨äºĨ": 3921,
      "è´¦": 3922,
      "å¿ĥèĦı": 3923,
      "çłĶåıĳ": 3924,
      "an": 3925,
      "çļĦæİªæĸ½": 3926,
      "èĩªèº«": 3927,
      "å¤ľæĻļ": 3928,
      "æİĴåºı": 3929,
      "å¤ļæķ°": 3930,
      "çļĦè®¾è®¡": 3931,
      "çĶµå½±çļĦ": 3932,
      "è¾ħåĬ©": 3933,
      "ä¿¡ä»»": 3934,
      "åĸ»": 3935,
      "æİĪ": 3936,
      "åĨ¬åŃ£": 3937,
      "16": 3938,
      "çļĦåŁºç¡Ģ": 3939,
      "èĢĮæĺ¯": 3940,
      "ãĢĭï¼Į": 3941,
      "çļĦè¿ĲåĬ¨": 3942,
      "äºĨå¾Īå¤ļ": 3943,
      "ç¨İ": 3944,
      "åħ¬éĩĮ": 3945,
      "åŁ¹åħ»": 3946,
      "æĴ°": 3947,
      "æľĢå¤§çļĦ": 3948,
      "è¶ħå¸Ĥ": 3949,
      "çº¤": 3950,
      "å¿ĥçĲĨåģ¥åº·": 3951,
      "æľĢé«ĺ": 3952,
      "ç®Ģæ´ģæĺİäºĨ": 3953,
      "èĮ¨": 3954,
      "çĲ´": 3955,
      "æĬ½åıĸåĩº": 3956,
      "æĽ´å¿«": 3957,
      "åı¤èĢģ": 3958,
      "å®£å¸ĥ": 3959,
      "é¡µ": 3960,
      "æĶ»åĩ»": 3961,
      "äººä»¬çļĦ": 3962,
      "æĪĳæĺ¯": 3963,
      "ä½ľä¸ºä¸Ģä¸ª": 3964,
      "ç¢İ": 3965,
      "å¤§èĦĳ": 3966,
      "çļĦå°ıè¯´": 3967,
      "ä¸¤ç§į": 3968,
      "æĸĩæĺİ": 3969,
      "çĽ¾": 3970,
      "çļĦæ²»çĸĹ": 3971,
      "åĴª": 3972,
      "çļĦæł¸å¿ĥ": 3973,
      "å¯Ĩçłģ": 3974,
      "ç£¨": 3975,
      "äººä½ĵ": 3976,
      "æĤ¬": 3977,
      "çļĦä»»åĬ¡": 3978,
      "éĢ²": 3979,
      "åĬ¨åĬĽ": 3980,
      "è®¡ç®Ĺæľºè§Ĩè§ī": 3981,
      "è¿Ļç¯ĩæĸĩç«łä¸ŃæıĲåıĸåĩº": 3982,
      "éĺ»": 3983,
      "èį·": 3984,
      "æľĢåĸľæ¬¢": 3985,
      "çļĦæ¦Ĥå¿µ": 3986,
      "åĽ¾ä¹¦": 3987,
      "è¿ĳå¹´æĿ¥": 3988,
      "æĢ»çļĦ": 3989,
      "æŀĦå»º": 3990,
      "è§Ĩä¸º": 3991,
      "è¯·æıĲä¾Ľ": 3992,
      "å¹¶ä¸º": 3993,
      "èĢį": 3994,
      "åŃĲåĴĮ": 3995,
      "èĤ¡ç¥¨": 3996,
      "åħ¬æŃ£": 3997,
      "å¾Īå¤§": 3998,
      "çİ©å®¶": 3999,
      "çļĦæ¢": 4000,
      "åı¯ä»¥å°Ĩ": 4001,
      "çĶĺ": 4002,
      "ä½ľå®¶": 4003,
      "éĩįå¤§": 4004,
      "æĪĸåħ¶ä»ĸ": 4005,
      "éķ¿æĹ¶éĹ´": 4006,
      "éĺµ": 4007,
      "æĪĳæ²¡æľī": 4008,
      "èĩ³åħ³": 4009,
      "å¾ªçİ¯": 4010,
      "åĩ½": 4011,
      "æıĲç¤º": 4012,
      "äº§åĵģçļĦ": 4013,
      "åıªèĥ½": 4014,
      "åħ¬åĽŃéĩĮ": 4015,
      "æ²¿": 4016,
      "åŃĺåĤ¨": 4017,
      "é¢ĨåŁŁçļĦ": 4018,
      "ħåĬĽ": 4019,
      "åĲįä¸º": 4020,
      "è¿Ľè¡Įæĳĺè¦ģ": 4021,
      "æĺİçĻ½": 4022,
      "æĽ´å®¹æĺĵ": 4023,
      "æĿİæĺİ": 4024,
      "æ¢ħ": 4025,
      "çļĦç½ĳ": 4026,
      "æĽ¼": 4027,
      "ä¸Ģåħ±æľī": 4028,
      "çļĦæ¬": 4029,
      "åĴĮå®īåħ¨": 4030,
      "ç»ĵæĿŁ": 4031,
      "è£Ļ": 4032,
      "hn": 4033,
      "éł": 4034,
      "ä¸ĭéĽ¨": 4035,
      "çļĦç¾İé£Ł": 4036,
      "çĳŀ": 4037,
      "èıĮ": 4038,
      "å°½éĩı": 4039,
      "æ¯ķ": 4040,
      "èº«ä»½": 4041,
      "æİĺ": 4042,
      "åĨ³äºİ": 4043,
      "çŁ¿": 4044,
      "åıĸåĨ³äºİ": 4045,
      "è§Ĵèī²ä¿¡æģ¯": 4046,
      "æĪĳä»¬çļĦçĶŁæ´»": 4047,
      "çļĦåŁºæľ¬": 4048,
      "çģ°": 4049,
      "ä¿Ŀéļľ": 4050,
      "æĭĵ": 4051,
      "ä»·åĢ¼è§Ĥ": 4052,
      "åıĳæĺİ": 4053,
      "è±ª": 4054,
      "çļĦçĶŁæ´»æĸ¹å¼ı": 4055,
      "æ¼Ĥäº®": 4056,
      "ç»ıçĲĨ": 4057,
      "çļĦé¢ľèī²": 4058,
      "åĽŀçŃĶè¿Ļä¸ªéĹ®é¢ĺ": 4059,
      "åĴĮåºĶçĶ¨": 4060,
      "ĠéĩįåĨĻ": 4061,
      "000": 4062,
      "åĲĦåľ°": 4063,
      "åĲĽ": 4064,
      "è½¬åĮĸ": 4065,
      "åķĨåĬ¡": 4066,
      "å°ıçĮ«": 4067,
      "æĢ»çļĦæĿ¥è¯´": 4068,
      "èµ¢å¾Ĺ": 4069,
      "ä¸ºä½ł": 4070,
      "è¯¸": 4071,
      "èģĺ": 4072,
      "çļĦæ½": 4073,
      "çĬ¯ç½ª": 4074,
      "è¯ģæį®": 4075,
      "Ã·": 4076,
      "çº¹": 4077,
      "ä¼¯": 4078,
      "æĳĨ": 4079,
      "ç»´æĮģ": 4080,
      "ç»Ļåĩºä¸Ģä¸ª": 4081,
      "John": 4082,
      "æĢİæł·": 4083,
      "è¯ķåĽ¾": 4084,
      "é²ģ": 4085,
      "å¤§éĩıçļĦ": 4086,
      "ç¼ºçĤ¹": 4087,
      "æĥ³è±¡": 4088,
      "åı¯ä»¥éĢīæĭ©": 4089,
      "æŁ¥è¯¢": 4090,
      "æĪĳè§īå¾Ĺ": 4091,
      "æľīæķĪçļĦ": 4092,
      "æĿİåĽĽ": 4093,
      "ä¹ŁéľĢè¦ģ": 4094,
      "çļĦçľĭ": 4095,
      "ä¸Ģä»¶": 4096,
      "åĭĩæ°Ķ": 4097,
      "èĻİ": 4098,
      "çļĦåĲ«ä¹ī": 4099,
      "ä»¥æĿ¥": 4100,
      "åı¯ä»¥æł¹æį®": 4101,
      "ä»Ĭå¹´": 4102,
      "æĻĴ": 4103,
      "Ġ1": 4104,
      "æŁĶè½¯": 4105,
      "ä¼¦æķ¦": 4106,
      "åŃĹç¬¦": 4107,
      "æľªçŁ¥": 4108,
      "å§Ķ": 4109,
      "çĽĳæµĭ": 4110,
      "è®¸å¤ļäºº": 4111,
      "å¥½å¤Ħ": 4112,
      "AIæĬĢæľ¯": 4113,
      "èİ±": 4114,
      "åĴĮæľįåĬ¡": 4115,
      "åľĪ": 4116,
      "å¿ĥåĴĮ": 4117,
      "åĪļåĪļ": 4118,
      "ä»ª": 4119,
      "ä½Ĩä»ĸ": 4120,
      "éĢĬ": 4121,
      "çļĦæľįåĬ¡": 4122,
      "æĺ¯åħ³äºİ": 4123,
      "le": 4124,
      "ä¸ªæĢ§åĮĸ": 4125,
      "ä¸İåħ¶ä»ĸ": 4126,
      "æĺ¯æľĢ": 4127,
      "åį§": 4128,
      "åīª": 4129,
      "é¸£": 4130,
      "çłĶç©¶è¡¨æĺİ": 4131,
      "æĥħæĦŁåĪĨæŀĲ": 4132,
      "å¹½": 4133,
      "çļĦåĬ¨çī©": 4134,
      "çļĦåıĺåĮĸ": 4135,
      "çİ©èĢį": 4136,
      "åıĤèĢĥ": 4137,
      "çļĦçĸ": 4138,
      "ä¸ĵå®¶": 4139,
      "èĢħçļĦ": 4140,
      "èĢĮè¨Ģ": 4141,
      "å°ıåįİ": 4142,
      "ç¡®å®ŀ": 4143,
      "çĽĳçĿ£": 4144,
      "çļ®èĤ¤": 4145,
      "ä¼Ļ": 4146,
      "ä¸įè¶³": 4147,
      "çļĦæĥħåĨµä¸ĭ": 4148,
      "ĠæĪĳæĥ³": 4149,
      "ce": 4150,
      "ç¢į": 4151,
      "éĻ·": 4152,
      "æ°¸è¿ľ": 4153,
      "å°±ä¼ļ": 4154,
      "çļĦäº§åĵģ": 4155,
      "èĬĿ": 4156,
      "çºłæŃ£": 4157,
      "éĤĢ": 4158,
      "è´Łè´£": 4159,
      "å§¿": 4160,
      "æĢª": 4161,
      "çļĦæĶ¯æĮģ": 4162,
      "æģĭ": 4163,
      "éĩĮéĿ¢": 4164,
      "éĩĩåıĸæİªæĸ½": 4165,
      "æľīçĽĬ": 4166,
      "åĲĮåŃ¦": 4167,
      "åĴĮè°": 4168,
      "æŀĿ": 4169,
      "èħĲ": 4170,
      "è¯ģæĺİ": 4171,
      "åį°åº¦": 4172,
      "å¤§åŀĭ": 4173,
      "åĩ¡": 4174,
      "åĩºè¡Į": 4175,
      "è¯Ńåı¥": 4176,
      "è°ĥåĳ³": 4177,
      "æ¥ļ": 4178,
      "çļĦåħ·ä½ĵ": 4179,
      "çļĦè¿ĩç¨ĭ": 4180,
      "å¹´è½»äºº": 4181,
      "çļĦæĢģ": 4182,
      "çİ©åħ·": 4183,
      "è®¿éĹ®": 4184,
      "ç®Ģçº¦": 4185,
      "è°Ĭ": 4186,
      "åĽłä¸ºå®ĥä»¬": 4187,
      "äºĭæķħ": 4188,
      "æŃ»äº¡": 4189,
      "åı¯èĥ½å¯¼èĩ´": 4190,
      "å®ŀçĶ¨": 4191,
      "åĸľçĪ±": 4192,
      "æª¬": 4193,
      "æĽ´ä¸º": 4194,
      "å±±å³°": 4195,
      "æīĭæ®µ": 4196,
      "äº§ä¸ļ": 4197,
      "è§Ĥçľĭ": 4198,
      "çļĦé£İæł¼": 4199,
      "çļĦæĥħç»ª": 4200,
      "åıĸå¾ĹäºĨ": 4201,
      "éĺĶ": 4202,
      "è¡«": 4203,
      "æĭĶ": 4204,
      "è¿ĻæĦıåĳ³çĿĢ": 4205,
      "æµģç¨ĭ": 4206,
      "å°ıæĺİåĴĮ": 4207,
      "ĽçĽ¾": 4208,
      "æĳĩ": 4209,
      "łæª¬": 4210,
      "å±ı": 4211,
      "æŁ¥çľĭ": 4212,
      "çļĦçĬ": 4213,
      "å²©": 4214,
      "è¶³å¤ŁçļĦ": 4215,
      "è¿ĲçĶ¨": 4216,
      "ä¸Ģæ®µæĸĩæľ¬": 4217,
      "äººå£«": 4218,
      "èĴľ": 4219,
      "Ġè¿Ļä¸ª": 4220,
      "æ£ī": 4221,
      "åľ°ä¸Ĭ": 4222,
      "çĶ·åŃĲ": 4223,
      "ä¿Ĺ": 4224,
      "åŀĥåľ¾åĪĨç±»": 4225,
      "è¢«ç§°ä¸º": 4226,
      "æĦŁåĪ°éĿŀå¸¸": 4227,
      "èĴĤ": 4228,
      "èıľèĤ´": 4229,
      "æŃ£å¼ı": 4230,
      "åŁ¹è®Ń": 4231,
      "å¤ļæł·æĢ§": 4232,
      "åĭĩæķ¢": 4233,
      "ç©Ĩ": 4234,
      "è¿Ļç¯ĩæĸĩç«łä¸ŃæıĲåıĸ": 4235,
      "åĢĴåħ¥": 4236,
      "å¹´ä»£": 4237,
      "åİĺ": 4238,
      "è¿Ļæ¬¡": 4239,
      "éķ¿çļĦ": 4240,
      "çĽ¸åıį": 4241,
      "å½±çīĩ": 4242,
      "åŁİå¸ĤçļĦ": 4243,
      "ä¸ģ": 4244,
      "åħ³éĶ®åŃĹ": 4245,
      "çļĦçĭĹ": 4246,
      "ä»¥ä¸ĭæĸĩç«ł": 4247,
      "æī®æ¼Ķ": 4248,
      "ä¸»äººåħ¬": 4249,
      "çļĦçľĭæ³ķ": 4250,
      "æĬĢæľ¯åĴĮ": 4251,
      "æ²Ļæĭī": 4252,
      "åĪ©çĽĬ": 4253,
      "åľºæīĢ": 4254,
      "çĥ¹é¥ª": 4255,
      "è£ģ": 4256,
      "ç¼ĸåĨĻä¸Ģä¸ª": 4257,
      "æĳ©": 4258,
      "æĶ¶åħ¥": 4259,
      "çĽŁ": 4260,
      "çļĦæĬķ": 4261,
      "å±ķå¼Ģ": 4262,
      "ç§Ł": 4263,
      "çļĦæ¸¸æĪı": 4264,
      "äº¤äºĴ": 4265,
      "åĪĺ": 4266,
      "æŃ£å¸¸": 4267,
      "çģµæ´»": 4268,
      "å¼ķåıĳ": 4269,
      "æĪĲåĬŁçļĦ": 4270,
      "åĸľæ¬¢åĲĥ": 4271,
      "ä¸Ńæľī": 4272,
      "17": 4273,
      "ä¾Ŀèµĸ": 4274,
      "ä¹Łä¸į": 4275,
      "æłĩçŃ¾": 4276,
      "æģ¢": 4277,
      "åĮ¹": 4278,
      "å®ŀæĹ¶": 4279,
      "æ¸ħæĸ°": 4280,
      "ä¸Ģå¹´": 4281,
      "çļĦæģ": 4282,
      "å½ĵæĹ¶": 4283,
      "éĩİçĶŁ": 4284,
      "æĪĲæŀľ": 4285,
      "èĢģæĿ¿": 4286,
      "æĪĳä¸į": 4287,
      "å¿ħè¦ģçļĦ": 4288,
      "èģĮä½į": 4289,
      "åĿĢ": 4290,
      "æŁ¥æī¾": 4291,
      "æĻºèĥ½æīĭæľº": 4292,
      "å¤®": 4293,
      "èŃ¦å¯Ł": 4294,
      "åĴĮæ°´": 4295,
      "æµ·å¹³éĿ¢ä¸Ĭåįĩ": 4296,
      "æĺ¾èĳĹ": 4297,
      "æİ¢éĻ©": 4298,
      "è¿«": 4299,
      "å°¿": 4300,
      "æ³¢çī¹": 4301,
      "éĺ¶æ®µ": 4302,
      "æĭħå¿ĥ": 4303,
      "çļĦçĽ®æłĩ": 4304,
      "çļĦæ¢¦": 4305,
      "äºĮæ°§åĮĸ": 4306,
      "ä½łè®¤ä¸º": 4307,
      "ä»Ļ": 4308,
      "çĸĳéĹ®": 4309,
      "è·ĥ": 4310,
      "çļĦæ³ķ": 4311,
      "åİŁæĸĩ": 4312,
      "åºĨç¥Ŀ": 4313,
      "ä¸ªæ©ĻåŃĲ": 4314,
      "åı¯ä»¥çĶ¨": 4315,
      "ç«¹": 4316,
      "è®¤çľŁ": 4317,
      "å¢¨": 4318,
      "ä¸įè¶ħè¿ĩ": 4319,
      "çĭ®": 4320,
      "æĺĵæĩĤ": 4321,
      "åľ¨ä¸ŃåĽ½": 4322,
      "æĹłéĻĲ": 4323,
      "æ·±è¿ľ": 4324,
      "å·¥èīº": 4325,
      "åĲĮæł·": 4326,
      "æ³ķè§Ħ": 4327,
      "å¿ĥæĢģ": 4328,
      "ä¹°äºĨ": 4329,
      "çļĦä¸ĸçķĮ": 4330,
      "çļĦçľŁ": 4331,
      "åħ¶ä¸ŃåĮħæĭ¬": 4332,
      "è°ĵè¯Ń": 4333,
      "é¸¡èĤī": 4334,
      "ä½ĵéĩį": 4335,
      "å¯¼æ¼Ķ": 4336,
      "çļĦçī¹çĤ¹": 4337,
      "è¦ģçĤ¹": 4338,
      "èİİ": 4339,
      "åŃ¦ç§ĳ": 4340,
      "æĬĳ": 4341,
      "å¤§å¤ļæķ°": 4342,
      "æ¶µçĽĸ": 4343,
      "Ġä½¿çĶ¨": 4344,
      "å·¥ç¨ĭå¸Ī": 4345,
      "åı¯ä»¥èĢĥèĻĳ": 4346,
      "èĬĤæĹ¥": 4347,
      "åĢ¼å¾Ĺä¸Ģ": 4348,
      "éĹ®é¢ĺçļĦ": 4349,
      "è¢«è®¤ä¸ºæĺ¯": 4350,
      "æī¾åĪ°äºĨ": 4351,
      "éĩĬæĶ¾": 4352,
      "æľĢéĩįè¦ģ": 4353,
      "é²¸": 4354,
      "ä¼¦çĲĨ": 4355,
      "çļĦçĮ": 4356,
      "éĥ½åľ¨": 4357,
      "åĲĪçī©": 4358,
      "æĪĳæľĢè¿ĳ": 4359,
      "åĲĥäºĨ": 4360,
      "çŁ¥åĲį": 4361,
      "åĴĮæĶ¯æĮģ": 4362,
      "å¼Ģå¿ĥ": 4363,
      "ä¸įæĸŃåľ°": 4364,
      "ä¸Ģç³»åĪĹ": 4365,
      "ç¡®è®¤": 4366,
      "åģļå¥½": 4367,
      "å¦Ĥä½ķåľ¨": 4368,
      "æĺ¯åĲ¦æľī": 4369,
      "æıŃ": 4370,
      "çº¤ç»´": 4371,
      "éľľ": 4372,
      "åıĭè°Ĭ": 4373,
      "çļĦæĽ": 4374,
      "é¸Ń": 4375,
      "æĭľ": 4376,
      "æĥľ": 4377,
      "çļĦæ¨": 4378,
      "çĩķ": 4379,
      "çļĦä¸ĢäºĽ": 4380,
      "æĦŁæŁĵ": 4381,
      "è´§å¸ģ": 4382,
      "åĽ¾åĥıè¯ĨåĪ«": 4383,
      "åıĹæ¬¢è¿İçļĦ": 4384,
      "å¼Ł": 4385,
      "å¾Ĵ": 4386,
      "å°Ĭæķ¬": 4387,
      "çĭĹçĭĹ": 4388,
      "éģµå®Ī": 4389,
      "çļĦæ¶Ī": 4390,
      "é£Łè°±": 4391,
      "å¦ĩ": 4392,
      "æŁłæª¬": 4393,
      "æķĪçİĩåĴĮ": 4394,
      "çļĦä¸»æĹ¨": 4395,
      "åĩ½æķ°": 4396,
      "å¥½çľĭ": 4397,
      "èĤł": 4398,
      "äººç±»æ´»åĬ¨": 4399,
      "è¶ĬæĿ¥è¶Ĭå¤ļ": 4400,
      "æŃĮè¯į": 4401,
      "çĽĳç®¡": 4402,
      "æĽ¿ä»£": 4403,
      "æİ¨æĸŃ": 4404,
      "æĦıè¯ĨåĪ°": 4405,
      "æ®ĸ": 4406,
      "æĲº": 4407,
      "60": 4408,
      "ä¼ļå¯¼èĩ´": 4409,
      "2021": 4410,
      "èĤĸ": 4411,
      "çļĦç¥ŀ": 4412,
      "Ġç»Ļå®ļä¸Ģä¸ª": 4413,
      "åľ¨è¿ĩåİ»": 4414,
      "è½»è½»": 4415,
      "æµ·è¾¹": 4416,
      "æĦ¿æĦı": 4417,
      "ç»ĻäºĨ": 4418,
      "åľ¨å®¶éĩĮ": 4419,
      "çļĦæŃ£": 4420,
      "æĻ®éĢļ": 4421,
      "éĨī": 4422,
      "ä¹ĭéĹ´çļĦåħ³ç³»": 4423,
      "å·²ç»ıæĪĲä¸º": 4424,
      "æĶ¯éĵħç¬Ķ": 4425,
      "åĽŀå¿Ĩ": 4426,
      "è¯¥åħ¬åı¸": 4427,
      "éĥ½åı¯ä»¥": 4428,
      "æĪĳä¹Ł": 4429,
      "åĪł": 4430,
      "çļĦæĳĦ": 4431,
      "å¦Ĥæŀľä½łåĸľæ¬¢": 4432,
      "çļĦæ·±": 4433,
      "éĻ¤ä»¥": 4434,
      "èıľåįķ": 4435,
      "æĹłäºº": 4436,
      "æĿ¥å®ŀçİ°": 4437,
      "è¿Ł": 4438,
      "éĻª": 4439,
      "çļĦæ½ľ": 4440,
      "40": 4441,
      "è·¯çº¿": 4442,
      "æ´ª": 4443,
      "éģİ": 4444,
      "æııç»ĺ": 4445,
      "æĽ´æľī": 4446,
      "èģļä¼ļ": 4447,
      "äºĴçĽ¸": 4448,
      "ä¸ĢåĢĭ": 4449,
      "é¸Łç±»": 4450,
      "çļĦçĪ±æĥħ": 4451,
      "æİĴåĪĹ": 4452,
      "èĴĻ": 4453,
      "åľ°çĲĥçļĦ": 4454,
      "æĮĤ": 4455,
      "ç¤¼çī©": 4456,
      "å°ıé¸Ł": 4457,
      "æĤī": 4458,
      "éģĵè·¯": 4459,
      "åĴĮè°Ĳ": 4460,
      "äºĮæ°§åĮĸç¢³": 4461,
      "çļĦæİĴ": 4462,
      "æ¡ĥ": 4463,
      "æĽ´æĸ°": 4464,
      "ä¿ĿéĻ©": 4465,
      "æľºåĪ¶": 4466,
      "è´¸": 4467,
      "åĢį": 4468,
      "åĪĹä¸¾": 4469,
      "åĭĴ": 4470,
      "ä»¥ä¸ĭéĹ®é¢ĺ": 4471,
      "ä»ĸæĥ³": 4472,
      "ä»ĭç»įä¸Ģä¸ĭ": 4473,
      "å¯¹åħ¶": 4474,
      "èĭ±æĸĩ": 4475,
      "çĻ½èī²": 4476,
      "äºĭä¸ļ": 4477,
      "åį«æĺŁ": 4478,
      "å®ĹæķĻ": 4479,
      "èĬĴ": 4480,
      "è¯»ä¹¦": 4481,
      "åķĨåºĹ": 4482,
      "ä¿ĿæĮģåģ¥åº·": 4483,
      "çļĦä¸į": 4484,
      "ä¸ľäº¬": 4485,
      "ä»¿ä½Ľ": 4486,
      "èĥ½åĬĽåĴĮ": 4487,
      "æģ¢å¤į": 4488,
      "åĪĢ": 4489,
      "çİĩåĴĮ": 4490,
      "çº½çº¦å¸Ĥ": 4491,
      "ä¸Ģå¼ł": 4492,
      "æ·ĩ": 4493,
      "åľ¨è¿ĻéĩĮ": 4494,
      "\"ï¼Į": 4495,
      "è®©äººä»¬": 4496,
      "èĻļæĭŁçİ°å®ŀ": 4497,
      "çļĦæŁ": 4498,
      "éĿ¢æĸĻ": 4499,
      "çļĦæŃ¥": 4500,
      "åĽ¾ä¹¦é¦Ĩ": 4501,
      "å°½åĬĽ": 4502,
      "åĲĮäºĭ": 4503,
      "çŃĶæ¡Īæĺ¯": 4504,
      "èĥ¸": 4505,
      "ä¼¤å®³": 4506,
      "é¢ĨåŁŁä¸Ń": 4507,
      "è¿Ĳè¡Į": 4508,
      "ç§įæ¤į": 4509,
      "çļĦå¤ĸ": 4510,
      "æĻ®éģį": 4511,
      "å°ıæľĭåıĭ": 4512,
      "å¦Īå¦Ī": 4513,
      "æłĩå¿Ĺ": 4514,
      "çļĦé«ĺ": 4515,
      "ä¸ĢçĽ´åľ¨": 4516,
      "æĬĵ": 4517,
      "éªĮè¯ģ": 4518,
      "è¯´è¯Ŀ": 4519,
      "çĭĤ": 4520,
      "åĵªç§į": 4521,
      "èĢĢ": 4522,
      "åıĭå¥½": 4523,
      "å£¤": 4524,
      "æľºåĻ¨åŃ¦ä¹łç®Ĺæ³ķ": 4525,
      "å¾Īå¥½çļĦ": 4526,
      "çļĦåħ³ç³»": 4527,
      "çĬ¹": 4528,
      "æĺ¯å¤ļå°ĳ": 4529,
      "åħīçº¿": 4530,
      "å½ĵä½ł": 4531,
      "åĨ°æ·ĩ": 4532,
      "åĪ«äºº": 4533,
      "éĺĲ": 4534,
      "åĬĽåŃ¦": 4535,
      "å°ıæĺİå®¶": 4536,
      "äººå·¥æĻºèĥ½çļĦåıĳå±ķ": 4537,
      "ä½łä¼ļ": 4538,
      "çĶ·æĢ§": 4539,
      "æĻºèĥ½åĮĸ": 4540,
      "åľ°éľĩ": 4541,
      "ä»ĸä»¬åľ¨": 4542,
      "åĪĽä¸ļ": 4543,
      "å°±åĥı": 4544,
      "ä¸¦": 4545,
      "æĪĳéĿŀå¸¸": 4546,
      "åĨ°æ·ĩæ·ĭ": 4547,
      "ä¼ĺæĥł": 4548,
      "æ¯ĶèµĽä¸Ń": 4549,
      "ç¾¤ä½ĵ": 4550,
      "Tom": 4551,
      "æĺ¯ä¸į": 4552,
      "åıªè¦ģ": 4553,
      "Ġç»Ļåĩºä¸Ģä¸ª": 4554,
      "èĥľåĪ©": 4555,
      "åħļ": 4556,
      "æħ¢æħ¢": 4557,
      "ä¾ĽåºĶ": 4558,
      "ä¸²": 4559,
      "åħ¬ä¼Ĺ": 4560,
      "çĥŃæĥħ": 4561,
      "ä½¿çĶ¨çļĦ": 4562,
      "çĶŁæĪĲæĳĺè¦ģ": 4563,
      "ä½łè§īå¾Ĺ": 4564,
      "æ¦Ĥè¿°": 4565,
      "æĽ´é«ĺ": 4566,
      "å¼ķåĬĽ": 4567,
      "åĬłéĢŁ": 4568,
      "ä¸§": 4569,
      "æ¢¦æĥ³": 4570,
      "åįľ": 4571,
      "æĺ¯åĽłä¸º": 4572,
      "åĴĮæľĭåıĭ": 4573,
      "åĪĩæĪĲ": 4574,
      "çļĦæľºä¼ļ": 4575,
      "ï¼ļ\"": 4576,
      "å®¿": 4577,
      "æĮĩçļĦæĺ¯": 4578,
      "åĪ·": 4579,
      "å°ĺ": 4580,
      "æĺ¯å¦Ĥä½ķ": 4581,
      "å®Įç¾İ": 4582,
      "æ³Ĭ": 4583,
      "å¼Ĺ": 4584,
      "è°ĥèĬĤ": 4585,
      "é£ŀæľº": 4586,
      "è®²è¿°äºĨä¸Ģä¸ª": 4587,
      "çļĦæ¯ı": 4588,
      "åĭ¤": 4589,
      "å«Į": 4590,
      "è¿Ļåıª": 4591,
      "åħ¶å®ŀ": 4592,
      "çļĦçĻ": 4593,
      "æĿĥåĪ©": 4594,
      "ä¸Ĭæĸĩ": 4595,
      "ç¨®": 4596,
      "çĽĹ": 4597,
      "çŁĽçĽ¾": 4598,
      "è¯ķè¯ķ": 4599,
      "ä¾§": 4600,
      "èº«ä½ĵåĴĮ": 4601,
      "ä¿¡ä»°": 4602,
      "çĽ®çļĦæĺ¯": 4603,
      "çļĦæ£": 4604,
      "è¿Ļæĺ¯ä¸Ģç¯ĩ": 4605,
      "æī©å¤§": 4606,
      "çļĦç¼ĸ": 4607,
      "24": 4608,
      "è¿Ļæł·çļĦ": 4609,
      "å¯¸": 4610,
      "ç®Ģä»ĭ": 4611,
      "ãĢĤ'": 4612,
      "æĿİåįİ": 4613,
      "åĴĮå·¥ä½ľ": 4614,
      "åĬĽäºİ": 4615,
      "æı´": 4616,
      "å¹¶å°Ĩ": 4617,
      "å¹¶å°Ĩåħ¶": 4618,
      "å§ĵåĲį": 4619,
      "æ¶Ĥ": 4620,
      "å°ĳå¹´": 4621,
      "è¿Ļå°Ĩ": 4622,
      "ä¸Ģçīĩ": 4623,
      "å¦Ĥæŀľä½łæĥ³": 4624,
      "ä¸įæĸŃåıĳå±ķ": 4625,
      "å¹¿æ³ĽåºĶçĶ¨": 4626,
      "éĩĩåıĸè¡ĮåĬ¨": 4627,
      "å®¶åħ·": 4628,
      "çļĦçľ¼": 4629,
      "Ġæł¹æį®ä»¥ä¸ĭ": 4630,
      "è¯ĨåĪ«åĩº": 4631,
      "æĦıå¤§åĪ©éĿ¢": 4632,
      "ä¸įéľĢè¦ģ": 4633,
      "é¬": 4634,
      "æĸ°éĹ»æĸĩç«ł": 4635,
      "çļĦè´¨éĩı": 4636,
      "æ®ĭ": 4637,
      "14": 4638,
      "è½¨": 4639,
      "æĵİ": 4640,
      "çļĦè¯ĹæŃĮ": 4641,
      "å¤©çĦ¶": 4642,
      "å¥Ķ": 4643,
      "åĲįè¯įçŁŃè¯Ń": 4644,
      "æīĭæľ¯": 4645,
      "æľĢæĸ°çļĦ": 4646,
      "äº¤éĢļå·¥åħ·": 4647,
      "li": 4648,
      "çĤ¹ç¬¦åı·": 4649,
      "æĹģ": 4650,
      "å¯Įæľī": 4651,
      "çļĦä½įç½®": 4652,
      "è¿Ļæ®µæĸĩåŃĹ": 4653,
      "åĴĮå¹³": 4654,
      "å¹¶ä¸įæĺ¯": 4655,
      "æŀĦæĪĲ": 4656,
      "åıĸä»£": 4657,
      "Ġ5": 4658,
      "çīĽèĤī": 4659,
      "æĥħæĦŁåĪĨç±»": 4660,
      "ãĢĮ": 4661,
      "ç±»åŀĭçļĦ": 4662,
      "ä¿®æŃ£": 4663,
      "å®Ŀå®Ŀ": 4664,
      "åİŁåĪĻ": 4665,
      "æī£": 4666,
      "æĶ¾å¼ĥ": 4667,
      "æ·±åĳ¼åĲ¸": 4668,
      "æĺ¯æĪĳä»¬": 4669,
      "è´«": 4670,
      "é»ĳæļĹ": 4671,
      "è§ĦèĮĥ": 4672,
      "æ¯«": 4673,
      "è¿ĺèĥ½": 4674,
      "NA": 4675,
      "ãĢį": 4676,
      "å°½å¿«": 4677,
      "å¹¶ç»Ļåĩº": 4678,
      "æĶ¹ä¸º": 4679,
      "è½¬æį¢ä¸º": 4680,
      "èĺ": 4681,
      "å¯¿åĳ½": 4682,
      "åı£è¯Ń": 4683,
      "åħĶåŃĲ": 4684,
      "å¯¹è±¡": 4685,
      "æĢİä¹Īæł·": 4686,
      "æĪĳå°Ĩ": 4687,
      "åıĳåĩº": 4688,
      "åºĦ": 4689,
      "æĺ¯ä¸ª": 4690,
      "åĩĨç¡®æĢ§": 4691,
      "çļĦæ°´æŀľ": 4692,
      "æĽ´å¥½åľ°çĲĨè§£": 4693,
      "å¯Ĥ": 4694,
      "ä¹Į": 4695,
      "ä¹Łå°±æĺ¯": 4696,
      "éħª": 4697,
      "æ¶ĪèĢĹ": 4698,
      "æĤ¨å¥½": 4699,
      "æİ¥çĿĢ": 4700,
      "ä¸ĢåĪĩ": 4701,
      "çĥ¦": 4702,
      "æĹ¥å¸¸çĶŁæ´»": 4703,
      "åľºåĲĪ": 4704,
      "æĿ¥æıĲé«ĺ": 4705,
      "åģıå¥½": 4706,
      "ç¥ŀç§ĺçļĦ": 4707,
      "Ġè¯·ç»ĻæĪĳ": 4708,
      "å½ĵä»Ĭ": 4709,
      "ä¸¥æł¼": 4710,
      "å¼ķæĵİ": 4711,
      "ç¬¬ä¸Ģä¸ª": 4712,
      "æ¸ħåįķ": 4713,
      "ç¬¬äºĮä¸ª": 4714,
      "åĽ½åĨħ": 4715,
      "ä¸īç§į": 4716,
      "åĮºåĪ«": 4717,
      "ï¼ļ'": 4718,
      "å¼ºå¤§": 4719,
      "ç½ļ": 4720,
      "çĮª": 4721,
      "æĿ¥çľĭ": 4722,
      "èĬĤå¥ı": 4723,
      "çīĪæľ¬": 4724,
      "å½ĵåľ°çļĦ": 4725,
      "æİ¨èįĲä¸ĢäºĽ": 4726,
      "ä¼¸": 4727,
      "åİĤ": 4728,
      "çŃīæĸ¹å¼ı": 4729,
      "åİĭåĬĽåĴĮ": 4730,
      "è´¹çĶ¨": 4731,
      "çĩĥæĸĻ": 4732,
      "æıĴ": 4733,
      "åĴĮåĪĨæŀĲ": 4734,
      "æµ¸": 4735,
      "æĪ·å¤ĸæ´»åĬ¨": 4736,
      "ä¼łéĢĴ": 4737,
      "å°¼åħĭ": 4738,
      "æıĲä¾ĽçļĦæĸĩæľ¬": 4739,
      "æĦŁåĴĮ": 4740,
      "åĲ¬åĪ°": 4741,
      "ĠçĶ¨": 4742,
      "è¿Ļä½į": 4743,
      "èį¡": 4744,
      "åĲİçļĦ": 4745,
      "çļĦæĢģåº¦": 4746,
      "æĬµ": 4747,
      "ä½łå¯¹": 4748,
      "çĶµåĬ¨": 4749,
      "è¯·ç»ĻæĪĳ": 4750,
      "èĬ±è´¹": 4751,
      "æĢģåº¦": 4752,
      "åıĺéĿ©": 4753,
      "è¦ģæ³¨æĦı": 4754,
      "å°¤åħ¶æĺ¯": 4755,
      "åŃĶ": 4756,
      "å£ģ": 4757,
      "å¯¹æīĭ": 4758,
      "å¹¿æ³ĽçļĦåºĶçĶ¨": 4759,
      "èĬ¬": 4760,
      "å¤±åİ»": 4761,
      "æ¨¡ä»¿": 4762,
      "è¯ĦåĪĨ": 4763,
      "åĽĽä¸ª": 4764,
      "åı¯èĥ½æĢ§": 4765,
      "Ġå¸®æĪĳ": 4766,
      "æĸ°äº§åĵģ": 4767,
      "çļĦåŃ¦ä¹ł": 4768,
      "åģ·": 4769,
      "åı«åģļ": 4770,
      "é«Ķ": 4771,
      "åı¯ä»¥æĺ¯": 4772,
      "è¾ŀ": 4773,
      "Ġäººå·¥æĻºèĥ½": 4774,
      "æ»¤": 4775,
      "å¥½äºĨ": 4776,
      "åĮĸåĲĪçī©": 4777,
      "äºİæĺ¯": 4778,
      "\"ãĢĤ": 4779,
      "ä¸ĢçĤ¹": 4780,
      "è´¯": 4781,
      "çľ¼çĿĽ": 4782,
      "éĻ¤æŃ¤": 4783,
      "Ġé¢ĺçĽ®": 4784,
      "13": 4785,
      "ç¢Ĺ": 4786,
      "éĶĢåĶ®é¢Ŀ": 4787,
      "åİ¿": 4788,
      "æľīæĹ¶": 4789,
      "åĲĪåĲĮ": 4790,
      "åłµ": 4791,
      "é³": 4792,
      "æľºåĻ¨ç¿»è¯ĳ": 4793,
      "èĪĩ": 4794,
      "æ°´åĴĮ": 4795,
      "éļıæľº": 4796,
      "é¦Ļæ¸¯": 4797,
      "é©±": 4798,
      "åıĳå±ķçļĦ": 4799,
      "ä½łæľīä»Ģä¹Ī": 4800,
      "åĶ¯ä¸Ģ": 4801,
      "åľŁå£¤": 4802,
      "æ°´ä¸Ń": 4803,
      "èĩ´åĬĽäºİ": 4804,
      "é¦¨": 4805,
      "ä¿¡åı·": 4806,
      "å¥¥è¿Ĳ": 4807,
      "æ¯ıæ¬¡": 4808,
      "è¯Ńæ³ķåĴĮ": 4809,
      "åĢ¾åĲĳ": 4810,
      "éĤĢè¯·": 4811,
      "æĺ¯ä¸Ģé¡¹": 4812,
      "æĻ¯è§Ĥ": 4813,
      "å®ģéĿĻ": 4814,
      "éľĢè¦ģæ³¨æĦıçļĦæĺ¯": 4815,
      "å¿ĥçģµ": 4816,
      "çļĦç¾İå¥½": 4817,
      "æĺĵäºİçĲĨè§£": 4818,
      "æĸĩä¸Ń": 4819,
      "èĭ±éĽĦ": 4820,
      "æķ´ä½ĵ": 4821,
      "éĻ¤æŃ¤ä¹ĭå¤ĸ": 4822,
      "æĵħ": 4823,
      "è±¡å¾ģ": 4824,
      "èģĶåĲĪ": 4825,
      "åĴĮæķ°æį®": 4826,
      "yt": 4827,
      "æĮĳ": 4828,
      "å®ĮåĸĦ": 4829,
      "å¾Īéļ¾": 4830,
      "æĢİä¹ĪåĬŀ": 4831,
      "éĿŀå¸¸æľī": 4832,
      "æ¨¡æĭŁäººç±»": 4833,
      "å¦¹": 4834,
      "æĪĲç«ĭ": 4835,
      "çİ°åľ¨è¯·ä½ł": 4836,
      "èµĦæĸĻ": 4837,
      "å¸¦æĿ¥çļĦ": 4838,
      "èµĭ": 4839,
      "åı¦ä¸Ģ": 4840,
      "è®¯": 4841,
      "è¿Ļåº§": 4842,
      "ãĢĤãĢĬ": 4843,
      "å¤±è´¥": 4844,
      "æĮĸ": 4845,
      "çļĦæµģ": 4846,
      "è¿ĻäºĽéĹ®é¢ĺ": 4847,
      "èħ»": 4848,
      "éĸĭ": 4849,
      "å¾·åĽ½": 4850,
      "åĴĮé«ĺ": 4851,
      "ç»Ĵ": 4852,
      "æ¤ħ": 4853,
      "å¸Ń": 4854,
      "åĴĮæĬĢæľ¯": 4855,
      "é¢Ħè®¡": 4856,
      "é½Ĳ": 4857,
      "ç¤¾ä¼ļçļĦ": 4858,
      "åĮĹæŀģ": 4859,
      "èĬĤçĽ®": 4860,
      "æĩī": 4861,
      "å¸½": 4862,
      "çģ«æĺŁ": 4863,
      "æĹħæ¸¸æĻ¯çĤ¹": 4864,
      "ä¸¾åĬŀ": 4865,
      "æľīäºº": 4866,
      "å®īè£ħ": 4867,
      "çļĦæ¨¡": 4868,
      "å¸®æĪĳæĥ³": 4869,
      "çļĦç¨ĭ": 4870,
      "çĻĮçĹĩ": 4871,
      "åı¯èĥ½ä¼ļå¯¼èĩ´": 4872,
      "æ¼Ķè®²": 4873,
      "åıįæĺł": 4874,
      "ä¸¹": 4875,
      "æīĢè¿°": 4876,
      "å¾Ģå¾Ģ": 4877,
      "å¤©ä½ĵ": 4878,
      "æ´ĭèĳ±": 4879,
      "è¹Ī": 4880,
      "ä¼ļå¯¹": 4881,
      "çļĦæĹ¥": 4882,
      "éĸĵ": 4883,
      "ä½łåľ¨": 4884,
      "èµĦéĩĳ": 4885,
      "ä¾¿æį·": 4886,
      "çļĦæĥħèĬĤ": 4887,
      "çļĦæĦŁåıĹ": 4888,
      "çļĦæĬĢå·§": 4889,
      "å¹³æĸ¹": 4890,
      "éŁµ": 4891,
      "äººå·¥æĻºèĥ½çļĦåºĶçĶ¨": 4892,
      "æĴŀ": 4893,
      "è¡¬": 4894,
      "çī¹åĪ«æĺ¯": 4895,
      "ython": 4896,
      "æ¯ıå¹´": 4897,
      "äººå¿ĥ": 4898,
      "ä¸Ńç«ĭ": 4899,
      "ç²¾åĩĨ": 4900,
      "è¦ĨçĽĸ": 4901,
      "ç£ģ": 4902,
      "Ŀåįľ": 4903,
      "ä¸Ĭæľī": 4904,
      "è¯·ç»ŃåĨĻ": 4905,
      "å¹¶è¿Ľè¡Į": 4906,
      "çļĦè¿ĩç¨ĭä¸Ń": 4907,
      "æĭ¼åĨĻéĶĻè¯¯": 4908,
      "æľĪçĲĥ": 4909,
      "æ¼ł": 4910,
      "åı¯ä»¥å°Ŀè¯ķ": 4911,
      "ä¼Ļä¼´": 4912,
      "åº¦çļĦ": 4913,
      "ä¼łç»ŁçļĦ": 4914,
      "åħĪè¿Ľ": 4915,
      "è¿ĺæľīåħ¶ä»ĸ": 4916,
      "éĢļå¸¸æĺ¯": 4917,
      "æľīæľº": 4918,
      "äºĨä»Ģä¹Ī": 4919,
      "çĪ¸": 4920,
      "æ¯ıäºº": 4921,
      "æĴĴ": 4922,
      "çļĦæĶ¹": 4923,
      "åŃ¦æľ¯": 4924,
      "å®ļåĪ¶": 4925,
      "æłĩè®°": 4926,
      "ä¼ļåľ¨": 4927,
      "åĩĿ": 4928,
      "åħ±äº«": 4929,
      "è¿Ļéģĵ": 4930,
      "åĩºçĶŁ": 4931,
      "ç»ĻäºĪ": 4932,
      "åı¯ä»¥å¸®åĬ©æĪĳä»¬": 4933,
      "è¿Ļåľº": 4934,
      "åªļ": 4935,
      "éĿŀæ³ķ": 4936,
      "åĿĩè¡¡": 4937,
      "Python": 4938,
      "èĿ¶": 4939,
      "ç§ĳæĬĢçļĦ": 4940,
      "éŃħåĬĽ": 4941,
      "è¯¥æĸĩç«ł": 4942,
      "åħ¬å¹³": 4943,
      "èķ´": 4944,
      "çªģåĩº": 4945,
      "çļĦæĳĦåħ¥": 4946,
      "åģ¶": 4947,
      "ä¸ŃåĽ½çļĦ": 4948,
      "éĻ¤æ³ķ": 4949,
      "ç¶ĵ": 4950,
      "éĹľ": 4951,
      "äººå·¥æĻºèĥ½åľ¨åĮ»çĸĹé¢ĨåŁŁ": 4952,
      "éĿŀæ´²": 4953,
      "è¡¨çİ°åĩº": 4954,
      "ä¸Ńå¤®": 4955,
      "æ»´": 4956,
      "Ġå¦Ĥæŀľ": 4957,
      "çļĦæķĪæŀľ": 4958,
      "ç¾½": 4959,
      "ç½ĳä¸Ĭ": 4960,
      "åĴĮæĥħæĦŁ": 4961,
      "åĩ¯": 4962,
      "å°ıçİĭ": 4963,
      "æļĤ": 4964,
      "å¤ĸå¥Ĺ": 4965,
      "æĭĤ": 4966,
      "æīĭè¡¨": 4967,
      "æĪĲä¸Ģä¸ª": 4968,
      "å¼ķäºº": 4969,
      "å°ıçļĦ": 4970,
      "ç»Īäºİ": 4971,
      "è¯·ç»ŃåĨĻä»ĸä»¬çļĦå¯¹è¯ĿåĨħå®¹": 4972,
      "åĪłéĻ¤": 4973,
      "ç¼ĺ": 4974,
      "åĩłå¹´": 4975,
      "æĺ¯äººç±»": 4976,
      "çļĦç¤¾äº¤": 4977,
      "çļĦä»·æł¼": 4978,
      "ä¿ĿçķĻ": 4979,
      "çĲĥåĳĺ": 4980,
      "èįĴ": 4981,
      "éļľç¢į": 4982,
      "æĸĩæľ¬è¿Ľè¡Į": 4983,
      "åģ¥åº·åĴĮ": 4984,
      "çļĦæ¸ħ": 4985,
      "çļĦæ¢¦æĥ³": 4986,
      "è¿ĶåĽŀ": 4987,
      "å¸Ĥä¸Ńå¿ĥ": 4988,
      "çģ«è½¦": 4989,
      "èĪŀè¹Ī": 4990,
      "æĪĳå·²ç»ı": 4991,
      "ç»ĻæĤ¨": 4992,
      "è¡ĵ": 4993,
      "ä¸įåĪ°": 4994,
      "å¤ıæĹ¥": 4995,
      "æ¶Īæģ¯": 4996,
      "çİ¯ä¿ĿæĦıè¯Ĩ": 4997,
      "éĢĹ": 4998,
      "å±±èĦī": 4999,
      "ç©·": 5000,
      "éĥ½èĥ½": 5001,
      "æĸĩç«łåĨħå®¹": 5002,
      "AIè¯Ńè¨Ģæ¨¡åŀĭ": 5003,
      "è¿Ļä¹Ī": 5004,
      "æĽ´å¥½åľ°äºĨè§£": 5005,
      "ä¹Łåľ¨": 5006,
      "åı¯ä»¥çĶ¨äºİ": 5007,
      "çĮ«åĴª": 5008,
      "éĩįéĩı": 5009,
      "å¿łè¯ļ": 5010,
      "è½¬åĮĸä¸º": 5011,
      "GPTæ¨¡åŀĭ": 5012,
      "en": 5013,
      "ç½©": 5014,
      "å¤ªç©ºæİ¢ç´¢": 5015,
      "æĪĳæİ¨èįĲ": 5016,
      "éģĹäº§": 5017,
      "åįķä½į": 5018,
      "ä¸¤ä¸ªäºº": 5019,
      "æ³¨æĦıåĬĽ": 5020,
      "åİ»å¹´": 5021,
      "ä¸įå¥½": 5022,
      "åĪĨæĶ¯": 5023,
      "èıĩ": 5024,
      "æľºéģĩ": 5025,
      "çĥŃéĹ¨": 5026,
      "æ¼ı": 5027,
      "æĿĲè´¨": 5028,
      "åĲ¸æĶ¶": 5029,
      "è°¨": 5030,
      "éĢıæĺİ": 5031,
      "æµĭéĩı": 5032,
      "è´¸æĺĵ": 5033,
      "æĬķåħ¥": 5034,
      "é¥®é£Łä¹łæĥ¯": 5035,
      "å®¶æĹı": 5036,
      "æĢĸ": 5037,
      "çļĦçĬ¶": 5038,
      "æľįè£ħ": 5039,
      "éĶģ": 5040,
      "å¾ĭå¸Ī": 5041,
      "èŀįåĲĪ": 5042,
      "æĺ¯éĢļè¿ĩ": 5043,
      "è¿Ļæĺ¯åĽłä¸º": 5044,
      "ä¸įåĨį": 5045,
      "åŃ©åŃĲä»¬": 5046,
      "è¯ĬæĸŃåĴĮæ²»çĸĹ": 5047,
      "æĸĩä»¶": 5048,
      "æıĲä¾ĽæĽ´": 5049,
      "å¿ĥçĲĨåŃ¦": 5050,
      "å½¢çļĦ": 5051,
      "åİŁå§ĭæĸĩæľ¬": 5052,
      "æīĵéĢł": 5053,
      "éĩĳå±ŀ": 5054,
      "åı¯ä»¥ä¸º": 5055,
      "äºļæ´²": 5056,
      "æľīéĻĲ": 5057,
      "æĶ¾æĿ¾èº«å¿ĥ": 5058,
      "ä½Ĩå®ĥ": 5059,
      "åĴĮå»ºè®®": 5060,
      "æµħ": 5061,
      "åıĮæĸ¹": 5062,
      "é¢Ī": 5063,
      "çĽ¸æ¯Ķ": 5064,
      "æľīäºĽäºº": 5065,
      "çľŁæĺ¯": 5066,
      "ä»¥æıĲé«ĺ": 5067,
      "è£Ĥ": 5068,
      "èĥ½å¤Łå¸®åĬ©": 5069,
      "æĦıè§ģ": 5070,
      "æ½®æµģ": 5071,
      "åĪ¶åĵģ": 5072,
      "åĲĪå¹¶": 5073,
      "è¼": 5074,
      "ç¨į": 5075,
      "å®īéĿĻ": 5076,
      "çº¢èī²çļĦ": 5077,
      "ç¨¿": 5078,
      "æ¯Ķåĸ»": 5079,
      "æĪĳåĢĳ": 5080,
      "èĥ½ä¸įèĥ½": 5081,
      "çļĦè¯Ŀé¢ĺ": 5082,
      "ä¸įä»ħä»ħ": 5083,
      "ä»ģ": 5084,
      "çļĦç¾İä¸½": 5085,
      "å¹¶è§£éĩĬ": 5086,
      "æħİ": 5087,
      "ä¸Ģéģĵ": 5088,
      "å¤©æ°Ķé¢ĦæĬ¥": 5089,
      "90": 5090,
      "çĶ»éĿ¢": 5091,
      "æľĢå¤ļ": 5092,
      "èĦĨ": 5093,
      "åıįä¹īè¯į": 5094,
      "éĵº": 5095,
      "çĪ±çļĦ": 5096,
      "å¨ľ": 5097,
      "åĹ¯": 5098,
      "éĿ¢è¯ķ": 5099,
      "çļĦå¥½å¤Ħ": 5100,
      "ç©¿è¶Ĭ": 5101,
      "å¤§åľ°": 5102,
      "æĸ¯åĿ¦": 5103,
      "ĠçĶŁæĪĲä¸Ģä¸ª": 5104,
      "åı¯ä»¥ä»İ": 5105,
      "æľ¬èº«": 5106,
      "åį¢": 5107,
      "æł¸å¿ĥ": 5108,
      "åĽŀåĪ°": 5109,
      "æİ¥è§¦": 5110,
      "èī³": 5111,
      "åĪ©æ¶¦": 5112,
      "çħİ": 5113,
      "åľĭ": 5114,
      "æķ°ä¸º": 5115,
      "éī": 5116,
      "å®ŀéĻħä¸Ĭ": 5117,
      "ä¸īè§Ĵ": 5118,
      "çĥŃéĩı": 5119,
      "æĿ¥çļĦ": 5120,
      "ä¹Ĳè¶£": 5121,
      "å°Ĭæķ¬çļĦ": 5122,
      "åĩĨç¡®çļĦ": 5123,
      "é¹ħ": 5124,
      "éĺĲè¿°": 5125,
      "æĺ¯ç¾İåĽ½": 5126,
      "åħ¨åĽ½": 5127,
      "å¾ĪæĬ±æŃī": 5128,
      "åĨłåĨĽ": 5129,
      "èīºæľ¯å®¶": 5130,
      "åľ°ä½į": 5131,
      "or": 5132,
      "çĶŁåĬ¨": 5133,
      "åįıä½ľ": 5134,
      "åİĨåı²ä¸Ĭ": 5135,
      "èµ·æºĲ": 5136,
      "å°¼äºļ": 5137,
      "ä¸Ģå®ļçļĦ": 5138,
      "åĨ²çªģ": 5139,
      "çİ»": 5140,
      "ãĢĤâĢľ": 5141,
      "æ¶¯": 5142,
      "åįĹæŀģ": 5143,
      "æķ°æį®çļĦ": 5144,
      "çĶ³è¯·": 5145,
      "ç²¾å½©": 5146,
      "èĩªçĦ¶çİ¯å¢ĥ": 5147,
      "éĿ©åĳ½": 5148,
      "éħįæĸĻ": 5149,
      "éªĳèĩªè¡Įè½¦": 5150,
      "çī¹æĢ§": 5151,
      "çŃīæĬĢæľ¯": 5152,
      "éļ¾å¿ĺ": 5153,
      "æĸĩæ¡ĪçĶŁæĪĲ": 5154,
      "æ¬º": 5155,
      "è¯Ńä¹ī": 5156,
      "å¸¦æľī": 5157,
      "å¿ĥä¸Ń": 5158,
      "æĸĩæľ¬éĶĻè¯¯": 5159,
      "æĿ¥å¸®åĬ©": 5160,
      "ä»¥ä¸ĭåĩłä¸ª": 5161,
      "æ³ī": 5162,
      "è¡¨æł¼": 5163,
      "æĪĳè¦ģ": 5164,
      "çļĦæķĻèĤ²": 5165,
      "ä½ĵç³»": 5166,
      "æīĵç®Ĺ": 5167,
      "å¼Ģå±ķ": 5168,
      "å°ıåŀĭ": 5169,
      "çļĦé¦ĸ": 5170,
      "åħ¬å¼ı": 5171,
      "ç®ĢçŁŃçļĦ": 5172,
      "ä½©": 5173,
      "æĹħç¨ĭ": 5174,
      "æ°ĳæĹı": 5175,
      "è¿Ļè¡¨æĺİ": 5176,
      "Ġè¯·æıĲåıĸ": 5177,
      "æĪĳå¯¹": 5178,
      "çļĦæĬķèµĦ": 5179,
      "æĹ¥å¸¸çĶŁæ´»ä¸Ń": 5180,
      "æĪĳå¸ĮæľĽ": 5181,
      "é¢Ħè®¢": 5182,
      "æľīä»»ä½ķ": 5183,
      "åįĩé«ĺ": 5184,
      "ä»Ĭå¤©å¤©æ°Ķ": 5185,
      "çĸ²åĬ³": 5186,
      "åłĨ": 5187,
      "è°ľ": 5188,
      "å¾Īä¸įéĶĻ": 5189,
      "åīįæıĲ": 5190,
      "èĩªåĬ¨é©¾é©¶æ±½è½¦": 5191,
      "åľŁåľ°": 5192,
      "åĴĮäººç±»": 5193,
      "ç´§æĢ¥": 5194,
      "çĳ°": 5195,
      "æŃ¥è¡Į": 5196,
      "åį³å°Ĩ": 5197,
      "å¼Ĥå¸¸": 5198,
      "éī´": 5199,
      "æĴĳ": 5200,
      "åħ¨çĲĥèĮĥåĽ´åĨħ": 5201,
      "Ġä»ĸ": 5202,
      "çĴĥ": 5203,
      "äººéĻħ": 5204,
      "æľªæĿ¥åıĳå±ķ": 5205,
      "çº¦ä¸º": 5206,
      "Ġæł¹æį®ç»Ļå®ļçļĦæĸĩæľ¬": 5207,
      "åĴĮæĹ¶éĹ´": 5208,
      "å¤¹": 5209,
      "2022": 5210,
      "åİŁåı¥": 5211,
      "ä¸Ģåı¥": 5212,
      "å¾Īæ£Ĵ": 5213,
      "èĬĤèĥ½": 5214,
      "ä¼ĺç§ĢçļĦ": 5215,
      "å¯ĮåĲ«": 5216,
      "ä¼ļæľī": 5217,
      "çĮľ": 5218,
      "åĽŀå¤į": 5219,
      "éĻ¶": 5220,
      "æľĢéĩįè¦ģçļĦ": 5221,
      "è¡Ģåİĭ": 5222,
      "åĮĸçŁ³": 5223,
      "åľ¨æĪĳ": 5224,
      "èº«è¾¹": 5225,
      "äº«çĶ¨": 5226,
      "ä¸įå¾Ĺ": 5227,
      "çĽ¸åºĶçļĦ": 5228,
      "ä¾£": 5229,
      "èµİ": 5230,
      "æĪĲåĬŁåľ°": 5231,
      "çģµæĦŁ": 5232,
      "æııè¿°ä¸Ģä¸ĭ": 5233,
      "åı¯èĥ½çļĦ": 5234,
      "åı¯ä»¥å¾ĹåĪ°": 5235,
      "æ¢°": 5236,
      "æħĪ": 5237,
      "è¡Ģç®¡": 5238,
      "ä»¥å¸®åĬ©": 5239,
      "æ¡Īä»¶": 5240,
      "åĽŀå½Ĵ": 5241,
      "ç©ĨæľĹ": 5242,
      "æĪĳå»ºè®®": 5243,
      "æľįåĬ¡åĳĺ": 5244,
      "ä»£æĽ¿": 5245,
      "æĺİåªļ": 5246,
      "è¿Ĳè¾ĵ": 5247,
      "èµ¶": 5248,
      "åŁºäºİä»¥ä¸Ĭ": 5249,
      "ä½ĵçİ°": 5250,
      "éģ¥": 5251,
      "ç©ĨæľĹçİĽ": 5252,
      "æĵħéķ¿": 5253,
      "è¿Ļä»½": 5254,
      "æ´»åĬĽ": 5255,
      "çº¢æ¥¼": 5256,
      "å¤§è±¡": 5257,
      "åĩºåıĳ": 5258,
      "åĩºçİ°äºĨ": 5259,
      "é¼»": 5260,
      "æĻ´æľĹ": 5261,
      "åŃĻ": 5262,
      "å¾Īå¿«": 5263,
      "æĪĳä¸įèĥ½": 5264,
      "çļĦä¹¦": 5265,
      "500": 5266,
      "çļĦæ°ĽåĽ´": 5267,
      "å¦Ĩ": 5268,
      "æĦĪ": 5269,
      "è¯·ä»İ": 5270,
      "æ³°åĿ¦": 5271,
      "ç¤ºä¾ĭ": 5272,
      "åı¯è¡Į": 5273,
      "ä¸ªæľĪ": 5274,
      "å¤±æľĽ": 5275,
      "éĢļä¿¡": 5276,
      "æİ¥ç§į": 5277,
      "éĢłæĪĲäºĨ": 5278,
      "æľīå®³": 5279,
      "å®¾è¯Ń": 5280,
      "å¤§çĨĬçĮ«": 5281,
      "çļĦç´": 5282,
      "åı¯ä»¥å¸®åĬ©ä½ł": 5283,
      "ä¸įèµ·": 5284,
      "çĽ¸åħ³ä¿¡æģ¯": 5285,
      "é¢ĨåŁŁçļĦåºĶçĶ¨": 5286,
      "å¯ĴåĨ·": 5287,
      "è¿Ļä¹Ł": 5288,
      "æıĲåīį": 5289,
      "éģµå¾ª": 5290,
      "å¥¥è¿Ĳä¼ļ": 5291,
      "æķ°çĻ¾": 5292,
      "çĶµè§Ĩåī§": 5293,
      "åľ°åĽ¾": 5294,
      "æ©ĺ": 5295,
      "æ¯ģ": 5296,
      "éĻĮ": 5297,
      "ç©ĨæľĹçİĽå³°": 5298,
      "åįĵ": 5299,
      "ç²¾åĬĽ": 5300,
      "æŁĲç§į": 5301,
      "æļĹç¤º": 5302,
      "çļĦçĹħ": 5303,
      "è«": 5304,
      "çļĦæ¤": 5305,
      "åıĹä¼¤": 5306,
      "åĴĮåģ¥åº·": 5307,
      "æĪĳä»¬å¿ħé¡»": 5308,
      "Ġæĸĩæľ¬": 5309,
      "åĲĪæ³ķ": 5310,
      "ä½Ĩåľ¨": 5311,
      "åŃ¦ä¹łç¼ĸç¨ĭ": 5312,
      "å°¼åħĭåı·": 5313,
      "å¿ĺè®°": 5314,
      "ä¹ŁéĿŀå¸¸": 5315,
      "çĽĪ": 5316,
      "æķ°åŃĹåĮĸ": 5317,
      "æī«": 5318,
      "çļĦçģµ": 5319,
      "éķ¿åŁİ": 5320,
      "è´¾": 5321,
      "ä¼Ĺå¤ļ": 5322,
      "è¯Ĺäºº": 5323,
      "æĻ®åıĬ": 5324,
      "åı¯èĥ½éľĢè¦ģ": 5325,
      "çļĦæĻ¯çĤ¹": 5326,
      "æ¸ħæ¥ļ": 5327,
      "åİ¨æĪ¿": 5328,
      "æĸĳ": 5329,
      "å°¿çĹħ": 5330,
      "æ¯ıåĳ¨": 5331,
      "åĪ¶æĪĲ": 5332,
      "çĥŃçĪ±": 5333,
      "è°·æŃĮ": 5334,
      "æĸĩæ¡£": 5335,
      "çļĦæĸĩåĮĸ": 5336,
      "åĬŀåħ¬å®¤": 5337,
      "åŃ¦èĢħ": 5338,
      "å¤·": 5339,
      "åĮºåĿĹéĵ¾æĬĢæľ¯": 5340,
      "çļĦæĢ»ç»ĵ": 5341,
      "äºĭé¡¹": 5342,
      "æľºåľº": 5343,
      "åİĨç¨ĭ": 5344,
      "80": 5345,
      "åľ¨éĤ£éĩĮ": 5346,
      "åħģ": 5347,
      "çŃīåĽłç´ł": 5348,
      "çļĦæĶ¶": 5349,
      "å¼ºå¤§çļĦ": 5350,
      "æ°§æ°Ķ": 5351,
      "è°¢è°¢ä½ł": 5352,
      "å¾®é£İ": 5353,
      "ä»¥ä¸ĭæĺ¯ä¸ĢäºĽ": 5354,
      "æĮĩåįĹ": 5355,
      "æ³°åĿ¦å°¼åħĭåı·": 5356,
      "é¥¼å¹²": 5357,
      "å¤§è§Ħæ¨¡": 5358,
      "å§Ĳ": 5359,
      "çİ»çĴĥ": 5360,
      "è¾Ľ": 5361,
      "çļĦçŁŃæĸĩ": 5362,
      "æĺ¯è°ģ": 5363,
      "éĩİçĶŁåĬ¨çī©": 5364,
      "çļĦåĲįåŃĹ": 5365,
      "çº¢æ¥¼æ¢¦": 5366,
      "çĲĨå¿µ": 5367,
      "çĶ¨åĵģ": 5368,
      "éĽ¾": 5369,
      "çļĦæŃ¥éª¤": 5370,
      "çļĦåĲĮæĹ¶": 5371,
      "éĩİé¤Ĳ": 5372,
      "çļĦæĢ§èĥ½": 5373,
      "æµ´": 5374,
      "è§£çŃĶ": 5375,
      "ä¸ŃçļĦåħ³éĶ®è¯į": 5376,
      "åĸ·": 5377,
      "æĳĦæ°ı": 5378,
      "éĹ®çŃĶ": 5379,
      "å¤ļåħĥ": 5380,
      "çıłç©ĨæľĹçİĽå³°": 5381,
      "çļĦæİ¢": 5382,
      "çĶ³åħĭ": 5383,
      "æĿ°åħĭ": 5384,
      "æ³½": 5385,
      "èĤĸçĶ³åħĭ": 5386,
      "Ġå¯¹äºİ": 5387,
      "èĢģé¼ł": 5388,
      "çļĦæķĳ": 5389,
      "ä¸Ģç¯ĩåħ³äºİ": 5390,
      "è¿ľç¨ĭ": 5391,
      "åį±å®³": 5392,
      "Ġ+": 5393,
      "æ¶ĪéĻ¤": 5394,
      "è¾£æ¤Ĵ": 5395,
      "çĶµåĻ¨": 5396,
      "å·¥ä½ľæķĪçİĩ": 5397,
      "æľīçĶ¨": 5398,
      "ç»ĦæĪĲéĥ¨åĪĨ": 5399,
      "åĩºéĹ¨": 5400,
      "èĥ½å¤Łåľ¨": 5401,
      "å¯º": 5402,
      "ä¼ı": 5403,
      "åĪ¶åº¦": 5404,
      "å¤Ħäºİ": 5405,
      "æĿ¥åĪ°": 5406,
      "çĶ·å£«": 5407,
      "æ³Ħ": 5408,
      "åĩºåİ»": 5409,
      "br": 5410,
      "åĲİæŀľ": 5411,
      "ĠæĢ»ç»ĵ": 5412,
      "ä¼ŀ": 5413,
      "çĸ¼": 5414,
      "åī²": 5415,
      "æķĻåŃ¦": 5416,
      "åľ¨æŃ¤": 5417,
      "ç³ĸå°¿çĹħ": 5418,
      "ä¹Ļ": 5419,
      "å®ļä½į": 5420,
      "èħ°": 5421,
      "çļĦçī¹å¾ģ": 5422,
      "åĴĮè¡Įä¸º": 5423,
      "æ¸©é¦¨": 5424,
      "æĮĸæİĺ": 5425,
      "ä¸ºä¸»": 5426,
      "Ġä»İæĸĩç«łä¸ŃæıĲåıĸ": 5427,
      "æľĢè¿ĳçļĦ": 5428,
      "æµĵéĥģ": 5429,
      "çļĦä½ľçĶ¨": 5430,
      "å¯¼èĩ´äºĨ": 5431,
      "ç¾İåĳ³çļĦ": 5432,
      "å®ĥåľ¨": 5433,
      "æľŁæľĽ": 5434,
      "æĶ¹æŃ£": 5435,
      "ä¸įå°ĳ": 5436,
      "éľį": 5437,
      "¡èĲĿåįľ": 5438,
      "èĥ¡èĲĿåįľ": 5439,
      "è°¢è°¢ä½łçļĦ": 5440,
      "å¤ķ": 5441,
      "ç³Ĭ": 5442,
      "æĺ¨æĻļ": 5443,
      "åįıè°ĥ": 5444,
      "å¾Īå¤§çļĦ": 5445,
      "ç²¾ç¡®": 5446,
      "çĲĥéĺŁ": 5447,
      "èĢĮä¸į": 5448,
      "ä¸Ģèµ·åİ»": 5449,
      "è¿ĩäºİ": 5450,
      "å°ıæĺİçļĦ": 5451,
      "æĦŁæ¿Ģ": 5452,
      "ç»¼ä¸Ĭ": 5453,
      "äº¦": 5454,
      "åĮ»çĸĹè¡Įä¸ļ": 5455,
      "æ¢¨": 5456,
      "éĿ¢ä¸Ĭ": 5457,
      "åľ¨è¿Ļä¸ªåı¥åŃĲä¸Ń": 5458,
      "æ°ĽåĽ´": 5459,
      "å·²çŁ¥": 5460,
      "åı¤è¯Ĺç»ŃåĨĻ": 5461,
      "æ³¥": 5462,
      "çłĶç©¶äººåĳĺ": 5463,
      "é¥®çĶ¨": 5464,
      "çľŁæŃ£çļĦ": 5465,
      "å¤º": 5466,
      "æĹłè®ºæĺ¯": 5467,
      "åįıåĬ©": 5468,
      "æĪĳæĺ¨å¤©": 5469,
      "çĥĤ": 5470,
      "æ¥Ń": 5471,
      "åĸľåī§": 5472,
      "ï¼ģâĢĿ": 5473,
      "æĭĸ": 5474,
      "çĽĨ": 5475,
      "åĨ¬å¤©": 5476,
      "æĺĨ": 5477,
      "æ¡Īä¾ĭ": 5478,
      "æĹ±": 5479,
      "å¹³åĿĩåĪĨç»Ļ": 5480,
      "çİ°åľº": 5481,
      "åĲģ": 5482,
      "ä¸ĬäºĨ": 5483,
      "ç§ĭåŃ£": 5484,
      "çĭ®åŃĲ": 5485,
      "Ġåı¯ä»¥": 5486,
      "æĻ¶": 5487,
      "è®ĵ": 5488,
      "è¿ĻäºĽä¿¡æģ¯": 5489,
      "æ¦Ħ": 5490,
      "æĦŁçŁ¥": 5491,
      "æ¿Ģåıĳ": 5492,
      "å§ĭç»Ī": 5493,
      "åĩıç¼ĵ": 5494,
      "è¶ħçº§": 5495,
      "åıł": 5496,
      "ç·": 5497,
      "èĩ³åħ³éĩįè¦ģ": 5498,
      "çĶŁæ´»çļĦ": 5499,
      "åĬ£": 5500,
      "è¿ĲåĬ¨åĳĺ": 5501,
      "åģļæ³ķ": 5502,
      "Ħæ¦Ħ": 5503,
      "æĪĳæĥ³çŁ¥éģĵ": 5504,
      "çļĦåĬĽéĩı": 5505,
      "æĪĳè¿ĺ": 5506,
      "éĢļè¿ĩå¯¹": 5507,
      "éĤ¦": 5508,
      "çİ¯å¢ĥéĹ®é¢ĺ": 5509,
      "ä¼ĺåħĪ": 5510,
      "è¯·æ±Ĥ": 5511,
      "æĥ§": 5512,
      "çļĦå£°éŁ³": 5513,
      "é¥±": 5514,
      "éĢĹåı·": 5515,
      "çĲĨæĥ³": 5516,
      "åĪĽéĢłåĬĽ": 5517,
      "é¹¿": 5518,
      "å¼¦": 5519,
      "çļĦèĬ±": 5520,
      "ä¸įç¡®å®ļ": 5521,
      "ä½ľä¸ļ": 5522,
      "æįŁå¤±": 5523,
      "ä¿ĿæĬ¤æĪĳä»¬çļĦ": 5524,
      "æ§": 5525,
      "å·¥ä½ľåĴĮ": 5526,
      "ä¸ĵæ³¨äºİ": 5527,
      "âĦ": 5528,
      "Ġ4": 5529,
      "æĸĩç«łä¸ŃæıĲåĪ°": 5530,
      "éĢīæĭ©ä¸Ģä¸ª": 5531,
      "ä¸įå¤Ł": 5532,
      "æŁľ": 5533,
      "åıĻ": 5534,
      "ä¹°äºĨä¸Ģ": 5535,
      "åįİçĽĽ": 5536,
      "å¯ĵ": 5537,
      "æĥħå¢ĥ": 5538,
      "çī©èģĶç½ĳ": 5539,
      "å¥¶éħª": 5540,
      "æĿ¨": 5541,
      "åļ": 5542,
      "æ»ļ": 5543,
      "å®¶åĽŃ": 5544,
      "è®¾è®¡ä¸Ģä¸ª": 5545,
      "åĩºä¸Ģä¸ª": 5546,
      "æĪĳåİ»": 5547,
      "æī©å±ķ": 5548,
      "åı¤åħ¸": 5549,
      "åĬłçĥŃ": 5550,
      "åĩºèī²çļĦ": 5551,
      "ä¹ĭæĹħ": 5552,
      "ä¸įèī¯": 5553,
      "æĶĢ": 5554,
      "åıĹåĪ°äºĨ": 5555,
      "æĻļé¤Ĳ": 5556,
      "âĢ¦âĢ¦": 5557,
      "èģĮåľº": 5558,
      "æĪĳä»Ĭå¤©": 5559,
      "èĤīç±»": 5560,
      "ç§ĳåŃ¦å®¶ä»¬": 5561,
      "åįİçĽĽé¡¿": 5562,
      "éªĹ": 5563,
      "æķĻå¸Ī": 5564,
      "ç®ĢåĮĸ": 5565,
      "çĿ¡è§ī": 5566,
      "å¦»": 5567,
      "çļĦçĮ«": 5568,
      "éĢĨ": 5569,
      "éĶĻåĪ«": 5570,
      "å¤įæĿĤçļĦ": 5571,
      "åĩºçļĦ": 5572,
      "çıįæĥľ": 5573,
      "è¿Ļä¸ªäºº": 5574,
      "éĶĻåĪ«åŃĹ": 5575,
      "æĸ°æĬĢæľ¯": 5576,
      "è´¢å¯Į": 5577,
      "æĺ¯ä¸Ģå®¶": 5578,
      "æĪĳæŃ£åľ¨": 5579,
      "éĻĮçĶŁ": 5580,
      "çĩ¥": 5581,
      "âĦĥ": 5582,
      "å°ĸ": 5583,
      "ç»Ļäºº": 5584,
      "çĭ¼": 5585,
      "ä¸ĭçļĦ": 5586,
      "æĸľ": 5587,
      "æł¹æį®ç»Ļå®ļçļĦæĸĩæľ¬": 5588,
      "çĲĨçĶ±": 5589,
      "çĽ¸å½ĵ": 5590,
      "é¡Į": 5591,
      "ç«Ł": 5592,
      "æ¼«æŃ¥": 5593,
      "åĿĲåľ¨": 5594,
      "ä»ĸä»¬ä¹ĭéĹ´": 5595,
      "åĭĥ": 5596,
      "éŃĤ": 5597,
      "æĶ¹åıĺäºĨ": 5598,
      "è®°å¾Ĺ": 5599,
      "ç¾İæĻ¯": 5600,
      "å±ıå¹ķ": 5601,
      "æĸ°éĹ»æłĩé¢ĺ": 5602,
      "å¼ºåº¦": 5603,
      "èŃ¦æĸ¹": 5604,
      "æķĮ": 5605,
      "è¿Ī": 5606,
      "æĺİäº®": 5607,
      "å¾Īå¤ļäºº": 5608,
      "çĶ¨éĢĶ": 5609,
      "ä¸¤äºº": 5610,
      "æģĲæĢĸ": 5611,
      "éĹ»åĲį": 5612,
      "æııåĨĻ": 5613,
      "ä»¥åħ¶": 5614,
      "ä¸ĸçķĮåĲĦåľ°": 5615,
      "ä¸įåŃĺåľ¨": 5616,
      "æĹħæ¸¸çĽ®çļĦåľ°": 5617,
      "it": 5618,
      "ĠÃ·": 5619,
      "çİ°ä»£ç¤¾ä¼ļ": 5620,
      "å¦Ĥä½ķåĪ¶ä½ľ": 5621,
      "åıĤæķ°": 5622,
      "åĲ¬éŁ³ä¹Ĳ": 5623,
      "å¾Īé«ĺåħ´": 5624,
      "æĺİçĻ½äºĨ": 5625,
      "æ³ª": 5626,
      "ĸæģ¯": 5627,
      "ä¿Ħ": 5628,
      "åģıè§ģ": 5629,
      "æľīæ°§": 5630,
      "è³ĩ": 5631,
      "åľ°åĲį": 5632,
      "çļĦçĭ¬": 5633,
      "çļĦç¼ĸç¨ĭ": 5634,
      "å£³": 5635,
      "èĨľ": 5636,
      "åĲĦä¸ªé¢ĨåŁŁ": 5637,
      "éĢļå¸¸ä¼ļ": 5638,
      "æ¡Ĩ": 5639,
      "èħ¾": 5640,
      "ä¸Ńæī¾åĪ°": 5641,
      "å±ħä½ı": 5642,
      "å¼ķå¯¼": 5643,
      "æ²Ļåıĳ": 5644,
      "çļĦæ¡": 5645,
      "Ġä»¥ä¸ĭæĺ¯ä¸Ģéģĵå°ıåŃ¦æķ°åŃ¦é¢ĺ": 5646,
      "äººæĢ§": 5647,
      "åĴĮçĲĨè§£": 5648,
      "æıĲé«ĺäºĨ": 5649,
      "èĸ¯": 5650,
      "éĶĻè¿ĩ": 5651,
      "å·²æĪĲä¸º": 5652,
      "æ£ĭ": 5653,
      "çŃĽ": 5654,
      "å»ºè®®åĲĹ": 5655,
      "åİŁåŃĲ": 5656,
      "åł´": 5657,
      "çĭĹçļĦ": 5658,
      "ä¸Ģä¸ªéĹ®é¢ĺ": 5659,
      "é£İæļ´": 5660,
      "æĿī": 5661,
      "è¡Įé©¶": 5662,
      "èī°": 5663,
      "çİ«": 5664,
      "æł¹æį®èĩªå·±çļĦ": 5665,
      "åĳ¼åĲģ": 5666,
      "çļĦæ²ŁéĢļ": 5667,
      "æ¶¨": 5668,
      "çļĦåĳ³éģĵ": 5669,
      "å¹²åĩĢ": 5670,
      "å°ĩ": 5671,
      "è°ĭ": 5672,
      "äºļé©¬": 5673,
      "çĤİçĥŃ": 5674,
      "ç¢ĳ": 5675,
      "å¹¿æ³ĽçļĦ": 5676,
      "è¡¨è¿°": 5677,
      "åĴĮä¸ªäºº": 5678,
      "åºĻ": 5679,
      "ç²®": 5680,
      "èĬĿå£«": 5681,
      "å¸¦çĿĢ": 5682,
      "åħ³éĹŃ": 5683,
      "çŃīå¤ļä¸ª": 5684,
      "æĽ´æĶ¹": 5685,
      "æİ¨è¿Ľ": 5686,
      "ä»ĸåĢĳ": 5687,
      "ä¸ĭéĿ¢çļĦåı¥åŃĲ": 5688,
      "æŁ¿": 5689,
      "ĠçĶŁæĪĲ": 5690,
      "æĭĽèģĺ": 5691,
      "æ¯ķä¸ļ": 5692,
      "æĹ¥çĽĬ": 5693,
      "æ¿ĢçĥĪ": 5694,
      "æķ°æį®åĪĨæŀĲ": 5695,
      "æ¸©å®¤æ°Ķä½ĵæİĴæĶ¾": 5696,
      "æĪ¿å±ĭ": 5697,
      "è¿ĻäºĽéĥ½æĺ¯": 5698,
      "æĹ©æľŁ": 5699,
      "çļĦæ²Ļ": 5700,
      "ä½Ĩä¸į": 5701,
      "æĮ¯": 5702,
      "æĸĩè¨Ģ": 5703,
      "æľīæĦıä¹ī": 5704,
      "çļĦæĻ®": 5705,
      "ä¼Ĳ": 5706,
      "èĥľåľ°": 5707,
      "æķħäºĭæĥħèĬĤ": 5708,
      "____": 5709,
      "å±Ĥæ¬¡": 5710,
      "çī¹å®ļçļĦ": 5711,
      "ä¸Ģèĩ´": 5712,
      "èĺĳ": 5713,
      "åħģè®¸": 5714,
      "éĩıåŃĲåĬĽåŃ¦": 5715,
      "åĪĳ": 5716,
      "éĻªä¼´": 5717,
      "å®¢æľį": 5718,
      "è¿Ļæ®µè¯Ŀ": 5719,
      "æĪĳä»¬åľ¨": 5720,
      "æ¿ĢåĬ±": 5721,
      "çīĽä»Ķ": 5722,
      "çļĦçĬ¶æĢģ": 5723,
      "æĺ¯ä¸ĸçķĮä¸ĬæľĢ": 5724,
      "æĺĤ": 5725,
      "å¤§å¤§": 5726,
      "å©´": 5727,
      "æīİ": 5728,
      "æľĪäº®": 5729,
      "èĭ¹æŀľåħ¬åı¸": 5730,
      "ç¿ħ": 5731,
      "äºļé©¬éĢĬ": 5732,
      "at": 5733,
      "ç¥ĸ": 5734,
      "æĹ©æĻ¨": 5735,
      "æ´Ĵ": 5736,
      "æĥĳ": 5737,
      "ï¼ħ": 5738,
      "äººå·¥æĻºèĥ½æĬĢæľ¯åľ¨": 5739,
      "é«ĺè´¨éĩı": 5740,
      "å¾Į": 5741,
      "çļĦæķ°åŃĹ": 5742,
      "æĺ¾å¾Ĺ": 5743,
      "å®īåħ¨åĴĮ": 5744,
      "åľ°çĲĨ": 5745,
      "æºª": 5746,
      "æľīæĹ¶åĢĻ": 5747,
      "èĺĳèıĩ": 5748,
      "å»ºçŃĳçī©": 5749,
      "åĲĳéĩı": 5750,
      "èĥĥ": 5751,
      "åıĳéĢģ": 5752,
      "çļĦä¾ĭåŃĲ": 5753,
      "åŀĤ": 5754,
      "ä¸ĢäºĽäºº": 5755,
      "æĪĺæĸĹ": 5756,
      "ç»Ļå®ļæĸĩæľ¬": 5757,
      "æĸĩè¨Ģæĸĩ": 5758,
      "ä¿Ŀæļĸ": 5759,
      "ä½Ĩä¹Ł": 5760,
      "Ġä½łèĥ½": 5761,
      "æĨ": 5762,
      "æĢ»ä½ĵ": 5763,
      "é£İåħī": 5764,
      "ç¿Ķ": 5765,
      "è¯Ńå¢ĥ": 5766,
      "ä¿®å¤į": 5767,
      "æ¾³": 5768,
      "åģ¥èº«æĪ¿": 5769,
      "éĿ¢ä¸´çĿĢ": 5770,
      "è¯¥åı¥åŃĲ": 5771,
      "çļĦå½¢å¼ı": 5772,
      "æ©Ħæ¦Ħ": 5773,
      "çŃīäºİ": 5774,
      "å¹¶è¾ĵåĩº": 5775,
      "åľ¨åĵªéĩĮ": 5776,
      "æķ°æį®åĴĮ": 5777,
      "çļĦæķĳèµİ": 5778,
      "æĬĢæľ¯çļĦåıĳå±ķ": 5779,
      "å¸ĤåľºèĲ¥éĶĢ": 5780,
      "æĽ¿æį¢ä¸º": 5781,
      "å²ģçļĦ": 5782,
      "æŀģç«¯å¤©æ°Ķ": 5783,
      "é½¿": 5784,
      "èĵĿèī²çļĦ": 5785,
      "çİ«çĳ°": 5786,
      "æĪĳä»¬ä¼ļ": 5787,
      "çļĦæŃĮæĽ²": 5788,
      "å¤ĩåıĹ": 5789,
      "åĳĪçİ°åĩº": 5790,
      "èĿ´": 5791,
      "åĽ¾æ¡Ī": 5792,
      "èĿ´èĿ¶": 5793,
      "æĶ¿æ²»": 5794,
      "è®©è®¡ç®Ĺæľº": 5795,
      "æĪĳä»¬åı¯ä»¥çĶ¨": 5796,
      "åĩºçīĪ": 5797,
      "å²Ĺ": 5798,
      "åĴĮçİ¯å¢ĥ": 5799,
      "æĪĺçķ¥": 5800,
      "æııè¿°ä¸Ģä¸ª": 5801,
      "éĢļçŁ¥": 5802,
      "äººå·¥æĻºèĥ½åĴĮ": 5803,
      "ç¢³æİĴæĶ¾": 5804,
      "äºīè®®": 5805,
      "éĤ»": 5806,
      "åĪĨåĪ«æĺ¯": 5807,
      "ä¹Łèĥ½": 5808,
      "ç«ĭåį³": 5809,
      "ç»ıèĲ¥": 5810,
      "è®¾å®ļ": 5811,
      "çĪ¶æ¯į": 5812,
      "åįıè®®": 5813,
      "éĺ¿çĶĺ": 5814,
      "çİ¯ä¿ĿçļĦ": 5815,
      "ĠæıĲä¾Ľ": 5816,
      "å¿«éĢŁåıĳå±ķ": 5817,
      "ä¸ĭéĿ¢çļĦæĸĩæľ¬": 5818,
      "çĺ¦": 5819,
      "ç»¼ä¸ĬæīĢè¿°": 5820,
      "ç»³": 5821,
      "çĭ±": 5822,
      "åıĳè¡¨": 5823,
      "è¤": 5824,
      "åĲįåı«": 5825,
      "åºŁå¼ĥ": 5826,
      "æıŃç¤º": 5827,
      "ç§Ĵ": 5828,
      "èĥĸ": 5829,
      "è¿Ļä¸ªæķħäºĭ": 5830,
      "éĶħä¸Ń": 5831,
      "å»ºéĢł": 5832,
      "ä¸Ģæ®µå¯¹è¯Ŀ": 5833,
      "çļĦåĲįç§°": 5834,
      "ä¸ªä½ĵ": 5835,
      "ä½łæĺ¯": 5836,
      "å¥½åĥı": 5837,
      "æ¢ģ": 5838,
      "çĤī": 5839,
      "æ°¢": 5840,
      "åıĳçİ°äºĨ": 5841,
      "å¼ºåĮĸ": 5842,
      "éĢĶå¾Ħ": 5843,
      "ä½Ĩæĺ¯æĪĳ": 5844,
      "çļĦæĬ¥": 5845,
      "æĪĸç¼º": 5846,
      "å¤ªå¤ļ": 5847,
      "ç´łé£Ł": 5848,
      "åĲİçļĦåı¥åŃĲ": 5849,
      "å®ŀä½ĵè¯ĨåĪ«": 5850,
      "ç§ĳå¹»å°ıè¯´": 5851,
      "æĪª": 5852,
      "èĤĸçĶ³åħĭçļĦæķĳèµİ": 5853,
      "ä¸Ģåħ±": 5854,
      "çļĦåĴĸåķ¡": 5855,
      "æĪĲçĨŁ": 5856,
      "çŁ¶": 5857,
      "çļĦæ°ĶåĢĻ": 5858,
      "æĽ´æŃ£": 5859,
      "æĭĴ": 5860,
      "æĴ°åĨĻ": 5861,
      "å½»": 5862,
      "çĶµåŃĲåķĨåĬ¡": 5863,
      "å¹¼": 5864,
      "å¾¡": 5865,
      "æ²ĥ": 5866,
      "æ©Ł": 5867,
      "çļĦæķ°åŃ¦": 5868,
      "èĥ¶": 5869,
      "åĴĮç®¡çĲĨ": 5870,
      "èħĬ": 5871,
      "åĬłå·¥": 5872,
      "æĵ¦": 5873,
      "æĦıå¤ĸ": 5874,
      "åľ°åĿĢ": 5875,
      "å¤±ä¸ļ": 5876,
      "è±ĨèħĲ": 5877,
      "éŀĭåŃĲ": 5878,
      "çĶ¢": 5879,
      "å½¢æĢģ": 5880,
      "ä¼ĺç¾İ": 5881,
      "éĽķ": 5882,
      "çļĦåħ³éĶ®ä¿¡æģ¯": 5883,
      "æķ°æį®ä¸Ń": 5884,
      "å¼ķèµ·äºĨ": 5885,
      "æĳĦæ°ıåº¦": 5886,
      "äºĳè®¡ç®Ĺ": 5887,
      "ä¸Ģä¸ĭè¿Ļç¯ĩæĸĩç«ł": 5888,
      "å®¶éĩĮ": 5889,
      "äººåĴĮ": 5890,
      "æĸ°åĨł": 5891,
      "è¾ĥä¸º": 5892,
      "éĿŀå¸¸éĢĤåĲĪ": 5893,
      "æĸĩèīº": 5894,
      "æĪĳåĴĮ": 5895,
      "è®©äººæĦŁåĪ°": 5896,
      "äººæķ°": 5897,
      "åŀ«": 5898,
      "æĪĸæĺ¯": 5899,
      "æĦģ": 5900,
      "éĢıæ°Ķ": 5901,
      "çĶµå½±åĲįç§°": 5902,
      "çĽĸèĮ¨": 5903,
      "åıĺéĩı": 5904,
      "çļĦä¸įåĲĮ": 5905,
      "å¿ĥèĦıçĹħ": 5906,
      "ob": 5907,
      "åıĺå¾Ĺè¶ĬæĿ¥è¶Ĭ": 5908,
      "çļĦæİĴæĶ¾": 5909,
      "æģ°": 5910,
      "çĥ¤ç®±": 5911,
      "éĢĤçĶ¨äºİ": 5912,
      "èħ¹": 5913,
      "Ġå°Ĩä»¥ä¸ĭ": 5914,
      "å§ľ": 5915,
      "èµ°äºĨ": 5916,
      "çļĦæĶ¿": 5917,
      "è¯¦ç»ĨçļĦ": 5918,
      "é«ĺçļĦå±±å³°": 5919,
      "å°ıæĺİåĴĮå°ıçº¢": 5920,
      "èĻ¾": 5921,
      "æİ¥è¿ĳ": 5922,
      "æĸ°æ¬¾": 5923,
      "åŁºäºİä»¥ä¸ĭ": 5924,
      "199": 5925,
      "ä¼ģä¸ļå®¶": 5926,
      "æ²¡æľīä»»ä½ķ": 5927,
      "åŁºäºİä»¥ä¸Ĭè¿Ļæ®µæĸĩæľ¬": 5928,
      "æ¯ıä¸ªäººéĥ½åºĶè¯¥": 5929,
      "--": 5930,
      "ä¹ĭä¸Ń": 5931,
      "éĶ»çĤ¼èº«ä½ĵ": 5932,
      "çļĦè¡¨çİ°": 5933,
      "åĿļå®ļ": 5934,
      "è¿Ļæĺ¯ä¸Ģéĥ¨": 5935,
      "æķ°æį®è¿Ľè¡Į": 5936,
      "æº¯": 5937,
      "åĮ»åŃ¦å½±åĥı": 5938,
      "ä¸ĭåĳ¨": 5939,
      "åĩıå°ĳä½¿çĶ¨": 5940,
      "çļĦåħ³éĶ®è¯į": 5941,
      "åĩıèĤ¥": 5942,
      "äººä»¬å¯¹": 5943,
      "åĩłç§į": 5944,
      "éĺ³åħīæĺİåªļ": 5945,
      "çħ§é¡¾": 5946,
      "çļĦæłĳ": 5947,
      "çĶľçĤ¹": 5948,
      "åı¯ä»¥æıĲä¾Ľ": 5949,
      "çļĦä¸ľè¥¿": 5950,
      "çļĦæ¤į": 5951,
      "å¿ĹæĦ¿": 5952,
      "åĽºå®ļ": 5953,
      "çļĦä¸»è¦ģè§ĤçĤ¹æĺ¯": 5954,
      "æĪĲä¸ºä¸Ģä¸ª": 5955,
      "åįļå®¢": 5956,
      "éŁ§": 5957,
      "ç®ĢåİĨ": 5958,
      "æ·±è¿ľçļĦå½±åĵį": 5959,
      "ä¸įåı¯æĪĸç¼º": 5960,
      "è¢«è§Ĩä¸º": 5961,
      "çļĦæ³¨": 5962,
      "åħ´è¶£çĪ±å¥½": 5963,
      "è¿ĳæľŁ": 5964,
      "åĨħçļĦ": 5965,
      "åĴĮç»ıæµİ": 5966,
      "åĳ¨æľŁ": 5967,
      "æĮĩä»¤": 5968,
      "Ġå°Ĩä»¥ä¸ĭåı¥åŃĲ": 5969,
      "ç¾İå¦Ļ": 5970,
      "è¸ı": 5971,
      "çĶŁæĢģçİ¯å¢ĥ": 5972,
      "ä¹Łå°Ĩ": 5973,
      "åĴĮåŃ¦ä¹ł": 5974,
      "ĠæĬĬ": 5975,
      "åľ¨åħ¬åĽŃéĩĮ": 5976,
      "çļĦäººçī©": 5977,
      "çļĦåľºæĻ¯": 5978,
      "å¡ĳæĸĻè¢ĭ": 5979,
      "èĶ¬èıľåĴĮ": 5980,
      "æĢ§æł¼": 5981,
      "ðŁ": 5982,
      "è¡¥åħħ": 5983,
      "çªģçł´": 5984,
      "çļĦæľĢä½³": 5985,
      "æĿ¥åĩıå°ĳ": 5986,
      "èªīä¸º": 5987,
      "åħ½": 5988,
      "è¯Ī": 5989,
      "Ġä»İæĸĩç«łä¸ŃæıĲåıĸåĩº": 5990,
      "Ġè¯·éĹ®": 5991,
      "åıĸæ¶Ī": 5992,
      "æľ¬è´¨": 5993,
      "èĥ¡æ¤Ĵ": 5994,
      "èĢĥèĻĳåĪ°": 5995,
      "åİĺç±³": 5996,
      "å¾®ç¬ĳ": 5997,
      "ç®¡çĲĨåĴĮ": 5998,
      "åĮħå®¹": 5999,
      "é¸ŁåĦ¿": 6000,
      "ç³Ł": 6001,
      "ä»¥åĲİ": 6002,
      "è§Ĵèī²ä»ĭç»į": 6003,
      "çļĦç¤¼": 6004,
      "ç¬¬ä¸Ģæ¬¡": 6005,
      "åĴĮæĬĢèĥ½": 6006,
      "èĨĢ": 6007,
      "çĶµå½±è¯Ħè®º": 6008,
      "ç§ĳæĬĢåħ¬åı¸": 6009,
      "åľŁè±Ĩ": 6010,
      "ä»¥åīį": 6011,
      "å¤ļæ¬¡": 6012,
      "çļĦæ³ķå¾ĭ": 6013,
      "åĪĽéĢłä¸Ģä¸ª": 6014,
      "å¥³åŃĲ": 6015,
      "åĬłå¯Ĩ": 6016,
      "çļĦæ¸©åº¦": 6017,
      "åĩłä¹İ": 6018,
      "æĤłä¹ħ": 6019,
      "çī©æµģ": 6020,
      "æĿīçŁ¶": 6021,
      "éĻĪè¿°åı¥": 6022,
      "æľ¨æĺŁ": 6023,
      "çį": 6024,
      "åīĳ": 6025,
      "èĥĨ": 6026,
      "å¨ģå¤·": 6027,
      "å°Ĩä»¥ä¸ĭ": 6028,
      "èĪį": 6029,
      "è¾ĥé«ĺ": 6030,
      "å¤ıå¨ģå¤·": 6031,
      "åı¯ä»¥å¸®åĬ©åĮ»çĶŁ": 6032,
      "ä¼į": 6033,
      "æ¡ĮåŃĲ": 6034,
      "çļĦæµ·æ»©": 6035,
      "å®½æĿ¾": 6036,
      "çļĦåŃ£èĬĤ": 6037,
      "éľĢè¦ģè¿Ľè¡Į": 6038,
      "ä»Ķç»Ĩ": 6039,
      "ä¼ĺéĽħ": 6040,
      "çļĦç¨ĭåºı": 6041,
      "ĠéĩįåĨĻä»¥ä¸ĭåı¥åŃĲ": 6042,
      "ç»ŃåĨĻåı¤è¯Ĺ": 6043,
      "é©¬æĭī": 6044,
      "å»ºç«ĭä¸Ģä¸ª": 6045,
      "çļĦæīĭæľº": 6046,
      "çļĦä»£è¡¨": 6047,
      "å¸ĿåĽ½": 6048,
      "æľ¯è¯Ń": 6049,
      "å¹¶ä½¿çĶ¨": 6050,
      "æĪ¿åŃĲ": 6051,
      "éĴ¢çĲ´": 6052,
      "çİĭæĺŁ": 6053,
      "ä¸Ģå°ģ": 6054,
      "ç§ĺå¯Ĩ": 6055,
      "å¯¹å¾ħ": 6056,
      "çļĦç¬ĳ": 6057,
      "åĿļæŀľ": 6058,
      "åĽŀçŃĶä»¥ä¸ĭéĹ®é¢ĺ": 6059,
      "éĥ½å¾Ī": 6060,
      "åķı": 6061,
      "å¤ļå½©": 6062,
      "å¹²æī°": 6063,
      "ä½łåı¯ä»¥å°Ŀè¯ķ": 6064,
      "å¤ĸè§Ĥ": 6065,
      "å·¾": 6066,
      "åĴĮæµ·": 6067,
      "åĬłåī§": 6068,
      "çļĦå¸®åĬ©": 6069,
      "åĴĮèĶ¬èıľ": 6070,
      "ä¸ºæĪĳä»¬": 6071,
      "å®³æĢķ": 6072,
      "å¹½é»ĺ": 6073,
      "ä¸Ģæ¬¡æĢ§": 6074,
      "çīĩæ®µ": 6075,
      "åĻª": 6076,
      "åıĸåĩº": 6077,
      "æ¸ł": 6078,
      "æĭĵå±ķ": 6079,
      "å«Įçĸĳ": 6080,
      "åĮħåĲ«äºĨ": 6081,
      "æ¯ıä¸ªäººçļĦ": 6082,
      "éĩįè¦ģçļĦä½ľçĶ¨": 6083,
      "ä¸įéĶĻçļĦéĢīæĭ©": 6084,
      "åĩıåİ»": 6085,
      "ç¿ł": 6086,
      "åī©ä½Ļ": 6087,
      "å¤ļå¹´": 6088,
      "åĳĢ": 6089,
      "åİŁæĿ¥": 6090,
      "è¿ĻäºĽæĬĢæľ¯": 6091,
      "èĪªç©º": 6092,
      "å½ĵæĪĳ": 6093,
      "åĸĦèī¯": 6094,
      "çĸı": 6095,
      "æ¡¶": 6096,
      "ä¸įçĶ¨": 6097,
      "ä¸»åĬ¨": 6098,
      "æ¯Ķäºļ": 6099,
      "æ¯Ķå¦Ĥè¯´": 6100,
      "æĢ§è´¨": 6101,
      "çĶ¨æĪ·çļĦ": 6102,
      "Ġ(": 6103,
      "åı¯è¯»": 6104,
      "ä¿ĿæĮģèº«ä½ĵåģ¥åº·": 6105,
      "å¦ĤæŀľæĪĳä»¬": 6106,
      "åĺ´": 6107,
      "ä¸ºä¸Ģä¸ª": 6108,
      "å¹¿éĺĶ": 6109,
      "å¯Ĩåº¦": 6110,
      "èĤ©": 6111,
      "æĮĩæłĩ": 6112,
      "åľ°éĵģ": 6113,
      "æĺŁæĺŁ": 6114,
      "ĠAI": 6115,
      "è¿ģ": 6116,
      "å½ĵæĪĳä»¬": 6117,
      "ç»Ĩèħ»": 6118,
      "åĮĹäº¬å¸Ĥ": 6119,
      "åħ¨éĥ¨": 6120,
      "è¿Ŀåıį": 6121,
      "æľ¬å°ıè¯´": 6122,
      "æ¯ıä¸Ģä¸ª": 6123,
      "çİ°çĬ¶": 6124,
      "å±ķçİ°äºĨ": 6125,
      "å¯Ħ": 6126,
      "è®©å®ĥ": 6127,
      "æĬĳéĥģ": 6128,
      "çļĦç©ºæ°Ķ": 6129,
      "ç»µ": 6130,
      "äººå·¥æĻºèĥ½åı¯ä»¥": 6131,
      "åĨ°å·Ŀ": 6132,
      "éļĨ": 6133,
      "æĪĳæĥ³è¦ģ": 6134,
      "oo": 6135,
      "éģĹä¼ł": 6136,
      "æĮº": 6137,
      "å¤§æĪĺ": 6138,
      "åĩĨå¤ĩå¥½": 6139,
      "é¢ĳçİĩ": 6140,
      "ä¸Ĭæĺł": 6141,
      "ç¥ŀå¥ĩ": 6142,
      "æľīæ°§è¿ĲåĬ¨": 6143,
      "çļĦç¡": 6144,
      "åĽŀçŃĶä¸ĭéĿ¢": 6145,
      "æĢİä¹Īåģļ": 6146,
      "ä»İä¸Ń": 6147,
      "çļĦçł´": 6148,
      "ä»Ĭå¤©çļĦå¤©æ°Ķ": 6149,
      "è¿Ļä¸¤": 6150,
      "æĭħä»»": 6151,
      "æ¸´": 6152,
      "çĸ¾çĹħçļĦ": 6153,
      "çļĦæĢĿèĢĥ": 6154,
      "å®īåħ¨æĢ§": 6155,
      "å§Ĩæĸ¯": 6156,
      "åĪ¸": 6157,
      "ä¸ĸçķĮä¸Ĭ": 6158,
      "èĮ«": 6159,
      "è¿ĺè¦ģ": 6160,
      "çļĦæĢĿç»´": 6161,
      "çĽ¸çŃī": 6162,
      "åŀĥåľ¾éĤ®ä»¶": 6163,
      "å±ķç¤ºäºĨ": 6164,
      "åĨĮ": 6165,
      "ä»£è°¢": 6166,
      "è¯¦ç»ĨåĽŀçŃĶ": 6167,
      "ĠĊ": 6168,
      "æ´ĽæĿīçŁ¶": 6169,
      "ç½²": 6170,
      "%ãĢĤ": 6171,
      "çļĦéĢŁåº¦": 6172,
      "Ja": 6173,
      "éľĢè¦ģåľ¨": 6174,
      "æ¶Į": 6175,
      "çĲ³": 6176,
      "çļĦæ°Ķæģ¯": 6177,
      "éĢīæĭ©éĢĤåĲĪ": 6178,
      "è¡°": 6179,
      "æĤ²ä¼¤": 6180,
      "æģĴæĺŁ": 6181,
      "æłĳæľ¨": 6182,
      "èı²å°Ķ": 6183,
      "æĹĹ": 6184,
      "æĸĩæľ¬ä¸ŃçļĦåħ³éĶ®è¯į": 6185,
      "ç´łè´¨": 6186,
      "çļĦåħī": 6187,
      "å¿į": 6188,
      "è¢«èªīä¸º": 6189,
      "çĨŁæĤī": 6190,
      "éŁ¿": 6191,
      "ä¹ĺåĿĲ": 6192,
      "å©ļç¤¼": 6193,
      "ç¿Ĵ": 6194,
      "å®ļå¾ĭ": 6195,
      "è®¤åı¯": 6196,
      "åį±æľº": 6197,
      "çļĦä¸Ģæ®µå¯¹è¯Ŀ": 6198,
      "å®´": 6199,
      "çļĦèĭ¹æŀľ": 6200,
      "è¡¬è¡«": 6201,
      "åĴĮå¯¹": 6202,
      "æ°Ľ": 6203,
      "ä¸ĬçıŃ": 6204,
      "é»Ľ": 6205,
      "çļĦèĩªçĦ¶": 6206,
      "éĿ¢æĿ¡": 6207,
      "æľĢéĢĤåĲĪ": 6208,
      "äººä»¬åľ¨": 6209,
      "70": 6210,
      "å¹³éĿĻ": 6211,
      "å®ĮæĪĲä»»åĬ¡": 6212,
      "èĪĴéĢĤçļĦ": 6213,
      "è¿Ļæł·åı¯ä»¥": 6214,
      "çļĦé¢ĨåŁŁ": 6215,
      "çļĦæ¯ĶèµĽ": 6216,
      "å¦Ĥä»Ĭ": 6217,
      "ä»ĩ": 6218,
      "Ġè¯·åĳĬè¯īæĪĳ": 6219,
      "çļĦåĬŁèĥ½": 6220,
      "æĺ¯ä¸ºäºĨ": 6221,
      "åľ°çĲĥä¸Ĭ": 6222,
      "çĵ¦": 6223,
      "åħ¶ä»ĸäºº": 6224,
      "åģļä¸ĢäºĽ": 6225,
      "çļĦå®ļä¹ī": 6226,
      "åĮ¹éħį": 6227,
      "è´·": 6228,
      "èķ´åĲ«": 6229,
      "åĩĮ": 6230,
      "å®ĥä»¬åľ¨": 6231,
      "DNA": 6232,
      "ä¸ĭä¸Ģä¸ª": 6233,
      "æī¿æĭħ": 6234,
      "åĩºçİ°åľ¨": 6235,
      "å°±èĥ½": 6236,
      "ä¹Ĳè§Ĥ": 6237,
      "è¢Ń": 6238,
      "çļĦç¾İæĻ¯": 6239,
      "éĵģå¡Ķ": 6240,
      "æ·±æ·±": 6241,
      "ç¼ĸç¨ĭè¯Ńè¨Ģ": 6242,
      "ç»ĺçĶ»": 6243,
      "æĹĭè½¬": 6244,
      "åı£åı·": 6245,
      "ç»Ŀå¯¹": 6246,
      "ä¸»æ¼Ķ": 6247,
      "ä¸ªåŃĹ": 6248,
      "çĳŁ": 6249,
      "éļ¾é¢ĺ": 6250,
      "åŃ¦ä¹łæĸ°": 6251,
      "ç¾İåĽ½æĢ»ç»Ł": 6252,
      "åĬŀæ³ķ": 6253,
      "çļĦè§ĤçĤ¹": 6254,
      "åĲİæĿ¥": 6255,
      "æĭ¥åłµ": 6256,
      "æĸĩæľ¬éĶĻè¯¯è¿Ľè¡Į": 6257,
      "æ¨ª": 6258,
      "åģļèµ·": 6259,
      "å¹¶å¯¹": 6260,
      "éĿ¢ç²ī": 6261,
      "èĢģäºº": 6262,
      "åĲ«éĩı": 6263,
      "ç»Ļä½łä¸¤ä¸ª": 6264,
      "è®©ä»ĸä»¬": 6265,
      "ç±»ä¼¼äºİ": 6266,
      "éĹ¹": 6267,
      "ä¿¡çĶ¨": 6268,
      "åĽłä¸ºæĪĳ": 6269,
      "åĿ¡": 6270,
      "åĽ´ç»ķ": 6271,
      "åķ¦": 6272,
      "é£İåĲ¹": 6273,
      "å¯¹è¯Ŀä¸Ń": 6274,
      "çĶ·äºº": 6275,
      "æµĨ": 6276,
      "çŃīå¤ļç§į": 6277,
      "æ²³æµģ": 6278,
      "AP": 6279,
      "æĢĴ": 6280,
      "çľĭçĿĢ": 6281,
      "åħ¼": 6282,
      "å¹²æĹ±": 6283,
      "æĢ§éĹ®é¢ĺ": 6284,
      "åĴĮå°ı": 6285,
      "æĿľ": 6286,
      "å¸ħ": 6287,
      "è·Łè¸ª": 6288,
      "åĴĮä½¿çĶ¨": 6289,
      "åľĨå½¢": 6290,
      "æĹĭå¾ĭ": 6291,
      "è½¨éģĵ": 6292,
      "è¿½æº¯": 6293,
      "åħĥéĴ±": 6294,
      "ä¸´åºĬ": 6295,
      "æĶ¾ç½®": 6296,
      "èĢĲå¿ĥ": 6297,
      "äººå·¥æĻºèĥ½å°Ĩ": 6298,
      "å¦ĤæŀľæĤ¨éľĢè¦ģ": 6299,
      "æĸĩæľ¬åĪĨç±»": 6300,
      "çĶŁæĪĲä»ĸä»¬ä¹ĭéĹ´": 6301,
      "è¦ģæ±Ĥå¯¹è¯ĿåĨħå®¹": 6302,
      "è¯¦ç»Ĩä¸°å¯Į": 6303,
      "è§Ĵèī²ä¿¡æģ¯å¦Ĥä¸ĭ": 6304,
      "ç»Ļä½łä¸¤ä¸ªè§Ĵèī²ä¿¡æģ¯å¦Ĥä¸ĭ": 6305,
      "çĶŁæĪĲä»ĸä»¬ä¹ĭéĹ´çļĦä¸Ģæ®µå¯¹è¯Ŀ": 6306,
      "è¦ģæ±Ĥå¯¹è¯ĿåĨħå®¹è¯¦ç»Ĩä¸°å¯Į": 6307,
      "éĽĩ": 6308,
      "1000": 6309,
      "æŀļ": 6310,
      "ä»¥éģ¿åħį": 6311,
      "è¾¾æĪĲ": 6312,
      "¬éĹ´": 6313,
      "æł¼å¼ı": 6314,
      "æĶ¹éĿ©": 6315,
      "èĤĿ": 6316,
      "æľĢéĩįè¦ģçļĦæĺ¯": 6317,
      "ç½Ĺé©¬": 6318,
      "è¿Ļä¸ªè¯į": 6319,
      "äºĨä¸Ģåľº": 6320,
      "èľľèľĤ": 6321,
      "ĠåĳĬè¯īæĪĳ": 6322,
      "æ°Ķè±¡": 6323,
      "åħ±åĲĮåĬªåĬĽ": 6324,
      "æłĩçĤ¹ç¬¦åı·": 6325,
      "æĹłæķ°": 6326,
      "æ¯Ķçī¹": 6327,
      "ç»ĻæĪĳä¸ĢäºĽ": 6328,
      "ç²¾èĩ´": 6329,
      "æł¹æį®ä»¥ä¸Ĭ": 6330,
      "å®¢è§Ĥ": 6331,
      "çļĦæĢĿæĥ³": 6332,
      "çļĦçĤ": 6333,
      "å·²ç»ıåľ¨": 6334,
      "æ¹¾": 6335,
      "çľĭäºĨ": 6336,
      "åĢ¡": 6337,
      "å¿ĥè¡Ģç®¡": 6338,
      "ç¿»è¯ĳæĪĲçİ°ä»£": 6339,
      "èĬĤçľģ": 6340,
      "æłĳåı¶": 6341,
      "éĢĲæŃ¥": 6342,
      "åħ¨çĲĥæ°ĶåĢĻåıĺåĮĸ": 6343,
      "çĶŁåĳ½çļĦ": 6344,
      "ç¬Ķè®°": 6345,
      "ĸæģ¯åľ°": 6346,
      "åħĭæĸ¯": 6347,
      "æľºåĻ¨åŃ¦ä¹łåĴĮ": 6348,
      "åģļä»Ģä¹Ī": 6349,
      "ä¿¡æģ¯åĴĮ": 6350,
      "äººå·¥æĻºèĥ½æĬĢæľ¯çļĦ": 6351,
      "åĨĽäºĭ": 6352,
      "ç¿»è¯ĳæĪĲæĸĩè¨Ģæĸĩ": 6353,
      "å¼¯": 6354,
      "ç»ĦæĪĲçļĦ": 6355,
      "èįīåİŁ": 6356,
      "è¿ĩæ»¤": 6357,
      "ä¸Ńåįİ": 6358,
      "åħįè´¹": 6359,
      "è®©æĤ¨": 6360,
      "çļĦæĤ": 6361,
      "ç®Ģæĺİ": 6362,
      "æĺ¯ä»Ģä¹ĪæĦıæĢĿ": 6363,
      "æľīäºĨ": 6364,
      "æľīå¤ļå°ĳ": 6365,
      "ä¸ĭåİ»": 6366,
      "å¯¦": 6367,
      "çĶŁäº§åĬĽ": 6368,
      "éĨĭ": 6369,
      "ç»ĵæŀĦåĴĮ": 6370,
      "å®ĿèĹı": 6371,
      "èµ¢å¾ĹäºĨ": 6372,
      "ä¸ĸçķĮçļĦ": 6373,
      "æĺ¯ä¸Ģä¸ªéĿŀå¸¸": 6374,
      "...": 6375,
      "Ġå½ĵçĦ¶": 6376,
      "è¯ŃæĢģ": 6377,
      "è¿Ļä¸ªæĸĩæľ¬": 6378,
      "ä¸įåºĶè¯¥": 6379,
      "åĳ½åĲį": 6380,
      "æł¹æį®æīĢ": 6381,
      "éħįåĲĪ": 6382,
      "å¥¹åľ¨": 6383,
      "åħ¶ä¸Ńä¸Ģä¸ª": 6384,
      "èº«ä¸Ĭ": 6385,
      "è¿Ļç¯ĩæĸĩç«łä¸»è¦ģ": 6386,
      "åĲ¦å®ļ": 6387,
      "æĿ¥è¿Ľè¡Į": 6388,
      "é«ĺæ¸©": 6389,
      "å¦ĤæŀľæĤ¨åĸľæ¬¢": 6390,
      "èģĶçĽŁ": 6391,
      "è¥¿çĵľ": 6392,
      "ç¿»è¯ĳæĪĲçİ°ä»£æĸĩ": 6393,
      "ä¹ĭæĥħ": 6394,
      "æĪĳçĽ¸ä¿¡": 6395,
      "çĮ´": 6396,
      "æĲľç´¢å¼ķæĵİ": 6397,
      "èīºæľ¯åĵģ": 6398,
      "ç»Ļå®ļä¸Ģä¸ª": 6399,
      "çĽ¸åĲĮçļĦ": 6400,
      "æ»ĭ": 6401,
      "åľ¨è¿Ļç§į": 6402,
      "è¶ĬæĿ¥è¶Ĭå¤ļçļĦ": 6403,
      "çº¿ä¸Ĭ": 6404,
      "è¡¨è¾¾æĸ¹å¼ı": 6405,
      "çºªå¿µ": 6406,
      "éĢĽ": 6407,
      "æĽ´å¤§çļĦ": 6408,
      "é¢ĳç¹ģ": 6409,
      "çļĦæ³¨æĦı": 6410,
      "è¿ŀè´¯": 6411,
      "è¿½éĢĲ": 6412,
      "åĩıè½»åİĭåĬĽ": 6413,
      "ç»ĵå±Ģ": 6414,
      "éħ·": 6415,
      "å¤ĸæĺŁ": 6416,
      "ç°": 6417,
      "è¿Ļæĺ¯ä¸Ģç§į": 6418,
      "æ´¾å¯¹": 6419,
      "çĶŁæ´»åľ¨": 6420,
      "åİ¦": 6421,
      "æ£ĴäºĨ": 6422,
      "åĴĮä»ĸçļĦ": 6423,
      "ä½¿è®¡ç®Ĺæľº": 6424,
      "å¼ķèµ·çļĦ": 6425,
      "æĦŁè°¢æĤ¨": 6426,
      "éĹ®é¢ĺåĴĮ": 6427,
      "çļĦæĲ": 6428,
      "çļĦæ¤įçī©": 6429,
      "çķ¶": 6430,
      "æĪĲä¸ºä¸ĢåĲį": 6431,
      "åĳ½è¿Ĳ": 6432,
      "è¾Ĳ": 6433,
      "åįĵè¶Ĭ": 6434,
      "æľ±": 6435,
      "çļĦæ»": 6436,
      "æĿ¥è®¡ç®Ĺ": 6437,
      "èĩªçĦ¶è¯Ńè¨Ģå¤ĦçĲĨæĬĢæľ¯": 6438,
      "è¿ĺä¼ļ": 6439,
      "ä¸ªåįķè¯į": 6440,
      "èĽĩ": 6441,
      "çĭĲ": 6442,
      "çĶµå½±éĻ¢": 6443,
      "æ±Ĺ": 6444,
      "åı¯ä»¥çĶ¨æĿ¥": 6445,
      "¯æķĳ": 6446,
      "å¤ªæ£ĴäºĨ": 6447,
      "XXX": 6448,
      "è¥¿çº¢": 6449,
      "åı¤èĢģçļĦ": 6450,
      "çĽĳæİ§": 6451,
      "å¹´äºº": 6452,
      "ä¹ĭä¸Ģæĺ¯": 6453,
      "çµ±": 6454,
      "çĶŁæ¶¯": 6455,
      "è£¡": 6456,
      "èĢĮæĪĲ": 6457,
      "ä¸ĸçķĮæĿ¯": 6458,
      "åİ»åħ¬åĽŃ": 6459,
      "è¥¿çº¢æŁ¿": 6460,
      "æ¶Īå¤±": 6461,
      "ç©ºæ°Ķæ±¡æŁĵ": 6462,
      "çļĦæ©": 6463,
      "æĤŁ": 6464,
      "æĪĳä»¬åı¯ä»¥éĢļè¿ĩ": 6465,
      "åĪ¶éĢłä¸ļ": 6466,
      "æľīæīĢä¸įåĲĮ": 6467,
      "åħ¥æīĭ": 6468,
      "åı¯ä»¥å¸®åĬ©äººä»¬": 6469,
      "è¯¥çĶµå½±": 6470,
      "åħ·ä½ĵæĿ¥è¯´": 6471,
      "æħ°": 6472,
      "æ½ľåĬĽ": 6473,
      "ç¢§": 6474,
      "å¾Īæľīè¶£": 6475,
      "çļĦé¤Ĳåİħ": 6476,
      "ç©ºä¸Ń": 6477,
      "èĤ¿": 6478,
      "åĲ¯åıĳ": 6479,
      "ä¸Ģæ®µæĸĩåŃĹ": 6480,
      "å®ĺæĸ¹": 6481,
      "çļĦçı": 6482,
      "å½±éŁ¿": 6483,
      "å®ĮæĪĲä¸Ģæ®µå¯¹è¯Ŀ": 6484,
      "æĤ¨åı¯ä»¥å°Ŀè¯ķ": 6485,
      "äººéĻħåħ³ç³»": 6486,
      "è¿Ļä»¶": 6487,
      "åĮĸçŁ³çĩĥæĸĻ": 6488,
      "åĪĨè§£": 6489,
      "è§Ĵèī²ä¿¡æģ¯å®ĮæĪĲä¸Ģæ®µå¯¹è¯Ŀ": 6490,
      "åŁºäºİä»¥ä¸ĭè§Ĵèī²ä¿¡æģ¯å®ĮæĪĲä¸Ģæ®µå¯¹è¯Ŀ": 6491,
      "ä¼Łå¤§çļĦ": 6492,
      "çļĦçģ«": 6493,
      "å¹¶æıĲé«ĺ": 6494,
      "çĽĳçĿ£åŃ¦ä¹ł": 6495,
      "ä¸ĬåįĪ": 6496,
      "æĶ¿åºľåĴĮ": 6497,
      "çĽ¸äºĴä½ľçĶ¨": 6498,
      "ä¿®èº«": 6499,
      "å¥½å¥ĩ": 6500,
      "åĲĲ": 6501,
      "å¸Ĥåľºä¸Ĭ": 6502,
      "ä¸Ģä¸ªåħ³äºİ": 6503,
      "åĴĮèµĦæºĲ": 6504,
      "æĪĴ": 6505,
      "æĬ¢": 6506,
      "äºĮåįģ": 6507,
      "åĬłåħ¥ä¸ĢäºĽ": 6508,
      "åħ³å¿ĥ": 6509,
      "ç»ĵå°¾": 6510,
      "çªĥ": 6511,
      "é«ĺéĢŁ": 6512,
      "çĩĥçĥ§": 6513,
      "çļĦéĥ¨åĪĨ": 6514,
      "åĸľæ¬¢åľ¨": 6515,
      "ä¸įéĢĤ": 6516,
      "æĭ¯æķĳ": 6517,
      "ä¸ĵä¸ļçļĦ": 6518,
      "åĮĻ": 6519,
      "æĶ¶åĪ°": 6520,
      "æĥħåĴĮ": 6521,
      "2019": 6522,
      "æŀģæĢ§": 6523,
      "ä½łä¹Łåı¯ä»¥": 6524,
      "æł¹æį®ä»¥ä¸ĭæĸĩæľ¬": 6525,
      "æ©Ħæ¦Ħæ²¹": 6526,
      "å¾ĹåĪĨ": 6527,
      "æĮĳæĪĺåĴĮ": 6528,
      "21": 6529,
      "å¼ķäººåħ¥": 6530,
      "æĪĳåİ»äºĨ": 6531,
      "åĩłä¸ªèĭ¹æŀľ": 6532,
      "è´¨éĩıåĴĮ": 6533,
      "åıī": 6534,
      "åľ°åĮºçļĦ": 6535,
      "åħįçĸ«åĬĽ": 6536,
      "æľĭåıĭä»¬": 6537,
      "å¸ĮèħĬ": 6538,
      "é²¸é±¼": 6539,
      "é¡ºåĪ©": 6540,
      "ç»ĻæĪĳä»¬": 6541,
      "è°ĥæĸĻ": 6542,
      "é±¼ç±»": 6543,
      "çĶŁçī©å¤ļæł·æĢ§": 6544,
      "å®¢äºº": 6545,
      "é¥®é£ŁåĴĮ": 6546,
      "çļĦä¸Ńå¿ĥ": 6547,
      "æĮ«": 6548,
      "è¯·çĶ¨": 6549,
      "è·Į": 6550,
      "éĢĻåĢĭ": 6551,
      "è¨Ī": 6552,
      "æĸĩåŃ¦ä½ľåĵģ": 6553,
      "è¿ĲèĲ¥": 6554,
      "çļĦçł´åĿı": 6555,
      "å¼ķäººåħ¥èĥľ": 6556,
      "åĲĥé¥Ń": 6557,
      "çģ£": 6558,
      "è¾Ĳå°Ħ": 6559,
      "ä½ľèĢħå¯¹": 6560,
      "å¾ŀ": 6561,
      "å®ĭ": 6562,
      "ä¸Ģåº§": 6563,
      "åĴĮçĽ®æłĩ": 6564,
      "æĬ¹": 6565,
      "åĨĻè¯Ĺ": 6566,
      "æĺİæ²»": 6567,
      "è¿ĺåī©": 6568,
      "åĨĻçļĦæĸĩç«ł": 6569,
      "åĿĽ": 6570,
      "å°ıéķĩ": 6571,
      "çĥĺ": 6572,
      "Ġä¸ºä»Ģä¹Ī": 6573,
      "æĿ¥äºĨ": 6574,
      "åĲ¦åĪĻ": 6575,
      "ĠæĪĳä»¬": 6576,
      "çĶŁæĪĲä¸Ģæ®µä»ĸä»¬çļĦå¯¹è¯ĿåĨħå®¹": 6577,
      "èľĤèľľ": 6578,
      "æĤ¨åı¯ä»¥åľ¨": 6579,
      "è¿Ļä¸ªéĹ®é¢ĺçļĦçŃĶæ¡Ī": 6580,
      "è¿Ļä¸¤ä¸ªåı¥åŃĲ": 6581,
      "å·¥ä½ľçļĦ": 6582,
      "åĲ´": 6583,
      "Ġä»İè¿Ļç¯ĩæĸĩç«łä¸ŃæıĲåıĸ": 6584,
      "åħ³æ³¨åĴĮ": 6585,
      "æ²īæµ¸": 6586,
      "éĴĵ": 6587,
      "åĴĮåĪĽæĸ°": 6588,
      "åı¥åŃĲä¸ŃçļĦ": 6589,
      "è´¦æĪ·": 6590,
      "æķĻæİĪ": 6591,
      "ä»İäºĭ": 6592,
      "æĺ¯æŃ£éĿ¢": 6593,
      "åı¯ä»¥åĪĨåĪ°": 6594,
      "çļĦçĹĩ": 6595,
      "è¿ĳæĹ¥": 6596,
      "åĴĮç»ıéªĮ": 6597,
      "ç§ĳæĬĢåĪĽæĸ°": 6598,
      "ä¹ŁåºĶè¯¥": 6599,
      "è´¢äº§": 6600,
      "çļĦéĺ³åħī": 6601,
      "èĢĮåľ¨": 6602,
      "æģ¨": 6603,
      "æ¸ħæ´Ĺ": 6604,
      "çļĦå¤©æ°Ķé¢ĦæĬ¥": 6605,
      "åĲĪçĲĨçļĦ": 6606,
      "ä¸Ģå®ļä¼ļ": 6607,
      "ä½¿åħ¶æĽ´åĬłç®Ģæ´ģæĺİäºĨ": 6608,
      "is": 6609,
      "Bob": 6610,
      "éĩįè¦ģæĢ§": 6611,
      "èĢģèĻİ": 6612,
      "è°¨æħİ": 6613,
      "å¹¿åľº": 6614,
      "åıĳçĶŁåľ¨": 6615,
      "ä¾ĿçĦ¶": 6616,
      "çļĦæį": 6617,
      "ç¨Ģ": 6618,
      "è¿Ļéĥ¨": 6619,
      "çļĦç²¾ç¥ŀ": 6620,
      "æĽ´é«ĺæķĪ": 6621,
      "éĨĩ": 6622,
      "é¥®åĵģ": 6623,
      "æ·±åĪ»çļĦ": 6624,
      "èī¾ç±³": 6625,
      "æ²®": 6626,
      "å®¢åİħ": 6627,
      "æľºæ¢°": 6628,
      "Ġæł¹æį®è¾ĵåħ¥": 6629,
      "å²ģæľĪ": 6630,
      "è¿ĩå¤ļ": 6631,
      "å°ıå¿ĥ": 6632,
      "ä¿®é¥°": 6633,
      "ä¼łç»ŁæĸĩåĮĸ": 6634,
      "èĪĴæľį": 6635,
      "å¹¶çĶ¨": 6636,
      "å¦Ĥä½ķæıĲé«ĺ": 6637,
      "Ġå°Ĩä»¥ä¸ĭæĸĩæľ¬": 6638,
      "æ¸łéģĵ": 6639,
      "çļĦçĪ¶": 6640,
      "å¥¶æ²¹": 6641,
      "è¨Ń": 6642,
      "è¯ķéªĮ": 6643,
      "è¿ŀç»Ń": 6644,
      "çļĦæķ°æį®éĽĨ": 6645,
      "èĥİ": 6646,
      "æīĢéľĢçļĦ": 6647,
      "æĽ´é«ĺçļĦ": 6648,
      "ä¸įåŃĺåľ¨å®ŀä½ĵ": 6649,
      "çļĦå¤§å°ı": 6650,
      "çĽĲåĴĮ": 6651,
      "å¥ĩæĢª": 6652,
      "æ¢¯": 6653,
      "ç«ŀäºīåĬĽ": 6654,
      "ä»¥åħį": 6655,
      "çļĦé£Łåĵģ": 6656,
      "ç³Łç³ķ": 6657,
      "éĺ²æĻĴ": 6658,
      "å§¿åĬ¿": 6659,
      "ç½Ĺæĸ¯": 6660,
      "ä¹Łåı¯èĥ½": 6661,
      "çĸĳéĹ®åı¥": 6662,
      "éĢĿ": 6663,
      "æĽ´åħ·": 6664,
      "åĲĦèĩª": 6665,
      "æŃ£æĸĩ": 6666,
      "æĽ°": 6667,
      "åĲĮæĦı": 6668,
      "ç»ıåħ¸çļĦ": 6669,
      "æĵļ": 6670,
      "éĢĶä¸Ń": 6671,
      "é¦Ļæ°Ķ": 6672,
      "å¸®ä½ł": 6673,
      "æĪĸçŁŃè¯Ń": 6674,
      "çļĦæľªæĿ¥": 6675,
      "äººå·¥æĻºèĥ½æĺ¯ä¸Ģç§į": 6676,
      "å¤±èĲ½": 6677,
      "å°ıçĲĥ": 6678,
      "èµ·äºĨ": 6679,
      "çļĦåŃ¦çĶŁ": 6680,
      "çĩķéº¦": 6681,
      "åĴĮæĪĳ": 6682,
      "ç»ıéªĮåĴĮ": 6683,
      "çļĦè¯Ħä»·": 6684,
      "84": 6685,
      "æĺŁéĻħ": 6686,
      "è¿ĻäºĽæĸ¹æ³ķ": 6687,
      "æīĢæľīäºº": 6688,
      "è¿ĺæ²¡æľī": 6689,
      "é¢Ŀå¤ĸ": 6690,
      "å¹¶éĢļè¿ĩ": 6691,
      "éĩįè¦ģä½ľçĶ¨": 6692,
      "å©´åĦ¿": 6693,
      "æİ¢æµĭ": 6694,
      "åĩıå°ĳæ±¡æŁĵ": 6695,
      "å£®è§Ĥ": 6696,
      "æ¨£": 6697,
      "è¯·æ³¨æĦı": 6698,
      "å®ı": 6699,
      "æł·æľ¬": 6700,
      "çļĦæĦıè§ģ": 6701,
      "åĽŀçŃĶä¸ĭéĿ¢çļĦéĹ®é¢ĺ": 6702,
      "åĽ°å¢ĥ": 6703,
      "æĽ´æ·±åħ¥": 6704,
      "æ¯Ķä¾ĭ": 6705,
      "çļĦçĹĩçĬ¶": 6706,
      "å¼ºçļĦ": 6707,
      "çģ«çģ¾": 6708,
      "çļĦæĻ¯èī²": 6709,
      "éĿ¢åĽ¢": 6710,
      "éĢĤéĩıçļĦ": 6711,
      "æĿİçĻ½": 6712,
      "çļĦç»ıåİĨ": 6713,
      "æĹłèģĬ": 6714,
      "å¤§éĥ¨åĪĨ": 6715,
      "åĸĦäºİ": 6716,
      "æ´ªæ°´": 6717,
      "çĵ·": 6718,
      "å¾Īé«ĺ": 6719,
      "ç®Ń": 6720,
      "è±¹": 6721,
      "åįĩçº§": 6722,
      "åıĳçĶŁäºĨ": 6723,
      "å¹¶ä¸İ": 6724,
      "äººç¾¤": 6725,
      "å¼Ģè½¦": 6726,
      "åĦ¿åŃĲ": 6727,
      "ä¹Ķæ²»": 6728,
      "èĸª": 6729,
      "æĪĳä»¬åı¯ä»¥ä½¿çĶ¨": 6730,
      "åĴĮä¿¡æģ¯": 6731,
      "åĲįè¨Ģ": 6732,
      "å¤´èĦĳ": 6733,
      "å±Ĭ": 6734,
      "åĲ¸å¼ķäºĨ": 6735,
      "æĩĴ": 6736,
      "ç¿¼": 6737,
      "æĥĬåı¹": 6738,
      "ä¸īæĺİæ²»": 6739,
      "èĬ±æľµ": 6740,
      "å¹²çĩ¥": 6741,
      "è®©ä»ĸ": 6742,
      "äºĨä¸Ģå®¶": 6743,
      "ä¸ºäººç±»": 6744,
      "çĽ¸ä¼¼åº¦": 6745,
      "åĽłä¸ºä»ĸ": 6746,
      "ä¹Łæ²¡æľī": 6747,
      "ä»Ĭå¤©æĹ©ä¸Ĭ": 6748,
      "ç¢°": 6749,
      "å¥³çĶŁ": 6750,
      "åĬ¨æĢģ": 6751,
      "åĮħè£ħ": 6752,
      "å®ĮæĪĲäºĨ": 6753,
      "ä¼łè¾ĵ": 6754,
      "al": 6755,
      "è¿Ļä¸ªåŁİå¸Ĥ": 6756,
      "å¤ļåĲĥ": 6757,
      "ä»¥åıĬå¦Ĥä½ķ": 6758,
      "æľīæīĢå¸®åĬ©": 6759,
      "éĿĴå¹´": 6760,
      "æ²Ļæ¼ł": 6761,
      "æ²®ä¸§": 6762,
      "çļĦç½ĳç«Ļ": 6763,
      "å¹¶ç¡®ä¿Ŀ": 6764,
      "æīĭå·¥": 6765,
      "å°ºå¯¸": 6766,
      "éĥ½éĿŀå¸¸": 6767,
      "èµ«": 6768,
      "æĺ¥èĬĤ": 6769,
      "å²Ĺä½į": 6770,
      "æİ¢ç©¶": 6771,
      "å«©": 6772,
      "ç»ĵæŀľè¡¨æĺİ": 6773,
      "èµł": 6774,
      "éŁ³ä¹Ĳä¼ļ": 6775,
      "el": 6776,
      "æĹ¦": 6777,
      "çĶ¨é¤Ĳ": 6778,
      "çĽ¸åĬł": 6779,
      "éĵĥ": 6780,
      "èµĦäº§": 6781,
      "åĨĻä¸Ģé¦ĸ": 6782,
      "æĲħæĭĮåĿĩåĮĢ": 6783,
      "è¿ĽåĮĸ": 6784,
      "æľĢä½İ": 6785,
      "åĪĽæĸ°çļĦ": 6786,
      "åĪ°æĿ¥": 6787,
      "èĳ¡èĲĦéħĴ": 6788,
      "åĭĻ": 6789,
      "æĸ°åħ´": 6790,
      "ä¸ĩçī©": 6791,
      "ä½łæľī": 6792,
      "å¤´åıĳ": 6793,
      "åľ¨æŁĲäºĽ": 6794,
      "æĽ´åĩĨç¡®åľ°": 6795,
      "ä¸Ģå®ļè¦ģ": 6796,
      "éĢīé¡¹ä¸Ń": 6797,
      "è¾¨": 6798,
      "2018": 6799,
      "çļĦæŁĲ": 6800,
      "28": 6801,
      "es": 6802,
      "æĿ¥è§£åĨ³è¿Ļä¸ªéĹ®é¢ĺ": 6803,
      "å¥½æľĭåıĭ": 6804,
      "æĮĩç¤º": 6805,
      "150": 6806,
      "çļĦæĽ´": 6807,
      "æ£ķ": 6808,
      "å¥ĸåĬ±": 6809,
      "Ġä»İè¿Ļç¯ĩæĸĩç«łä¸ŃæıĲåıĸåĩº": 6810,
      "åı¯ä»¥åĩıå°ĳ": 6811,
      "Ġæł¹æį®ä»¥ä¸ĭæĸĩæľ¬": 6812,
      "æļĳ": 6813,
      "æķ´çĲĨ": 6814,
      "çıĬ": 6815,
      "å®¶çļĦ": 6816,
      "å¼¥": 6817,
      "çħ®çĨŁ": 6818,
      "æ°´åĪĨ": 6819,
      "æ±īåł¡": 6820,
      "æĪĳåĽ½": 6821,
      "æĸ¹ç¨ĭ": 6822,
      "èĲ¥éĢł": 6823,
      "åı¬": 6824,
      "è®°èĢħ": 6825,
      "è¡Ĺéģĵ": 6826,
      "Ġè§£éĩĬ": 6827,
      "æ¶µçĽĸäºĨ": 6828,
      "ä¸»æĹ¨": 6829,
      "è®¢åįķ": 6830,
      "æľīä¸Ģå¤©": 6831,
      "çĪ±å¥½èĢħ": 6832,
      "æ»¨": 6833,
      "æģĲé¾Ļ": 6834,
      "ç§ĳå¹»çĶµå½±": 6835,
      "éĢĤå®ľ": 6836,
      "å¥½åıĭ": 6837,
      "æŁĶåĴĮ": 6838,
      "è¶ħè¶Ĭ": 6839,
      "è¿Ľç¨ĭ": 6840,
      "Ġç»Ļ": 6841,
      "çĶ¨æ°´": 6842,
      "åħ¶ä¸ŃæľĢ": 6843,
      "éĿĴå°ĳå¹´": 6844,
      "ä¹Łè®¸": 6845,
      "åı£ç½©": 6846,
      "éĢļé¡º": 6847,
      "ä¸įåĸľæ¬¢": 6848,
      "èµ·åºĬ": 6849,
      "ãĢĤãĢĤ": 6850,
      "åĴĸåķ¡åĽł": 6851,
      "æ¸ħçĲĨ": 6852,
      "åĳĬè¯īæĪĳä»¬": 6853,
      "ç²Ĺ": 6854,
      "æľªæĿ¥çļĦåıĳå±ķ": 6855,
      "åĪĿåŃ¦èĢħ": 6856,
      "è¡ĮæĶ¿": 6857,
      "è®Ĭ": 6858,
      "çıŃçīĻ": 6859,
      "è¶ĬæĿ¥è¶Ĭå¤ļçļĦäºº": 6860,
      "æĻ¯èī²": 6861,
      "åħ¶ä»ĸçļĦ": 6862,
      "è¥¿çıŃçīĻ": 6863,
      "è¿Ļé¦ĸè¯Ĺ": 6864,
      "æĪĳä»¬çļĦäº§åĵģ": 6865,
      "å¹ħçĶ»": 6866,
      "éĿ¢çļĦ": 6867,
      "æĺ¯ä¸Ģæ¬¾": 6868,
      "ä¸Ľ": 6869,
      "èĢĮå¼Ĥ": 6870,
      "è¯·éļıæĹ¶": 6871,
      "åİ»çľĭ": 6872,
      "åħĦ": 6873,
      "å·¥ä½ľä¸Ń": 6874,
      "ĠæĪĳæľĢè¿ĳ": 6875,
      "åħ³éĶ®çĤ¹": 6876,
      "é¬¼": 6877,
      "åĲ¸å¼ķåĬĽ": 6878,
      "æķĳæı´": 6879,
      "è»": 6880,
      "æľºåĻ¨åŃ¦ä¹łæĺ¯ä¸Ģç§į": 6881,
      "åĪ©äºİ": 6882,
      "ç¬¼": 6883,
      "çĭ¸": 6884,
      "ä»ĺåĩº": 6885,
      "çĵ£": 6886,
      "çĽ¸éģĩ": 6887,
      "åĲĦåĽ½": 6888,
      "ç³»ç»ŁçļĦ": 6889,
      "æŁ³": 6890,
      "ä¼łè¯´": 6891,
      "æįī": 6892,
      "åĲĮä¸Ģ": 6893,
      "æĦŁåĨĴ": 6894,
      "åı¯åı£": 6895,
      "éľĢæ±ĤåĴĮ": 6896,
      "Ġå¦Ĥä½ķ": 6897,
      "åı¯ä»¥ä½¿": 6898,
      "è¯·æĤ¨": 6899,
      "äººä»¬çļĦçĶŁæ´»": 6900,
      "åı¥åŃĲçļĦ": 6901,
      "æĸĩçĮ®": 6902,
      "åĲ¸çĥŁ": 6903,
      "æĺ¯ç§¯æŀģçļĦ": 6904,
      "ç¾İæ´²": 6905,
      "å§»": 6906,
      "èŀįåĮĸ": 6907,
      "æĬĢè¡ĵ": 6908,
      "çŁ³å¤´": 6909,
      "éĻĲäºİ": 6910,
      "åıĹä¼Ĺ": 6911,
      "è´Łæĭħ": 6912,
      "æķ¸": 6913,
      "ç©¿è¿ĩ": 6914,
      "éĢ²è¡Į": 6915,
      "èıł": 6916,
      "åĩłçĤ¹": 6917,
      "ä½łèĥ½åĳĬè¯īæĪĳ": 6918,
      "æµ·å²¸": 6919,
      "åıįå¯¹": 6920,
      "åħ¬åħ±äº¤éĢļ": 6921,
      "åĽ¢éĺŁåĲĪä½ľ": 6922,
      "è¿Ļä¹Łæĺ¯": 6923,
      "çļĦä½ĵéªĮ": 6924,
      "NL": 6925,
      "çĮĽ": 6926,
      "çİ¯å¢ĥä¸Ń": 6927,
      "....": 6928,
      "éĿŀå¸¸æľīè¶£": 6929,
      "åĴĮç»Ħç»ĩ": 6930,
      "è®²è¿°äºĨä¸Ģ": 6931,
      "é¦ĸæ¬¡": 6932,
      "æĺı": 6933,
      "åģļçļĦ": 6934,
      "å¥¥æĸ¯": 6935,
      "åĮĨ": 6936,
      "ä½Ĩå®ĥä»¬": 6937,
      "å¤§æ°Ķå±Ĥ": 6938,
      "å¯¹æĪĳä»¬": 6939,
      "ä¿¡å¿ĥ": 6940,
      "ä¸įåıĺ": 6941,
      "å¥½å¥½": 6942,
      "è¯ŀ": 6943,
      "å¸®æĤ¨": 6944,
      "èĢĮéĹ»åĲį": 6945,
      "åĪĽå§ĭ": 6946,
      "æĺĨèĻ«": 6947,
      "æ°Ķæģ¯": 6948,
      "åı¯ä»¥å¸®åĬ©æĤ¨": 6949,
      "çļĦæĮĩå¯¼": 6950,
      "è¿ľå¤Ħ": 6951,
      "è¿ĺæľīä¸ĢäºĽ": 6952,
      "çļĨ": 6953,
      "è´µçļĦ": 6954,
      "æĭĴç»Ŀ": 6955,
      "æ°£": 6956,
      "ĠåŁºäºİ": 6957,
      "éŁ©çīĪ": 6958,
      "å¤įåı¤": 6959,
      "çĶŁçī©åŃ¦": 6960,
      "åıªéľĢè¦ģ": 6961,
      "è®¡ç®Ĺæľºç¨ĭåºı": 6962,
      "å¾ĴæŃ¥": 6963,
      "æķ°æį®åºĵ": 6964,
      "çļĦäººåĲį": 6965,
      "ä»ĸäººçļĦ": 6966,
      "Ġå½ĵçĦ¶åı¯ä»¥": 6967,
      "äº¿ç¾İåħĥ": 6968,
      "ä¹Łæĺ¯ä¸Ģä¸ª": 6969,
      "èĻ¹": 6970,
      "èµµ": 6971,
      "çļĦåı£æĦŁ": 6972,
      "ä¹ĭä½ľ": 6973,
      "äººå·¥æĻºèĥ½é¢ĨåŁŁ": 6974,
      "ç½ĳç»ľå®īåħ¨": 6975,
      "è¿Ĳç®Ĺ": 6976,
      "èį¯çī©çłĶåıĳ": 6977,
      "ä¸»è¦ģåĨħå®¹": 6978,
      "çķªèĮĦéħ±": 6979,
      "åºıåĪĹ": 6980,
      "éĿĴæĺ¥": 6981,
      "æĭĨ": 6982,
      "ıè§Ī": 6983,
      "åĲ¯ç¤º": 6984,
      "è¯·å¯¹": 6985,
      "å¹´åīį": 6986,
      "è¯·éĹ®æĤ¨": 6987,
      "æĺİæĺ¾çļĦ": 6988,
      "åħħçĶµ": 6989,
      "æľºåĻ¨åŃ¦ä¹łæĬĢæľ¯": 6990,
      "çļĦæķ´": 6991,
      "åīįæĿ¥": 6992,
      "çļĦæ±¡æŁĵ": 6993,
      "ä¸»è¦ģæĺ¯": 6994,
      "çİ¯ä¿Ŀæİªæĸ½": 6995,
      "æĸĩç«łçļĦ": 6996,
      "åĸĿåĴĸåķ¡": 6997,
      "ä½łæĥ³": 6998,
      "éĢīæīĭ": 6999,
      "äººå·¥æĻºèĥ½åºĶçĶ¨": 7000,
      "ç»ĨèıĮ": 7001,
      "æľīå¤ļ": 7002,
      "ä¼ģé¹ħ": 7003,
      "é«ĺçº§": 7004,
      "æĺŁç³»": 7005,
      "éĩıåĴĮ": 7006,
      "æĲºå¸¦": 7007,
      "å£¶": 7008,
      "æł¹æį®ç»Ļå®ļ": 7009,
      "éģ®": 7010,
      "æĥĬåĸľ": 7011,
      "è¿ĽèĢĮ": 7012,
      "çº¢éħĴ": 7013,
      "åĴĸåķ¡é¦Ĩ": 7014,
      "æ¯įäº²": 7015,
      "åºŁå¼ĥçī©": 7016,
      "æ·Ģ": 7017,
      "æľ´": 7018,
      "éľĢè¦ģèĢĥèĻĳ": 7019,
      "éĤª": 7020,
      "æµ·æµª": 7021,
      "æĹłå°½": 7022,
      "èħº": 7023,
      "çŁ¿çī©è´¨": 7024,
      "æĪĳä»¬è¦ģ": 7025,
      "ä¼łæĦŁ": 7026,
      "çĶµåŃĲè®¾å¤ĩ": 7027,
      "æĻĭ": 7028,
      "æ°´åĮĸåĲĪçī©": 7029,
      "æĽ´æį¢": 7030,
      "çļĦçľ¼çĿĽ": 7031,
      "åıĳçİ°èĩªå·±": 7032,
      "åı¯æĮģç»ŃæĢ§": 7033,
      "ç±³é¥Ń": 7034,
      "æģ¤": 7035,
      "çļĦåħ¬åı¸": 7036,
      "ä¸Ģéģį": 7037,
      "åı¯ä»¥åİ»": 7038,
      "æº¶": 7039,
      "æĺ¯åĵª": 7040,
      "æĪĸä¸ŃæĢ§": 7041,
      "å¤´çĹĽ": 7042,
      "çļĦä¼ĺçĤ¹": 7043,
      "éĻµ": 7044,
      "è¢«å¹¿æ³ĽåºĶçĶ¨äºİ": 7045,
      "å¯¹åºĶ": 7046,
      "ä¾Ŀæį®": 7047,
      "åŃĺåľ¨çļĦ": 7048,
      "éĶĻè¯¯çļĦ": 7049,
      "çļĦæĻ®åıĬ": 7050,
      "Ġéĩįæĸ°": 7051,
      "å¨ĺ": 7052,
      "èı²å°Ķéĵģå¡Ķ": 7053,
      "æıĲä¾ĽæĽ´å¤ļ": 7054,
      "è·ŁæĪĳ": 7055,
      "å¢ŀæ·»": 7056,
      "Ġéĺħè¯»": 7057,
      "éļ¾åº¦": 7058,
      "å¾Īéĩįè¦ģ": 7059,
      "æĥ«": 7060,
      "å¹¶æł¹æį®": 7061,
      "çĭ¬èĩª": 7062,
      "ç«Ļåľ¨": 7063,
      "è§Ĩéĩİ": 7064,
      "æľĢåĪĿ": 7065,
      "ä»¥åĩıå°ĳ": 7066,
      "åıĳå°Ħ": 7067,
      "éĤĦ": 7068,
      "åįĪé¤Ĳ": 7069,
      "éĺŁä¼į": 7070,
      "åĲİçļĦæĸĩæľ¬": 7071,
      "å¹´ä»½": 7072,
      "æĪĳçŁ¥éģĵ": 7073,
      "å°ıèĬ³": 7074,
      "åĴ³": 7075,
      "æī§å¯¼": 7076,
      "çģŃç»Ŀ": 7077,
      "çłĶç©¶åıĳçİ°": 7078,
      "åĩŃ": 7079,
      "è¾ī": 7080,
      "çĽ¸å¯¹è®º": 7081,
      "æĤ¬çĸĳ": 7082,
      "èº«æĿĲ": 7083,
      "æĦŁäºº": 7084,
      "çļĦä¸Ń": 7085,
      "è¿Ļä¸ªé¡¹çĽ®": 7086,
      "éĵľ": 7087,
      "å±ķè§Ī": 7088,
      "ç§ĳæĬĢçļĦåıĳå±ķ": 7089,
      "åŃĺåľ¨ä¸ĢäºĽ": 7090,
      "éħ¸å¥¶": 7091,
      "çļĦæ¯Ľ": 7092,
      "æİ¨èįĲä¸Ģæľ¬": 7093,
      "æĦŁåĪ°å¾Ī": 7094,
      "é¹°": 7095,
      "èŀįåħ¥": 7096,
      "å«Įçĸĳäºº": 7097,
      "çļĦç©ºéĹ´": 7098,
      "çĽĸèĮ¨æ¯Ķ": 7099,
      "çİ°æľī": 7100,
      "åĢº": 7101,
      "åķıé¡Į": 7102,
      "å¥½åĲĥ": 7103,
      "åĨ·éĿĻ": 7104,
      "å°ıç»Ħ": 7105,
      "çĶŁæĪĲä¸Ģä»½": 7106,
      "ä¸ĬéĿ¢çļĦéĹ®é¢ĺ": 7107,
      "æĢ»ç»ĵåĩº": 7108,
      "å¯¹ç¤¾ä¼ļ": 7109,
      "çļĦçĥ¤": 7110,
      "Ġå°ıæĺİ": 7111,
      "åħ¸åŀĭ": 7112,
      "ä¸ŃçļĦä¸Ģä¸ª": 7113,
      "å½Ĵçº³": 7114,
      "çĻ¾æĲŃ": 7115,
      "Ġæĸĩç«ł": 7116,
      "ä»Ĭå¤©çļĦ": 7117,
      "ä¸¥éĩįçļĦ": 7118,
      "åŃ¸ç¿Ĵ": 7119,
      "ãĢĳ": 7120,
      "çŃĽéĢī": 7121,
      "åĴĮéģĵå¾·": 7122,
      "åĬłå¿«": 7123,
      "ä¼ļå½±åĵį": 7124,
      "éĢļå¸¸åľ¨": 7125,
      "çŃīä¿¡æģ¯": 7126,
      "æ³ķéĻ¢": 7127,
      "ãĢĲ": 7128,
      "åºŀ": 7129,
      "ç»Ļå®ļçļĦæĸĩæľ¬ä¸Ń": 7130,
      "å¹¶ä¿ĿæĮģ": 7131,
      "æµ·æĭĶ": 7132,
      "åĪĨç±»åĻ¨": 7133,
      "åħ¬äº¤": 7134,
      "å©ļå§»": 7135,
      "æĪĳçİ°åľ¨": 7136,
      "çļĦæĻļ": 7137,
      "å¯ĨåĪĩ": 7138,
      "æĹ¶éĹ´åĨħ": 7139,
      "å¸®åĬ©ä½ł": 7140,
      "æ·±å¤Ħ": 7141,
      "åĩłå¤©": 7142,
      "åŃĹç¬¦ä¸²": 7143,
      "å°Ĩä»¥ä¸ĭæĸĩæľ¬": 7144,
      "æľĪä»½": 7145,
      "çļĦäºĭå®ŀ": 7146,
      "èĤ¢": 7147,
      "è¿Ľè¡ĮæĥħæĦŁåĪĨç±»": 7148,
      "ä¸ĵéĹ¨": 7149,
      "åŃ¦éĻ¢": 7150,
      "ç»Ļå®ļçļĦåı¥åŃĲ": 7151,
      "èĩªçĦ¶çķĮ": 7152,
      "éĽ¶é£Ł": 7153,
      "åºĶå½ĵ": 7154,
      "è¡¨çİ°åĩºèī²": 7155,
      "éĵ¶æ²³": 7156,
      "æľīä¸¤ä¸ª": 7157,
      "æĮ¤": 7158,
      "å¾Ĺåĩºç»ĵè®º": 7159,
      "ä¸Ģè¾Ĩ": 7160,
      "è®²ä¸Ģä¸ª": 7161,
      "åİĭåĬĽåĴĮçĦ¦èĻĳ": 7162,
      "è¿Ļæľ¬å°ıè¯´": 7163,
      "æĪĸæľįåĬ¡": 7164,
      "åĴĮæıĲé«ĺ": 7165,
      "å¯¹æ¯Ķ": 7166,
      "æł¹æį®é¢ĺçĽ®": 7167,
      "çĶ·çĶŁ": 7168,
      "å¤§åĪ©äºļ": 7169,
      "ä»»åĬ¡ä¸Ń": 7170,
      "çĻ¾å¹´": 7171,
      "å¸®åĬ©åĮ»çĶŁ": 7172,
      "ç´§å¯Ĩ": 7173,
      "å°ıå¼ł": 7174,
      "äºĨä¸Ģç³»åĪĹ": 7175,
      "åĸĤ": 7176,
      "å¦ĤæŀľæĤ¨æĥ³": 7177,
      "ä¿ĿæĬ¤åľ°çĲĥ": 7178,
      "æĦŁæĥħ": 7179,
      "åīįè¿Ľ": 7180,
      "Ġèĥ½åĲ¦": 7181,
      "æıĲåıĬ": 7182,
      "åı¯ä»¥çľĭ": 7183,
      "çĹĽèĭ¦": 7184,
      "æĬķèµĦèĢħ": 7185,
      "åŁİåł¡": 7186,
      "æĩĪ": 7187,
      "åħ¨æĸ°çļĦ": 7188,
      "èŁ": 7189,
      "åłª": 7190,
      "éĴ»": 7191,
      "è£ħä¿®": 7192,
      "å´ĩ": 7193,
      "å¼ĢæĶ¾å¼ı": 7194,
      "æ©Ļèī²": 7195,
      "æŃ£ä¼ł": 7196,
      "çī§": 7197,
      "çļĦçħ": 7198,
      "èµ°è¿Ľ": 7199,
      "æİ¨æĸŃåĩº": 7200,
      "é¢ĦæľŁ": 7201,
      "æĸ¹éĿ¢çļĦåºĶçĶ¨": 7202,
      "ç«ŀäºīå¯¹æīĭ": 7203,
      "åºŁçī©": 7204,
      "è¯ķçĿĢ": 7205,
      "ä¿ĥéĶĢ": 7206,
      "ç§įæĹıæŃ§è§Ĩ": 7207,
      "æ©ĺåŃĲ": 7208,
      "å¦®": 7209,
      "åģľæŃ¢": 7210,
      "åľ¨ç¾İåĽ½": 7211,
      "çļĦçĸ¾çĹħ": 7212,
      "æķĪåºĶ": 7213,
      "ç§¦": 7214,
      "æµģæµª": 7215,
      "Ġæł¹æį®ç»Ļå®ļ": 7216,
      "æŀ¯": 7217,
      "å¤įåĲĪ": 7218,
      "çļĦè·¯": 7219,
      "ä½łæľĢè¿ĳ": 7220,
      "æıĲä¾ĽçļĦä¿¡æģ¯": 7221,
      "çļĦäººçĶŁ": 7222,
      "è©¹": 7223,
      "æ³Ħéľ²": 7224,
      "å¯¹æľªæĿ¥": 7225,
      "å®ĥå°Ĩ": 7226,
      "ä½¿åħ¶æĽ´åĬłç®Ģæ´ģ": 7227,
      "çļĦä¸īä¸ª": 7228,
      "æİĴåĲį": 7229,
      "é¢ľèī²çļĦ": 7230,
      "æĦŁåĬ¨": 7231,
      "çĶµåķĨ": 7232,
      "ç§ĳåŃ¦çłĶç©¶": 7233,
      "èĲ½åı¶": 7234,
      "åľ¨åĮ»çĸĹé¢ĨåŁŁ": 7235,
      "å±ŀæĢ§": 7236,
      "ä»ĸæĬĬ": 7237,
      "å¸ĮæľĽè¿ĻäºĽ": 7238,
      "çļĦæµª": 7239,
      "éĥİ": 7240,
      "æĹ¶éĹ´ç®¡çĲĨ": 7241,
      "èµ°åĲĳ": 7242,
      "æĳ¸": 7243,
      "éĿŀå¸¸éĩįè¦ģçļĦ": 7244,
      "ç»ıåİĨäºĨ": 7245,
      "è¿½æº¯åĪ°": 7246,
      "çļĦåħ´è¶£": 7247,
      "ä¼łæĦŁåĻ¨": 7248,
      "çļĦæľĢæĸ°": 7249,
      "å®ŀçİ°äºĨ": 7250,
      "æĹłæ³ķç¡®å®ļ": 7251,
      "éĽ»": 7252,
      "ç¢º": 7253,
      "çļĦç¤¼çī©": 7254,
      "å°¾å·´": 7255,
      "æĥ³åĪ°": 7256,
      "è®©èĩªå·±": 7257,
      "çļĦæĦıå¤§åĪ©": 7258,
      "äº¤å¾Ģ": 7259,
      "çļĦæľīæķĪ": 7260,
      "æµıè§Ī": 7261,
      "å¹³æĹ¶": 7262,
      "åĨĻçļĦ": 7263,
      "ä»Ĭå¤©æĺ¯": 7264,
      "ä½łçŁ¥éģĵ": 7265,
      "åĽ¾çīĩ": 7266,
      "æľīåı¯èĥ½": 7267,
      "å½ĵä»£": 7268,
      "çĢ": 7269,
      "æµ·é²ľ": 7270,
      "æł¹æį®è¿Ļä¸ª": 7271,
      "æ¬¢ä¹Ĳ": 7272,
      "æ¨¡æĭŁäººç±»æĻºèĥ½": 7273,
      "éĥ½éľĢè¦ģ": 7274,
      "èĲ§": 7275,
      "æ¾³å¤§åĪ©äºļ": 7276,
      "ĠA": 7277,
      "çĶ¨æĪ·ä½ĵéªĮ": 7278,
      "ç§ĳåĬ¨çī©": 7279,
      "æ±º": 7280,
      "èĤĮèĤ¤": 7281,
      "æĭįæĳĦ": 7282,
      "åĬ¨æľº": 7283,
      "æģ¼": 7284,
      "çĶŁæ´»ä¸ŃçļĦ": 7285,
      "èĩ³äºİ": 7286,
      "æ²Ļæ»©ä¸Ĭ": 7287,
      "åĴĮåĨ³çŃĸ": 7288,
      "ä¸ĢèĪ¬æĿ¥è¯´": 7289,
      "è¾ĥä½İ": 7290,
      "åĬ¨çĶ»": 7291,
      "ä¹Łè¦ģ": 7292,
      "é©¬åħĭ": 7293,
      "æ²¸": 7294,
      "ç§¯æŀģçļĦæĥħæĦŁ": 7295,
      "æľīæľĽ": 7296,
      "è¯·æĢ»ç»ĵ": 7297,
      "å¹¿æ³ĽåºĶçĶ¨äºİ": 7298,
      "ä¸ĺ": 7299,
      "ç§ĳæĬĢåıĳå±ķ": 7300,
      "åĪĽä½ľä¸Ģé¦ĸ": 7301,
      "ä¸Ģæ®µè¯Ŀ": 7302,
      "éĥ½åºĶè¯¥": 7303,
      "ä»İèĢĮæıĲé«ĺ": 7304,
      "ä¸¢": 7305,
      "åģļä¸Ģä¸ª": 7306,
      "åħ¶å®ĥ": 7307,
      "çĶŁæ´»è´¨éĩı": 7308,
      "åĲĦç§įåĲĦ": 7309,
      "å¥³å£«": 7310,
      "çĸ²æĥ«": 7311,
      "å¸®å¿Ļ": 7312,
      "å¯¹æĪĳä»¬çļĦ": 7313,
      "çļĦä½ľåĵģ": 7314,
      "å°ıåĿĹ": 7315,
      "ï¼īãĢģ": 7316,
      "æ¸Ĳæ¸Ĳ": 7317,
      "45": 7318,
      "èĬĤçº¦èĥ½æºĲ": 7319,
      "åĨľæĿĳ": 7320,
      "æĸ¹æ³ķæĿ¥": 7321,
      "ä¸¤åıª": 7322,
      "èĩªçĦ¶èµĦæºĲ": 7323,
      "äººä»¬åı¯ä»¥": 7324,
      "è£ħå¤ĩ": 7325,
      "åŃķ": 7326,
      "çĶµåĬ¨æ±½è½¦": 7327,
      "çļĦæķħäºĭæĥħèĬĤ": 7328,
      "ç§¯ç´¯": 7329,
      "å°ıæĺİçİ°åľ¨": 7330,
      "éĩĩçĶ¨äºĨ": 7331,
      "éģĵå¾·åĴĮ": 7332,
      "æķĻç»ĥ": 7333,
      "æĿ¯åŃĲ": 7334,
      "åĴĮæĶ¾æĿ¾": 7335,
      "åĨ°ç®±": 7336,
      "å±±åĮº": 7337,
      "æĽ´åħ·ä½ĵ": 7338,
      "pp": 7339,
      "åĶ±æŃĮ": 7340,
      "æħ¢æĢ§": 7341,
      "ä»İæĸĩç«łä¸ŃæıĲåıĸ": 7342,
      "åħ³èģĶ": 7343,
      "çļĦæĭ¼": 7344,
      "åģ¥åº·éĹ®é¢ĺ": 7345,
      "åĽłæŃ¤åı¯ä»¥": 7346,
      "åıĳçĶµ": 7347,
      "åİĨåı²ä¸ĬæľĢ": 7348,
      "å¤ĸéĥ¨": 7349,
      "éĢłåŀĭ": 7350,
      "æĸ¹æ³ķåı¯ä»¥": 7351,
      "ç»ıæµİåıĳå±ķ": 7352,
      "å¤§éĻĨ": 7353,
      "åĪĽæĸ°åĴĮ": 7354,
      "æ¸¸è§Ī": 7355,
      "çº¿ç´¢": 7356,
      "ä¸įæĥ³": 7357,
      "âĢĻ": 7358,
      "è¿Ļä½¿å¾Ĺ": 7359,
      "ä¸ļç»©": 7360,
      "ç¾İè§Ĥ": 7361,
      "èĩĤ": 7362,
      "åģĩæľŁ": 7363,
      "çŁ©": 7364,
      "éĩıçļĦ": 7365,
      "çīĽä»Ķè£¤": 7366,
      "çļĦæ½ľåĬĽ": 7367,
      "èį¯åĵģ": 7368,
      "å¢ŀåĬłäºĨ": 7369,
      "éģŃåıĹ": 7370,
      "åĩıåİĭ": 7371,
      "é¢ĨåħĪ": 7372,
      "èĩ£": 7373,
      "å¿½è§Ĩ": 7374,
      "ĠC": 7375,
      "il": 7376,
      "è¿ľç¦»": 7377,
      "é»ŀ": 7378,
      "è©²": 7379,
      "çļĦç®ĢçŁŃ": 7380,
      "é¢¨": 7381,
      "åĨľæ°ĳ": 7382,
      "èģĬèģĬ": 7383,
      "âĢĺ": 7384,
      "æ¯ıä¸Ģ": 7385,
      "åįĹéĥ¨": 7386,
      "çļĦåıĳçĶŁ": 7387,
      "åģļåĪ°": 7388,
      "æĸĩåĮĸçļĦ": 7389,
      "æĪĳä»¬åı¯ä»¥å°Ĩ": 7390,
      "èĪŁ": 7391,
      "çĴ°": 7392,
      "èĥ½åĪĨåĪ°": 7393,
      "ä»¥ä¸ĭæĺ¯ä¸Ģæ®µ": 7394,
      "NLP": 7395,
      "å®¶çĶ¨": 7396,
      "çĸ¼çĹĽ": 7397,
      "è°Īè®º": 7398,
      "è®¤è¯ĨåĪ°": 7399,
      "ĠS": 7400,
      "åĬ³åĬ¨": 7401,
      "ç¼ĵè§£åİĭåĬĽ": 7402,
      "éĥ½è¦ģ": 7403,
      "éĺ¿çĶĺæŃ£ä¼ł": 7404,
      "åİŁåĽłæĺ¯": 7405,
      "èĦĬ": 7406,
      "çºµ": 7407,
      "åıįæĢĿ": 7408,
      "å¿ĹæĦ¿èĢħ": 7409,
      "æĺ¯ä¸įæĺ¯": 7410,
      "çĪ¶äº²": 7411,
      "æľ¬åľ°": 7412,
      "æĽ´æĺ¯": 7413,
      "é»Ħéĩĳ": 7414,
      "ç¦ģæŃ¢": 7415,
      "åıĻè¿°": 7416,
      "iP": 7417,
      "éĢĥèĦ±": 7418,
      "ä½ľä¸ºä¸ĢåĲį": 7419,
      "Ġåħ¶": 7420,
      "ä¸ºä¸»é¢ĺ": 7421,
      "èĭį": 7422,
      "éľĢè¦ģæĽ´å¤ļ": 7423,
      "ä½ľåĩº": 7424,
      "ä¸ªäººçļĦ": 7425,
      "ç¿©": 7426,
      "ä¸Ģåĳ¨": 7427,
      "éĴ¥": 7428,
      "çľŁçļĦå¾Ī": 7429,
      "çļĦçĭ¬çī¹": 7430,
      "Ġå¥¹": 7431,
      "éĩĳé¢Ŀ": 7432,
      "çļĦæµ·æ´ĭ": 7433,
      "æĪ·å¤ĸè¿ĲåĬ¨": 7434,
      "éĩįåĬĽ": 7435,
      "çªĹæĪ·": 7436,
      "çļĦç¿": 7437,
      "çīµ": 7438,
      "åİī": 7439,
      "åı¯æĺ¯": 7440,
      "ä¸¤åı¥è¯Ŀ": 7441,
      "åĸĿæ°´": 7442,
      "å¥Ķè·ĳ": 7443,
      "çº¿æĢ§": 7444,
      "åĴĮäºº": 7445,
      "ä½ıå®¿": 7446,
      "äº§çĶŁçļĦ": 7447,
      "æĺ¯æŃ£ç¡®çļĦ": 7448,
      "å¼·": 7449,
      "é¤Ĳåħ·": 7450,
      "å¥ĸé¡¹": 7451,
      "23": 7452,
      "éĶĲ": 7453,
      "è·³è·ĥ": 7454,
      "åĪĨæķ°": 7455,
      "çļĦä¸»é¢ĺæĺ¯": 7456,
      "ä»¥æŃ¤": 7457,
      "çŀ¬éĹ´": 7458,
      "æīĵçł´": 7459,
      "çĻ»å±±": 7460,
      "çİ¯ä¿ĿéĹ®é¢ĺ": 7461,
      "çİīç±³": 7462,
      "çİ©æ¸¸æĪı": 7463,
      "åķĨåľº": 7464,
      "å¸®åĬ©æĤ¨": 7465,
      "çĪĨåıĳ": 7466,
      "åľ¨å®¶ä¸Ń": 7467,
      "ç²ĴåŃĲ": 7468,
      "éĶ¦": 7469,
      "é»Ħçĵľ": 7470,
      "çļĦè¯įè¯Ń": 7471,
      "çİ¯å¢ĥåĴĮ": 7472,
      "ä¸İäºº": 7473,
      "åľ°éĿ¢": 7474,
      "ç¦ıåĪ©": 7475,
      "æŀª": 7476,
      "å®¶éķ¿": 7477,
      "æĳĺè¦ģçĶŁæĪĲ": 7478,
      "åľ¨è¿Ļç§įæĥħåĨµä¸ĭ": 7479,
      "äºķ": 7480,
      "æİªæĸ½æĿ¥": 7481,
      "çģ¾éļ¾": 7482,
      "åħ»æĪĲ": 7483,
      "åĤ³": 7484,
      "ç¿»çĤĴ": 7485,
      "é©±åĬ¨": 7486,
      "ĠéĢļè¿ĩ": 7487,
      "æĻĵ": 7488,
      "æĺ¯éĿŀå¸¸éĩįè¦ģçļĦ": 7489,
      "ç®ĢçŁŃçļĦæĳĺè¦ģ": 7490,
      "å¡«åĨĻ": 7491,
      "æĪĳæľĢåĸľæ¬¢çļĦ": 7492,
      "è§Ĥæµĭ": 7493,
      "éĺ¿éĩĮ": 7494,
      "ç¢³æ°´åĮĸåĲĪçī©": 7495,
      "Ali": 7496,
      "èĨ³": 7497,
      "èĬĤçĤ¹": 7498,
      "IT": 7499,
      "æĪĳä¸ºæĤ¨": 7500,
      "åĴĮåİĨåı²": 7501,
      "ä¸İäººç±»": 7502,
      "æĸ¹å½¢": 7503,
      "çļĦè®¡åĪĴ": 7504,
      "åĩıæ³ķ": 7505,
      "ç§¯æŀģåıĤä¸İ": 7506,
      "Ġé¦ĸåħĪ": 7507,
      "åħ¬åħĥ": 7508,
      "åĺī": 7509,
      "åı¶åŃĲ": 7510,
      "è¯¦ç»Ĩä¿¡æģ¯": 7511,
      "çĹħæĥħ": 7512,
      "çĶµåŃĲäº§åĵģ": 7513,
      "å¤±åİ»äºĨ": 7514,
      "å°¤åħ¶æĺ¯åľ¨": 7515,
      "çĭĲçĭ¸": 7516,
      "å°ģéĹŃ": 7517,
      "å¤©æĸĩåŃ¦": 7518,
      "ä»İå°ı": 7519,
      "æĦŁåı¹": 7520,
      "æıĲä¾ĽæĽ´å¥½çļĦ": 7521,
      "æ·ĺ": 7522,
      "çļĦç»ıåħ¸": 7523,
      "ä»Ģä¹Īæĺ¯äººå·¥æĻºèĥ½": 7524,
      "é¢ĸ": 7525,
      "è§£åĨ³è¿Ļä¸ªéĹ®é¢ĺ": 7526,
      "ç¹ģèį£": 7527,
      "é«ĺä¸Ń": 7528,
      "åĤ¬": 7529,
      "æĪĳåĲ¬è¯´": 7530,
      "è§Ĥå¿µ": 7531,
      "åŁºéĩĳ": 7532,
      "éĢģç»Ļ": 7533,
      "å¹¶ä¸Ķåľ¨": 7534,
      "çīĪåŀĭ": 7535,
      "ä¸ªäººä¿¡æģ¯": 7536,
      "æ©¡": 7537,
      "åı¯çĶ¨äºİ": 7538,
      "çļĦåĲĮä¹īè¯į": 7539,
      "22": 7540,
      "ç¢Į": 7541,
      "çº¿æĿ¡": 7542,
      "åĴĮä½ł": 7543,
      "æİª": 7544,
      "åĳ½ä»¤": 7545,
      "ÃĹ": 7546,
      "as": 7547,
      "ä»İæľª": 7548,
      "èĬ¯": 7549,
      "ç¨ĭåºıåĳĺ": 7550,
      "çļĦçī©åĵģ": 7551,
      "è½¬åŀĭ": 7552,
      "æĹłéľĢ": 7553,
      "æº¢": 7554,
      "æŀ«": 7555,
      "æīĳ": 7556,
      "æĿ¥ç¡®å®ļ": 7557,
      "æ¡Ĥ": 7558,
      "å¦Ĥæŀľæľī": 7559,
      "é©¬å°Ķ": 7560,
      "å»·": 7561,
      "ç©¿ä¸Ĭ": 7562,
      "æĬ½è±¡": 7563,
      "åĪĨç»Ļä»ĸçļĦ": 7564,
      "æĴŃæĶ¾": 7565,
      "éĢīä¸¾": 7566,
      "äºĨè§£ä¸Ģä¸ĭ": 7567,
      "çļĦæľĭåıĭ": 7568,
      "çľŁå¥½": 7569,
      "åŃ£åº¦": 7570,
      "èĪªçıŃ": 7571,
      "éľĢè¦ģæĪĳä»¬": 7572,
      "æĢ¨": 7573,
      "æŀģåħ¶": 7574,
      "çļĦéĤ£": 7575,
      "åħ§": 7576,
      "ĠåĪĨç±»": 7577,
      "è§Ĩè§īæķĪæŀľ": 7578,
      "è´Ŀå°Ķ": 7579,
      "çļĦè¡£æľį": 7580,
      "æĽ´å¤§": 7581,
      "ç®Ĺæ³ķåĴĮ": 7582,
      "çļĦæİ¨èįĲ": 7583,
      "åı¯ä»¥è¢«åĪĨç±»ä¸º": 7584,
      "åĵŃ": 7585,
      "æķ°æį®éļĲç§ģ": 7586,
      "çļĦéĩįè¦ģç»ĦæĪĲéĥ¨åĪĨ": 7587,
      "çļĦæķĪçİĩ": 7588,
      "æĢ»éĥ¨": 7589,
      "ĠB": 7590,
      "æĺİæĺŁ": 7591,
      "æļ´åĬĽ": 7592,
      "ä¸»è§Ĥ": 7593,
      "æĴĴä¸Ĭ": 7594,
      "æķıæĦŁ": 7595,
      "æľĢåĸľæ¬¢çļĦçĶµå½±": 7596,
      "æīĩ": 7597,
      "é¢Ĩè¢ĸ": 7598,
      "et": 7599,
      "çī¹æľĹ": 7600,
      "æĲŀ": 7601,
      "ä¾ł": 7602,
      "am": 7603,
      "ç§ģäºº": 7604,
      "ä»ĬæĻļ": 7605,
      "çģ«å±±": 7606,
      "è¿Ľè¡ĮæĶ¹åĨĻ": 7607,
      "ä¸įæĸŃè¿ĽæŃ¥": 7608,
      "ä½łåı¯ä»¥åľ¨": 7609,
      "èļģ": 7610,
      "æĪĳä»¬åħ¬åı¸": 7611,
      "åŃ¦çĶŁçļĦ": 7612,
      "åĪĽå§ĭäºº": 7613,
      "éĿŀå¸¸åĸľæ¬¢": 7614,
      "çĶŁæĢģå¹³è¡¡": 7615,
      "æ¬¾å¼ı": 7616,
      "åĲĪæĪĲ": 7617,
      "ä¸ŃåĽ½åı¤ä»£": 7618,
      "åĸľæĤ¦": 7619,
      "æıĲåıĸåĩºæĿ¥": 7620,
      "åĵįåºĶ": 7621,
      "åĩīçĪ½": 7622,
      "ä¸įä»ħåı¯ä»¥": 7623,
      "é¾Ł": 7624,
      "äºĨä¸Ģé¡¹": 7625,
      "çĽĬå¤Ħ": 7626,
      "åľ¨è¿ĩåİ»çļĦ": 7627,
      "è¯·æł¹æį®": 7628,
      "å¥³ç¥ŀ": 7629,
      "ä½¿åħ¶æĽ´åĬłæµģçķħ": 7630,
      "æĸ¯æĭī": 7631,
      "æħ¨": 7632,
      "æĮ«æĬĺ": 7633,
      "å·¥åİĤ": 7634,
      "çļĦåŃĺåľ¨": 7635,
      "åĶ¤": 7636,
      "Ġå°Ĩä¸ĭéĿ¢": 7637,
      "éĻ·åħ¥": 7638,
      "ä½łåĸľæ¬¢": 7639,
      "æĸ¹æ³ķæĺ¯": 7640,
      "æ¼Ķå¥ı": 7641,
      "å°ıçº¢æľī": 7642,
      "äºĨä¸Ģä»½": 7643,
      "åĲĳåīį": 7644,
      "è¦ģç´ł": 7645,
      "çĪ·": 7646,
      "æĶ¹åĨĻæĪĲ": 7647,
      "æ¾Ī": 7648,
      "åħ¶ä¸ŃåĮħåĲ«": 7649,
      "çĶ¨äºĨ": 7650,
      "å¯¼èĩ´çļĦ": 7651,
      "ç©ºæ°Ķä¸Ń": 7652,
      "åĲ¯åĬ¨": 7653,
      "éļĲèĹı": 7654,
      "åħ¹": 7655,
      "è¯·æıĲåıĸ": 7656,
      "ä¸»é¢ĺåĴĮ": 7657,
      "çĺ¤": 7658,
      "çĶŁçĲĨ": 7659,
      "ä¸Ģä¸ªå°ı": 7660,
      "çļĦä¸»é¢ĺåĴĮ": 7661,
      "æ²¿çĿĢ": 7662,
      "åģ¿": 7663,
      "åĬłæĭ¿": 7664,
      "å¯¼èĪª": 7665,
      "äºĨä»ĸ": 7666,
      "èģĶåĲĪåĽ½": 7667,
      "ä¸ºåħ¶": 7668,
      "åĪĨæķ£": 7669,
      "æ¹Ľ": 7670,
      "Alice": 7671,
      "2020": 7672,
      "åĵĪåĪ©æ³¢çī¹": 7673,
      "çļĦæ²»çĸĹæĸ¹æ¡Ī": 7674,
      "è¾©": 7675,
      "ä¸ĵä¸ļäººå£«": 7676,
      "åı¯ä»¥è¿½æº¯åĪ°": 7677,
      "è¢«åĳĬ": 7678,
      "åŁĥåıĬ": 7679,
      "æ¶ĪåĮĸ": 7680,
      "åĴĮå½±åĵį": 7681,
      "åı¯éĿłæĢ§": 7682,
      "æ¸ħæ´ģèĥ½æºĲ": 7683,
      "çĪĨçĤ¸": 7684,
      "å°±ä¸ļæľºä¼ļ": 7685,
      "å®¢æĪ·æľįåĬ¡": 7686,
      "èįīåľ°ä¸Ĭ": 7687,
      "çĦ¦èĻĳåĴĮ": 7688,
      "åĪĽéĢłåĩº": 7689,
      "æĺ¯ä¸Ģæľ¬": 7690,
      "è¯´æ³ķ": 7691,
      "è®©è¯»èĢħ": 7692,
      "é²¨": 7693,
      "åįī": 7694,
      "åįĹäº¬": 7695,
      "ä»ĸæĺ¯": 7696,
      "åı¯èĥ½ä¼ļå¯¹": 7697,
      "æ¸¡": 7698,
      "é£İéĽ¨": 7699,
      "Ġè¯·çĶ¨": 7700,
      "æĸ°é²ľçļĦ": 7701,
      "å¸Ĥæ°ĳ": 7702,
      "æĽ´åĸľæ¬¢": 7703,
      "ä½ĵåŀĭ": 7704,
      "è³ª": 7705,
      "è¥¿åħ°": 7706,
      "å¤±çľł": 7707,
      "åĮĸå¦Ĩ": 7708,
      "æ°´èµĦæºĲ": 7709,
      "ä»½é¢Ŀ": 7710,
      "Ġè¿Ļ": 7711,
      "æĪĺèĥľ": 7712,
      "ä¹ĲåĻ¨": 7713,
      "è¡Įç¨ĭ": 7714,
      "åģļäºĨ": 7715,
      "ä¿ĿåŃĺ": 7716,
      "éĿŀå¸¸åĩºèī²": 7717,
      "æĺĵè¯»": 7718,
      "ä¸įçŁ¥": 7719,
      "æŃ¤æĹ¶": 7720,
      "åįĢ": 7721,
      "çĮ«åĴĮ": 7722,
      "ç¼ºå°ĳ": 7723,
      "åĨĻåĩº": 7724,
      "å¸¦æĿ¥æĽ´å¤ļçļĦ": 7725,
      "å®¶åĴĮ": 7726,
      "äº¤æį¢": 7727,
      "çĶŁæĪĲä¸Ģé¦ĸ": 7728,
      "èĨ³é£Ł": 7729,
      "æ²¡éĹ®é¢ĺ": 7730,
      "èº«ä½ĵçļĦ": 7731,
      "åĽłæĸ¯åĿ¦": 7732,
      "ãĢĤâĢĿ\\": 7733,
      "çļĦæ¨¡åŀĭ": 7734,
      "æ´¥": 7735,
      "çļĦæĹħè¡Į": 7736,
      "çļĦåĩĨç¡®": 7737,
      "æĳĦå½±": 7738,
      "åı°çģ£": 7739,
      "æł¹æį®è¾ĵåħ¥": 7740,
      "åģļåĩºäºĨ": 7741,
      "lo": 7742,
      "ç¬¬åĽĽ": 7743,
      "è¿Ŀæ³ķ": 7744,
      "ä¿Ħç½Ĺæĸ¯": 7745,
      "å¤§æµ·": 7746,
      "åĩĳ": 7747,
      "çļĦè¡¨æ¼Ķ": 7748,
      "çĶŁæľº": 7749,
      "éħµ": 7750,
      "ä¸»é¢ĺæĺ¯": 7751,
      "çī¹åĪ«æĺ¯åľ¨": 7752,
      "æ®¿": 7753,
      "åĲĳæĤ¨": 7754,
      "çļĦåĪĨç±»": 7755,
      "å°ĬéĩįåĴĮ": 7756,
      "åĬłæ³ķ": 7757,
      "èĲ¥éĶĢçŃĸçķ¥": 7758,
      "ç¹ģæ®ĸ": 7759,
      "è¥¿åĵ¥": 7760,
      "çļĦæĢ§æł¼": 7761,
      "ç»¿èī²çļĦ": 7762,
      "é¦Ļåĳ³": 7763,
      "å·²ç»ıè¢«": 7764,
      "ç¡¬ä»¶": 7765,
      "æĦŁåıĹåĪ°äºĨ": 7766,
      "èµŀæī¬": 7767,
      "çļĦäººä»¬": 7768,
      "è¥¿äºļ": 7769,
      "è®°ä½ı": 7770,
      "åı¯è¯»æĢ§": 7771,
      "éķ·": 7772,
      "å®¶ä¹¡": 7773,
      "æĤ¨ä¹Łåı¯ä»¥": 7774,
      "å¢¨è¥¿åĵ¥": 7775,
      "æĹłçº¿": 7776,
      "ç¤¾äº¤åªĴä½ĵä¸Ĭ": 7777,
      "èº«é«ĺ": 7778,
      "åį§å®¤": 7779,
      "çļĦç¬Ķ": 7780,
      "ä¿¯": 7781,
      "29": 7782,
      "åħ¨éº¦": 7783,
      "å¤ªå¹³": 7784,
      "èªª": 7785,
      "æī¹è¯Ħ": 7786,
      "è§£è¯»": 7787,
      "çļĦä¸Ģé¡¹": 7788,
      "çľĭæ³ķ": 7789,
      "è£Ķ": 7790,
      "ä¸Ģé¢Ĺ": 7791,
      "é£İåĳ³": 7792,
      "åħ³äºİäººå·¥æĻºèĥ½": 7793,
      "çļĦéĩįçĤ¹": 7794,
      "åĮ»çĸĹæľįåĬ¡": 7795,
      "åĤ²": 7796,
      "éĹ¨åı£": 7797,
      "åģļåĩºè´¡çĮ®": 7798,
      "èĩªè½¬": 7799,
      "å¯¿åı¸": 7800,
      "éŁ©åĽ½": 7801,
      "è¢«åĬ¨": 7802,
      "çĽ²": 7803,
      "ä¸ĸçķĮä¸Ń": 7804,
      "ä»¥ä¸ĭæĺ¯ä¸Ģç¯ĩ": 7805,
      "åı¯ä¹Ĳ": 7806,
      "çļĦæĻ¯è±¡": 7807,
      "æĿ¥æııè¿°": 7808,
      "è®¾è®¡åĴĮ": 7809,
      "å°½ç®¡ä»ĸ": 7810,
      "è´«åĽ°": 7811,
      "æīĵåį°": 7812,
      "éĢ¼": 7813,
      "éĶĭ": 7814,
      "æ¡ĳ": 7815,
      "å¤ªéĺ³çļĦ": 7816,
      "èģĮä¸ļçĶŁæ¶¯": 7817,
      "ĠãĢĬ": 7818,
      "çļĦæĦŁæĥħ": 7819,
      "ic": 7820,
      "æµģè¡ĮçļĦ": 7821,
      "æĢĿå¿µ": 7822,
      "ä½İç¢³": 7823,
      "èİ²": 7824,
      "é¥®éħĴ": 7825,
      "å¸ķ": 7826,
      "éĺ¿å°Ķ": 7827,
      "æľīä¸Ģåıª": 7828,
      "æĪĳå¾Īåĸľæ¬¢": 7829,
      "åģľè½¦": 7830,
      "æ·±åıĹ": 7831,
      "æ³°åĽ½": 7832,
      "å¾Ĳ": 7833,
      "è§ĴèĲ½": 7834,
      "åĵĩ": 7835,
      "äººå·¥æĻºèĥ½åľ¨åĮ»çĸĹé¢ĨåŁŁçļĦåºĶçĶ¨": 7836,
      "æĶ¯æĮģåĴĮ": 7837,
      "æĪ°": 7838,
      "å°ĳæķ°": 7839,
      "çĶ¨æĪ·æıĲä¾Ľ": 7840,
      "åıĳçĶŁçļĦ": 7841,
      "ä¸įæĩĪ": 7842,
      "æĽ´å¿«åľ°": 7843,
      "å¹¶è¦ģæ±Ĥ": 7844,
      "è¿ĺåľ¨": 7845,
      "éĿłè¿ĳ": 7846,
      "åįĹæŀģæ´²": 7847,
      "èĩªå·±åĴĮ": 7848,
      "æŁ±": 7849,
      "è¿Ļå°±æĺ¯": 7850,
      "è£¤åŃĲ": 7851,
      "å¤¸": 7852,
      "èµ¤": 7853,
      "é»ĳå®¢": 7854,
      "å®ħ": 7855,
      "åľ£æ¯į": 7856,
      "æħĪåĸĦ": 7857,
      "åĪ©äºļ": 7858,
      "å©Ĩ": 7859,
      "å¯¹æĪĳ": 7860,
      "çļĦç½ĳç»ľ": 7861,
      "æĢ»åħ±": 7862,
      "åĢ¼å¾Ĺä¸Ģçľĭ": 7863,
      "ä½ĨæĪĳä»¬": 7864,
      "é¦Ļèįī": 7865,
      "åĽ¾å½¢": 7866,
      "çļĦéķ¿": 7867,
      "ä½łåºĶè¯¥": 7868,
      "åı¯ä»¥è¢«å½Ĵç±»ä¸º": 7869,
      "åĵĪåĵĪ": 7870,
      "èµ°åľ¨": 7871,
      "å¥ĩå¹»": 7872,
      "æ¹¿åº¦": 7873,
      "ä¸»è¦ģåĮħæĭ¬": 7874,
      "è¿ĺæľīå¾Īå¤ļ": 7875,
      "ä¸ĸçķĮä¸ĬæľĢé«ĺçļĦå±±å³°": 7876,
      "300": 7877,
      "è¦ģåİ»": 7878,
      "å¤ļå°ĳä¸ª": 7879,
      "äºĭå®ŀä¸Ĭ": 7880,
      "ä¸Ńä½¿çĶ¨": 7881,
      "æĹ¥èĲ½": 7882,
      "å°ĨæĪĲä¸º": 7883,
      "35": 7884,
      "çļĦè§Ĵèī²": 7885,
      "ï¼īï¼ļ": 7886,
      "å¾ħéģĩ": 7887,
      "å¿Ļç¢Į": 7888,
      "ä¸ĬåŃ¦": 7889,
      "èįīåľ°": 7890,
      "å®Ŀçİī": 7891,
      "å·²ç»ıå¼Ģå§ĭ": 7892,
      "å·´åİĺ": 7893,
      "ä¸įè§ģ": 7894,
      "åŃ¦çĶŁä»¬": 7895,
      "æ¸©åĴĮ": 7896,
      "ä¸½èİİ": 7897,
      "å¸®åĬ©äººä»¬": 7898,
      "å¤ķéĺ³": 7899,
      "ä¸Ģä¸ªæĸ°çļĦ": 7900,
      "æ²»çĸĹæĸ¹æ¡Ī": 7901,
      "ç¼Ģ": 7902,
      "çļĦæĿĲæĸĻ": 7903,
      "äº¤éĢļæĭ¥åłµ": 7904,
      "çļĦæľĢå¤§": 7905,
      "å³¡": 7906,
      "å°Ĩäºİ": 7907,
      "æģĲæĥ§": 7908,
      "æ¡Ĩæŀ¶": 7909,
      "å¼ķåħ¥": 7910,
      "éĻįéĽ¨": 7911,
      "åŁĥèı²å°Ķéĵģå¡Ķ": 7912,
      "åķ¤": 7913,
      "æĺ¯å¯¹": 7914,
      "çļĦç³ĸæŀľæķ°": 7915,
      "æķ£æĸĩ": 7916,
      "æĬĵä½ı": 7917,
      "å¦Ĥä½ķä½¿çĶ¨": 7918,
      "åĩłåįģå¹´": 7919,
      "è·³èĪŀ": 7920,
      "éŁ³é¢ĳ": 7921,
      "å·´è¥¿": 7922,
      "éķ¿åº¦ä¸º": 7923,
      "çļĦæįŁ": 7924,
      "æ¯ıä¸ªäººéĥ½æľī": 7925,
      "çļĦæ£®": 7926,
      "è¿Ļç§įæĥħåĨµ": 7927,
      "çļĦè§£åĨ³æĸ¹æ¡Ī": 7928,
      "Ġè¯·å¯¹": 7929,
      "åķĨäºº": 7930,
      "æľīä»·åĢ¼": 7931,
      "å¡ĳéĢł": 7932,
      "èĥ½å¤ŁæĽ´å¥½åľ°": 7933,
      "äºĽä»Ģä¹Ī": 7934,
      "çĽ´å¾Ħ": 7935,
      "åľ¨åŁİå¸Ĥ": 7936,
      "ĊĠĠ": 7937,
      "ä»¥èİ·å¾Ĺ": 7938,
      "ä¿¡å¿µ": 7939,
      "ä¸įåľ¨": 7940,
      "åĴĮä¸ĢäºĽ": 7941,
      "ä»¥åĨħ": 7942,
      "çļĦæ£®æŀĹ": 7943,
      "å®ĩèĪª": 7944,
      "æłĩæ³¨": 7945,
      "å¥ĭæĸĹ": 7946,
      "èĻķ": 7947,
      "é«ĺåĵģè´¨": 7948,
      "åİĮ": 7949,
      "çĶŁæĪĲæĸĩæ¡Ī": 7950,
      "æ¯ıå¤©æĹ©ä¸Ĭ": 7951,
      "å¤ł": 7952,
      "ä¼ģä¸ļçļĦ": 7953,
      "åĬłå¤§": 7954,
      "æķħå®«": 7955,
      "åħ¬åħ±äº¤éĢļå·¥åħ·": 7956,
      "ä¾¿å®ľ": 7957,
      "éĩĳé»Ħèī²": 7958,
      "çıĤ": 7959,
      "çĦ¶åĲİå°Ĩ": 7960,
      "æľ¬æĸĩä»ĭç»įäºĨ": 7961,
      "æ²»çĲĨ": 7962,
      "è½»æĿ¾åľ°": 7963,
      "æĳĺåıĸ": 7964,
      "å®ĥä»¬æĺ¯": 7965,
      "å¤ªå¥½äºĨ": 7966,
      "åĮ»åŃ¦åĽ¾åĥı": 7967,
      "æĺ¯ä¸Ģåıª": 7968,
      "æ°´çļĦ": 7969,
      "åı¦ä¸Ģæĸ¹éĿ¢": 7970,
      "çĻ½äºĳ": 7971,
      "ç¹ģå¿Ļ": 7972,
      "åĴ¬": 7973,
      "ä»İæĸĩç«łä¸ŃæıĲåıĸåĩº": 7974,
      "çļĦæĵ": 7975,
      "çľĭè¿ĩ": 7976,
      "çļĦæ±½": 7977,
      "æĶ¯æĴĳ": 7978,
      "èĬ±åĽŃéĩĮ": 7979,
      "ä¹ĥ": 7980,
      "çļĦåĲĹ": 7981,
      "ä½Ĩå¥¹": 7982,
      "æµ®å®«": 7983,
      "æĸĩç«łä¸ŃæıĲåĪ°äºĨ": 7984,
      "åĪĨæŀĲäºĨ": 7985,
      "éĽ¶åĶ®": 7986,
      "å¼ºçĥĪçļĦ": 7987,
      "æĪĳä¸įçŁ¥éģĵ": 7988,
      "ä»Ģä¹Īæł·çļĦ": 7989,
      "èħĶ": 7990,
      "åĩłä¸ªç³ĸæŀľ": 7991,
      "è¾¾åĪ°äºĨ": 7992,
      "è©¹å§Ĩæĸ¯": 7993,
      "èĥĢ": 7994,
      "æĸ¹å¼ıåĴĮ": 7995,
      "å¤±è¸ª": 7996,
      "æĪĳä¼ļå°½åĬĽ": 7997,
      "æ¬¡æķ°": 7998,
      "æ°ĶåĢĻåıĺåĮĸå¯¹": 7999,
      "æĭħå¿§": 8000,
      "æĤ¨åı¯ä»¥èĢĥèĻĳ": 8001,
      "å·´åİĺå²Ľ": 8002,
      "åķ¤éħĴ": 8003,
      "æ²¡æľīæıĲä¾Ľ": 8004,
      "åıįå°Ħ": 8005,
      "æĸ¤": 8006,
      "åİŁæľ¬": 8007,
      "åĴĮæľªæĿ¥": 8008,
      "æŃ¦åĻ¨": 8009,
      "çĪ±åĽłæĸ¯åĿ¦": 8010,
      "å»ī": 8011,
      "æĸ¯çī¹": 8012,
      "ï¼ĳ": 8013,
      "è¡Ģæ¶²": 8014,
      "çĥŃå¸¦": 8015,
      "å®Įç¾İçļĦ": 8016,
      "åľ¨åĮ»çĸĹ": 8017,
      "ä½łåı¯ä»¥èĢĥèĻĳ": 8018,
      "åºĶçĶ¨åľºæĻ¯": 8019,
      "çīĽé¡¿": 8020,
      "åĴĮçłĶç©¶": 8021,
      "åĲĮæĹ¶ä¹Łåı¯ä»¥": 8022,
      "åħ¨çĲĥæ°Ķæ¸©": 8023,
      "ç¼©çŁŃ": 8024,
      "ç§įåŃĲ": 8025,
      "çļĦæĦıæĢĿæĺ¯": 8026,
      "æ¸ħçĪ½": 8027,
      "åį¢æµ®å®«": 8028,
      "æīĭä¸Ń": 8029,
      "åĩ¤": 8030,
      "çļĦæłĩå¿Ĺ": 8031,
      "çĽ¸åħ³çļĦéĹ®é¢ĺ": 8032,
      "ä¸įå¦Ĥ": 8033,
      "å½¹": 8034,
      "å¯¹æĤ¨": 8035,
      "çļĦä¸Ģç»Ħ": 8036,
      "å¥¥æĸ¯åį¡": 8037,
      "æĶ¶çĽĬ": 8038,
      "èĲ¥åħ»ç´ł": 8039,
      "åĵĢ": 8040,
      "åĴĮçŁ¥è¯Ĩ": 8041,
      "æĸĩåĮĸéģĹäº§": 8042,
      "çļĦç¨³": 8043,
      "è½´": 8044,
      "è¿ĲåĬ¨åĴĮ": 8045,
      "ä¸ŃéĹ´": 8046,
      "åŃĺåľ¨çĿĢ": 8047,
      "ä¼ĺç¼ºçĤ¹": 8048,
      "èĪªå¤©": 8049,
      "è´·æ¬¾": 8050,
      "ä¸Ģä»£": 8051,
      "ä¸įç®¡": 8052,
      "è¿ĩæĿ¥": 8053,
      "æľºç¥¨": 8054,
      "çĽ®æłĩæĺ¯": 8055,
      "åı¯è§Ĩ": 8056,
      "çļĦçķ": 8057,
      "æĬļ": 8058,
      "ä¸ĩäºº": 8059,
      "çļĦçħ§": 8060,
      "æĪĲäºĨ": 8061,
      "ä¸īè§Ĵå½¢": 8062,
      "è®¸å¤ļé¢ĨåŁŁ": 8063,
      "æ±¡": 8064,
      "çķı": 8065,
      "çļĦæĹ¶éĹ´åĴĮ": 8066,
      "å¾Īå®¹æĺĵ": 8067,
      "è¿ĻäºĽæİªæĸ½": 8068,
      "ä¸Ģè¾¹": 8069,
      "éľ²èĲ¥": 8070,
      "æ°Ķè´¨": 8071,
      "æĿ¥è¡¨è¾¾": 8072,
      "çĻ½å¤©": 8073,
      "å´©": 8074,
      "ä¼ļä¸Ĭ": 8075,
      "è¶³çĲĥæ¯ĶèµĽ": 8076,
      "éĽĨåĽ¢": 8077,
      "å¦Ĥæŀľä½łæĥ³è¦ģ": 8078,
      "çħ§çīĩ": 8079,
      "é»Ľçİī": 8080,
      "åĴĮæĻºèĥ½": 8081,
      "ä¸ºä»¥ä¸ĭ": 8082,
      "ç³ĸåĪĨ": 8083,
      "èĲ½åľ¨": 8084,
      "èĭ±å°º": 8085,
      "çĿ¡çľłè´¨éĩı": 8086,
      "æĪıåī§": 8087,
      "é²ľèĬ±": 8088,
      "è¾ĥå¤§": 8089,
      "èĲĿ": 8090,
      "çļĦçĤ¹": 8091,
      "ä¸Ĭè¿°æĸĩæľ¬è¿Ľè¡Į": 8092,
      "çīĽæİĴ": 8093,
      "å½°": 8094,
      "æĪĳæĺ¯ä¸Ģä¸ª": 8095,
      "æĺİæľĪ": 8096,
      "çļĦå¢ŀåĬł": 8097,
      "çļĦèĥĮæĻ¯": 8098,
      "æĺ¯ä¸Ģç¯ĩ": 8099,
      "éĩĳæĺŁ": 8100,
      "æĸĩæľ¬éĶĻè¯¯è¿Ľè¡Įä¿®æĶ¹": 8101,
      "èĩªçĦ¶é£İåħī": 8102,
      "ä»¥æ»¡è¶³": 8103,
      "éľ¸": 8104,
      "å±¿": 8105,
      "ĠåĴĮ": 8106,
      "çļĦç¬ĳè¯Ŀ": 8107,
      "çļĦæŀģ": 8108,
      "åĲĳä¸Ĭ": 8109,
      "çļĦçª": 8110,
      "ä½ĵç§¯": 8111,
      "ä¸İä¹ĭ": 8112,
      "å¥ĩå¦Ļ": 8113,
      "å¤ĩçĶ¨": 8114,
      "çļĦåĩºçİ°": 8115,
      "æĥħæĦŁåĴĮ": 8116,
      "ç¾½æ¯Ľ": 8117,
      "æĹ¶çļĦ": 8118,
      "çĦ¡": 8119,
      "æ¸ħæ¾Ī": 8120,
      "åĨ»": 8121,
      "çļĦçĻ½": 8122,
      "ä¸Ĭè¿°æĸĩæľ¬è¿Ľè¡ĮçºłéĶĻ": 8123,
      "å¸¶": 8124,
      "å¥ī": 8125,
      "Ġä½łå¥½": 8126,
      "ï¼Ĳ": 8127,
      "æĪĳéĿŀå¸¸åĸľæ¬¢": 8128,
      "é¥¿": 8129,
      "åĬ¨æ¤įçī©": 8130,
      "éĹ·": 8131,
      "æıĲäº¤": 8132,
      "çĸ¾": 8133,
      "åħ¬å¯ĵ": 8134,
      "å½»åºķ": 8135,
      "ä½łæľĢåĸľæ¬¢çļĦ": 8136,
      "ï¼ļï¼Ī": 8137,
      "æĶ¶èİ·": 8138,
      "çļĦåīį": 8139,
      "èĢ³æľµ": 8140,
      "å¸ĥæĸ¯": 8141,
      "ä¼ļè®®ä¸Ĭ": 8142,
      "éĩįè¦ģçļĦæĺ¯": 8143,
      "é¤Ĳé¥®": 8144,
      "éļıçĿĢæĬĢæľ¯çļĦ": 8145,
      "é¢ĺæĿĲ": 8146,
      "éľĢè¦ģä½¿çĶ¨": 8147,
      "é¢Ĺç³ĸ": 8148,
      "è¿½è¸ª": 8149,
      "å·²æľī": 8150,
      "é¥²": 8151,
      "èĤ¥èĥĸ": 8152,
      "çļĦåĬªåĬĽ": 8153,
      "åľ¨ä½¿çĶ¨": 8154,
      "Ġä»¥": 8155,
      "åľ¨ä¸įåĲĮ": 8156,
      "åĨĻä¸Ģç¯ĩåħ³äºİ": 8157,
      "åĴĮå¤ĦçĲĨ": 8158,
      "ä»¥ä¸ĭæĺ¯ä¸Ģä¸ª": 8159,
      "ä¸ªæĢ§åĮĸçļĦ": 8160,
      "å½¢æĪĲäºĨ": 8161,
      "å¯¹åħ¶è¿Ľè¡Į": 8162,
      "è¯ŃéŁ³åĬ©æīĭ": 8163,
      "ç¤¾æľĥ": 8164,
      "åħ±åĴĮ": 8165,
      "éģŃéģĩ": 8166,
      "éľĢè¦ģå¸®åĬ©": 8167,
      "æ¤İ": 8168,
      "æįŁå®³": 8169,
      "èĩªå·±çļĦæ¢¦æĥ³": 8170,
      "ä¹ĺå®¢": 8171,
      "æŃ£åľ¨å¯»æī¾": 8172,
      "åĴĮéľĢæ±Ĥ": 8173,
      "éľŀ": 8174,
      "èŃ°": 8175,
      "è¯Ħè®ºèĢħ": 8176,
      "å¥¹ä»¬": 8177,
      "åĪ¶å®ļä¸Ģä¸ª": 8178,
      "å°Ĩä»¥ä¸ĭåı¥åŃĲ": 8179,
      "çļĦæİ¨çĲĨ": 8180,
      "æĪĸèĢħæĺ¯": 8181,
      "æĴ¼": 8182,
      "éĩįè¦ģçļĦè§Ĵèī²": 8183,
      "è£¹": 8184,
      "çºªå½ķ": 8185,
      "ä¸ĢéĹ¨": 8186,
      "éħįç½®": 8187,
      "æĺŁç©º": 8188,
      "å¸¸çĶ¨": 8189,
      "å½±åĵįäºĨ": 8190,
      "èĥ½æºĲæ¶ĪèĢĹ": 8191
    },
    "merges": [
      [
        "ä",
        "¸"
      ],
      [
        "ï",
        "¼"
      ],
      [
        "ç",
        "ļ"
      ],
      [
        "çļ",
        "Ħ"
      ],
      [
        "ï¼",
        "Į"
      ],
      [
        "ã",
        "Ģ"
      ],
      [
        "ãĢ",
        "Ĥ"
      ],
      [
        "ä",
        "º"
      ],
      [
        "ä",
        "»"
      ],
      [
        "å",
        "ı"
      ],
      [
        "æ",
        "ľ"
      ],
      [
        "è",
        "¿"
      ],
      [
        "æ",
        "Ī"
      ],
      [
        "å",
        "ħ"
      ],
      [
        "ä",
        "½"
      ],
      [
        "æ",
        "ĺ"
      ],
      [
        "å",
        "¤"
      ],
      [
        "è",
        "¯"
      ],
      [
        "ä¸",
        "Ģ"
      ],
      [
        "æ",
        "ĸ"
      ],
      [
        "å",
        "®"
      ],
      [
        "ç",
        "Ķ"
      ],
      [
        "å",
        "Ī"
      ],
      [
        "å",
        "Ĵ"
      ],
      [
        "å",
        "ľ"
      ],
      [
        "åĴ",
        "Į"
      ],
      [
        "å",
        "Ĳ"
      ],
      [
        "å",
        "Ĭ"
      ],
      [
        "ç",
        "»"
      ],
      [
        "ä",
        "¹"
      ],
      [
        "æĺ",
        "¯"
      ],
      [
        "å",
        "°"
      ],
      [
        "å",
        "Ń"
      ],
      [
        "ä¸",
        "ª"
      ],
      [
        "ä»",
        "¥"
      ],
      [
        "è",
        "®"
      ],
      [
        "ãĢ",
        "ģ"
      ],
      [
        "æĪ",
        "ĳ"
      ],
      [
        "åľ",
        "¨"
      ],
      [
        "äº",
        "º"
      ],
      [
        "ĥ",
        "½"
      ],
      [
        "æľ",
        "ī"
      ],
      [
        "ï¼",
        "ļ"
      ],
      [
        "æ",
        "Ĺ"
      ],
      [
        "äº",
        "Ĩ"
      ],
      [
        "åı",
        "¯"
      ],
      [
        "è¿",
        "Ļ"
      ],
      [
        "å",
        "Ľ"
      ],
      [
        "æ",
        "Ŀ"
      ],
      [
        "å",
        "º"
      ],
      [
        "é",
        "ĩ"
      ],
      [
        "å",
        "¹"
      ],
      [
        "å",
        "¸"
      ],
      [
        "ä¸",
        "Ń"
      ],
      [
        "ä",
        "¼"
      ],
      [
        "é",
        "Ģ"
      ],
      [
        "è",
        "¡"
      ],
      [
        "è",
        "ĥ½"
      ],
      [
        "çļĦ",
        "æ"
      ],
      [
        "å",
        "ĩ"
      ],
      [
        "å",
        "·"
      ],
      [
        "æĸ",
        "ĩ"
      ],
      [
        "å",
        "Į"
      ],
      [
        "è",
        "¦"
      ],
      [
        "è¦",
        "ģ"
      ],
      [
        "é",
        "¢"
      ],
      [
        "å",
        "¯"
      ],
      [
        "å",
        "¾"
      ],
      [
        "å",
        "Ĩ"
      ],
      [
        "ä¸",
        "º"
      ],
      [
        "è",
        "§"
      ],
      [
        "å",
        "¥"
      ],
      [
        "ç",
        "ī"
      ],
      [
        "ç",
        "§"
      ],
      [
        "ä»",
        "¬"
      ],
      [
        "é",
        "Ĺ"
      ],
      [
        "ç",
        "İ"
      ],
      [
        "å",
        "¼"
      ],
      [
        "ä¸",
        "į"
      ],
      [
        "çĶ",
        "¨"
      ],
      [
        "æ",
        "ķ"
      ],
      [
        "è",
        "Ģ"
      ],
      [
        "å",
        "½"
      ],
      [
        "æ",
        "Ģ"
      ],
      [
        "æ",
        "ŀ"
      ],
      [
        "çĶ",
        "Ł"
      ],
      [
        "ç",
        "Ń"
      ],
      [
        "æ",
        "ı"
      ],
      [
        "æ",
        "ī"
      ],
      [
        "æ",
        "Ń"
      ],
      [
        "åı¯",
        "ä»¥"
      ],
      [
        "é",
        "Ŀ"
      ],
      [
        "å",
        "į"
      ],
      [
        "ä",
        "¿"
      ],
      [
        "æ",
        "Ĭ"
      ],
      [
        "æ",
        "ł"
      ],
      [
        "æ",
        "³"
      ],
      [
        "ç",
        "Ľ"
      ],
      [
        "â",
        "Ģ"
      ],
      [
        "æĿ",
        "¥"
      ],
      [
        "è",
        "ĩ"
      ],
      [
        "æ",
        "Ħ"
      ],
      [
        "å",
        "ĵ"
      ],
      [
        "å",
        "¦"
      ],
      [
        "ä¸",
        "ĭ"
      ],
      [
        "ç",
        "Ĳ"
      ],
      [
        "ä¸Ģ",
        "ä¸ª"
      ],
      [
        "æĪ",
        "Ĳ"
      ],
      [
        "å",
        "İ"
      ],
      [
        "æ",
        "ĥ"
      ],
      [
        "æı",
        "Ĳ"
      ],
      [
        "æ",
        "°"
      ],
      [
        "åĪ",
        "°"
      ],
      [
        "ä»",
        "ĸ"
      ],
      [
        "æ",
        "Ľ"
      ],
      [
        "åŃ",
        "¦"
      ],
      [
        "æ",
        "Ļ"
      ],
      [
        "å¦",
        "Ĥ"
      ],
      [
        "è¡",
        "Į"
      ],
      [
        "åĩ",
        "º"
      ],
      [
        "å",
        "ĳ"
      ],
      [
        "å",
        "¿"
      ],
      [
        "æĹ",
        "¶"
      ],
      [
        "å¯",
        "¹"
      ],
      [
        "æ",
        "ĭ"
      ],
      [
        "ä½",
        "ł"
      ],
      [
        "åŃ",
        "Ĳ"
      ],
      [
        "ä",
        "¾"
      ],
      [
        "äº",
        "İ"
      ],
      [
        "æ",
        "İ"
      ],
      [
        "åľ",
        "°"
      ],
      [
        "é¢",
        "ĺ"
      ],
      [
        "ä¸",
        "Ĭ"
      ],
      [
        "ç",
        "«"
      ],
      [
        "æ",
        "Ķ"
      ],
      [
        "è",
        "´"
      ],
      [
        "å°",
        "ı"
      ],
      [
        "å¥",
        "½"
      ],
      [
        "ä¼",
        "ļ"
      ],
      [
        "çŃ",
        "ī"
      ],
      [
        "æĸ",
        "¹"
      ],
      [
        "æľ",
        "¬"
      ],
      [
        "èĩ",
        "ª"
      ],
      [
        "åĪ",
        "Ĩ"
      ],
      [
        "æĽ",
        "´"
      ],
      [
        "äº",
        "Ľ"
      ],
      [
        "å¤",
        "ļ"
      ],
      [
        "æ",
        "µ"
      ],
      [
        "æ",
        "¯"
      ],
      [
        "è",
        "µ"
      ],
      [
        "å¤",
        "§"
      ],
      [
        "å",
        "±"
      ],
      [
        "æ",
        "į"
      ],
      [
        "ï¼",
        "Ł"
      ],
      [
        "åĬ",
        "¨"
      ],
      [
        "ä½",
        "ľ"
      ],
      [
        "å·",
        "¥"
      ],
      [
        "çī",
        "©"
      ],
      [
        "ç",
        "º"
      ],
      [
        "åħ",
        "³"
      ],
      [
        "è",
        "¾"
      ],
      [
        "å¹",
        "¶"
      ],
      [
        "åı",
        "ĳ"
      ],
      [
        "ç",
        "®"
      ],
      [
        "æ",
        "Į"
      ],
      [
        "ç",
        "±"
      ],
      [
        "é",
        "£"
      ],
      [
        "é",
        "ľ"
      ],
      [
        "æĪĳ",
        "ä»¬"
      ],
      [
        "éĿ",
        "¢"
      ],
      [
        "æ",
        "´"
      ],
      [
        "å®",
        "ļ"
      ],
      [
        "æľ",
        "Ģ"
      ],
      [
        "åħ",
        "¶"
      ],
      [
        "æŀ",
        "ľ"
      ],
      [
        "å",
        "Ł"
      ],
      [
        "æ",
        "¬"
      ],
      [
        "ç§",
        "į"
      ],
      [
        "çİ",
        "°"
      ],
      [
        "çļĦ",
        "ç"
      ],
      [
        "è¿",
        "Ľ"
      ],
      [
        "æ³",
        "ķ"
      ],
      [
        "é",
        "Ļ"
      ],
      [
        "è¿",
        "ĩ"
      ],
      [
        "æ",
        "Ĥ"
      ],
      [
        "éĹ",
        "®"
      ],
      [
        "å",
        "ģ"
      ],
      [
        "æ",
        "¸"
      ],
      [
        "ä½",
        "ĵ"
      ],
      [
        "è",
        "ī"
      ],
      [
        "å¤",
        "©"
      ],
      [
        "å®",
        "ĥ"
      ],
      [
        "æį",
        "®"
      ],
      [
        "ç»",
        "Ļ"
      ],
      [
        "åĬ",
        "Ľ"
      ],
      [
        "çĲ",
        "Ĩ"
      ],
      [
        "æĺ",
        "İ"
      ],
      [
        "éľ",
        "Ģ"
      ],
      [
        "æ",
        "²"
      ],
      [
        "å°",
        "Ĩ"
      ],
      [
        "åº",
        "Ķ"
      ],
      [
        "åĬ",
        "ł"
      ],
      [
        "ç±",
        "»"
      ],
      [
        "æĸ",
        "°"
      ],
      [
        "é",
        "ģ"
      ],
      [
        "ç",
        "Ĥ"
      ],
      [
        "åĮ",
        "ĸ"
      ],
      [
        "æĢ",
        "§"
      ],
      [
        "ç",
        "Ħ"
      ],
      [
        "é",
        "«"
      ],
      [
        "åĲ",
        "Į"
      ],
      [
        "æĪ",
        "ĸ"
      ],
      [
        "ä½",
        "¿"
      ],
      [
        "åĽ",
        "ł"
      ],
      [
        "ä¿",
        "Ŀ"
      ],
      [
        "å¸",
        "¸"
      ],
      [
        "éĩ",
        "į"
      ],
      [
        "ç",
        "ľ"
      ],
      [
        "é«",
        "ĺ"
      ],
      [
        "åı",
        "¥"
      ],
      [
        "è",
        "½"
      ],
      [
        "æĦ",
        "Ł"
      ],
      [
        "å®",
        "¶"
      ],
      [
        "ä¹",
        "Ł"
      ],
      [
        "æľ",
        "º"
      ],
      [
        "å½",
        "±"
      ],
      [
        "è",
        "¶"
      ],
      [
        "æ",
        "±"
      ],
      [
        "ä¸",
        "»"
      ],
      [
        "é",
        "Ķ"
      ],
      [
        "é",
        "ĺ"
      ],
      [
        "è¯",
        "Ń"
      ],
      [
        "çĦ",
        "¶"
      ],
      [
        "ç«",
        "ł"
      ],
      [
        "å¾",
        "Ĺ"
      ],
      [
        "âĢ",
        "Ŀ"
      ],
      [
        "æķ",
        "°"
      ],
      [
        "æĸĩ",
        "ç«ł"
      ],
      [
        "éĢ",
        "ļ"
      ],
      [
        "åĵ",
        "ģ"
      ],
      [
        "âĢ",
        "ľ"
      ],
      [
        "ç",
        "³"
      ],
      [
        "éľĢ",
        "è¦ģ"
      ],
      [
        "çĶ",
        "µ"
      ],
      [
        "æĬ",
        "Ģ"
      ],
      [
        "æĻ",
        "º"
      ],
      [
        "è",
        "°"
      ],
      [
        "è§",
        "£"
      ],
      [
        "æĸĩ",
        "æľ¬"
      ],
      [
        "ä¹",
        "ĭ"
      ],
      [
        "ä¹",
        "Ī"
      ],
      [
        "æĥ",
        "ħ"
      ],
      [
        "æĤ",
        "¨"
      ],
      [
        "éĹ®",
        "é¢ĺ"
      ],
      [
        "åº",
        "¦"
      ],
      [
        "ç",
        "Ł"
      ],
      [
        "èĢ",
        "Į"
      ],
      [
        "å",
        "ī"
      ],
      [
        "æ",
        "ģ"
      ],
      [
        "è¡",
        "¨"
      ],
      [
        "ç»",
        "ı"
      ],
      [
        "æĻº",
        "èĥ½"
      ],
      [
        "è¯",
        "·"
      ],
      [
        "ç",
        "Ŀ"
      ],
      [
        "å¾",
        "Ī"
      ],
      [
        "éĹ",
        "´"
      ],
      [
        "æŃ",
        "¤"
      ],
      [
        "è",
        "Ĭ"
      ],
      [
        "å",
        "ĸ"
      ],
      [
        "ç",
        "¾"
      ],
      [
        "åħ",
        "¬"
      ],
      [
        "å",
        "¢"
      ],
      [
        "éĩ",
        "ı"
      ],
      [
        "åĽ",
        "½"
      ],
      [
        "ç",
        "©"
      ],
      [
        "çĤ",
        "¹"
      ],
      [
        "æľ",
        "¯"
      ],
      [
        "ç",
        "¤"
      ],
      [
        "èī",
        "²"
      ],
      [
        "è",
        "Ĥ"
      ],
      [
        "èĢ",
        "ħ"
      ],
      [
        "è¯",
        "į"
      ],
      [
        "å¹",
        "´"
      ],
      [
        "å®",
        "ŀ"
      ],
      [
        "æ°",
        "Ķ"
      ],
      [
        "å",
        "»"
      ],
      [
        "å",
        "Ģ"
      ],
      [
        "åı",
        "ĸ"
      ],
      [
        "ä¿",
        "¡"
      ],
      [
        "è¿Ļ",
        "ä¸ª"
      ],
      [
        "ä¹",
        "ł"
      ],
      [
        "åĲ",
        "į"
      ],
      [
        "ç",
        "¨"
      ],
      [
        "å¿",
        "ĥ"
      ],
      [
        "ä½",
        "Ĩ"
      ],
      [
        "åĲ",
        "Ī"
      ],
      [
        "æĦ",
        "ı"
      ],
      [
        "è¯",
        "¥"
      ],
      [
        "ä¸",
        "ļ"
      ],
      [
        "ä¾",
        "Ľ"
      ],
      [
        "ç",
        "ĸ"
      ],
      [
        "è®",
        "¡"
      ],
      [
        "åĲ",
        "İ"
      ],
      [
        "ç",
        "¡"
      ],
      [
        "é",
        "Ĥ"
      ],
      [
        "äº",
        "ĭ"
      ],
      [
        "æī",
        "Ģ"
      ],
      [
        "ä»¥",
        "ä¸ĭ"
      ],
      [
        "ä»",
        "İ"
      ],
      [
        "è¿",
        "ĺ"
      ],
      [
        "å»",
        "º"
      ],
      [
        "æ",
        "®"
      ],
      [
        "çĽ",
        "¸"
      ],
      [
        "çĿ",
        "Ģ"
      ],
      [
        "çĲ",
        "ĥ"
      ],
      [
        "ä¸Ģ",
        "äºĽ"
      ],
      [
        "é",
        "ĥ½"
      ],
      [
        "åĮ",
        "ħ"
      ],
      [
        "æıĲ",
        "ä¾Ľ"
      ],
      [
        "æ´",
        "»"
      ],
      [
        "ä¸",
        "İ"
      ],
      [
        "ç¾",
        "İ"
      ],
      [
        "æł",
        "¹"
      ],
      [
        "è¿Ľ",
        "è¡Į"
      ],
      [
        "æ",
        "Ł"
      ],
      [
        "åı¥",
        "åŃĲ"
      ],
      [
        "ç",
        "½"
      ],
      [
        "å¼",
        "ı"
      ],
      [
        "é£",
        "Ł"
      ],
      [
        "åħ",
        "¥"
      ],
      [
        "å±",
        "ķ"
      ],
      [
        "åħ",
        "¨"
      ],
      [
        "éĩ",
        "Į"
      ],
      [
        "è¿",
        "°"
      ],
      [
        "äºº",
        "å·¥"
      ],
      [
        "å¤",
        "ĸ"
      ],
      [
        "çİ",
        "¯"
      ],
      [
        "é",
        "¡"
      ],
      [
        "ç",
        "ķ"
      ],
      [
        "çī",
        "¹"
      ],
      [
        "ä½¿",
        "çĶ¨"
      ],
      [
        "æĥ",
        "³"
      ],
      [
        "ç",
        "´"
      ],
      [
        "éĿ",
        "ŀ"
      ],
      [
        "è",
        "Ĳ"
      ],
      [
        "é",
        "¦"
      ],
      [
        "äººå·¥",
        "æĻºèĥ½"
      ],
      [
        "ç",
        "¯"
      ],
      [
        "åĨ",
        "ħ"
      ],
      [
        "æŃ",
        "£"
      ],
      [
        "æ",
        "¡"
      ],
      [
        "è",
        "¢"
      ],
      [
        "é",
        "ļ"
      ],
      [
        "å½",
        "ĵ"
      ],
      [
        "å¼",
        "Ģ"
      ],
      [
        "åİ",
        "»"
      ],
      [
        "é",
        "ķ"
      ],
      [
        "æģ",
        "¯"
      ],
      [
        "æł¹",
        "æį®"
      ],
      [
        "æ°",
        "´"
      ],
      [
        "æ",
        "·"
      ],
      [
        "æ¯",
        "Ķ"
      ],
      [
        "åı",
        "ĺ"
      ],
      [
        "åĨ",
        "Ļ"
      ],
      [
        "æ®",
        "µ"
      ],
      [
        "æĺ¯",
        "ä¸Ģ"
      ],
      [
        "å",
        "ŀ"
      ],
      [
        "é",
        "ĥ"
      ],
      [
        "ç³",
        "»"
      ],
      [
        "è",
        "·"
      ],
      [
        "åĬ",
        "©"
      ],
      [
        "è",
        "ģ"
      ],
      [
        "è¯",
        "´"
      ],
      [
        "åŃ¦",
        "ä¹ł"
      ],
      [
        "ç¨",
        "ĭ"
      ],
      [
        "åĪ",
        "¶"
      ],
      [
        "åħ",
        "·"
      ],
      [
        "ç¡",
        "®"
      ],
      [
        "å¸",
        "Ĥ"
      ],
      [
        "è®",
        "©"
      ],
      [
        "ä»",
        "Ģ"
      ],
      [
        "é",
        "Ľ"
      ],
      [
        "æĮ",
        "ģ"
      ],
      [
        "éģ",
        "ĵ"
      ],
      [
        "å",
        "Ŀ"
      ],
      [
        "çľ",
        "ĭ"
      ],
      [
        "ç¯",
        "ĩ"
      ],
      [
        "ç",
        "¼"
      ],
      [
        "äº",
        "§"
      ],
      [
        "èµ",
        "·"
      ],
      [
        "ç",
        "ĥ"
      ],
      [
        "ç»",
        "ĵ"
      ],
      [
        "å",
        "ķ"
      ],
      [
        "ä»Ģ",
        "ä¹Ī"
      ],
      [
        "æĬĢ",
        "æľ¯"
      ],
      [
        "å¸",
        "®"
      ],
      [
        "è",
        "º"
      ],
      [
        "åı",
        "Ĭ"
      ],
      [
        "è¯",
        "Ŀ"
      ],
      [
        "éĥ",
        "¨"
      ],
      [
        "çĽ",
        "®"
      ],
      [
        "éĤ",
        "£"
      ],
      [
        "è",
        "ĭ"
      ],
      [
        "ç",
        "¬"
      ],
      [
        "ä½",
        "ķ"
      ],
      [
        "éķ",
        "¿"
      ],
      [
        "éĿŀ",
        "å¸¸"
      ],
      [
        "è",
        "į"
      ],
      [
        "åĬ",
        "¡"
      ],
      [
        "ç®",
        "Ĺ"
      ],
      [
        "æ¯",
        "ı"
      ],
      [
        "èº",
        "«"
      ],
      [
        "ç",
        "ĭ"
      ],
      [
        "è¢",
        "«"
      ],
      [
        "åģ",
        "¥"
      ],
      [
        "ç§",
        "ĳ"
      ],
      [
        "æĹ",
        "¥"
      ],
      [
        "å°",
        "ĳ"
      ],
      [
        "å·",
        "±"
      ],
      [
        "åī",
        "į"
      ],
      [
        "å",
        "Ļ"
      ],
      [
        "æĭ",
        "¬"
      ],
      [
        "é",
        "ħ"
      ],
      [
        "éĢ",
        "Ĥ"
      ],
      [
        "åĸ",
        "ľ"
      ],
      [
        "èĩª",
        "å·±"
      ],
      [
        "åľ",
        "º"
      ],
      [
        "å®",
        "¹"
      ],
      [
        "åı",
        "Ĺ"
      ],
      [
        "åı¯",
        "èĥ½"
      ],
      [
        "æĹ",
        "ł"
      ],
      [
        "åĽ",
        "ŀ"
      ],
      [
        "æ¬",
        "¢"
      ],
      [
        "ä¿¡",
        "æģ¯"
      ],
      [
        "éĢ",
        "ī"
      ],
      [
        "ä»ĸ",
        "ä»¬"
[...]
